#version: 0.2 - Trained by `huggingface/tokenizers`
. .
Ġ t
Ġ a
i n
h e
o n
e r
r e
.. ..
e n
a t
Ġt he
Ġ o
Ġ s
e s
a n
o r
a l
i t
i s
Ġ c
e d
Ġ p
a r
i on
Ġo f
n d
i c
Ġ w
Ġ f
Ġ in
Ġ 1
Ġ d
Ġ b
in g
r o
.... ....
Ġa nd
en t
Ġ m
l e
a s
Ġ S
Ġt o
Ġ C
o u
c t
Ġ A
Ġ .
i l
Ġ 2
Ġ T
Ġ (
Ġ re
Ġ e
o m
s t
at ion
e l
0 0
Ġ M
Ġ h
Ġ n
Ġ l
Ġ P
Ġt h
o l
e t
i d
Ġ I
i v
r a
c e
u r
Ġ Ġ
c h
Ġ R
Ġ B
i m
o t
........ ........
Ġ D
i g
u t
a m
u s
Ġf or
m ent
Ġ F
Ġ g
l y
a d
Ġb e
Ġ N
er s
Ġ is
Ġ L
Ġ H
Ġ E
u l
o s
u n
Ġ on
Ġd e
i r
Ġ Ċ
Ġc on
Ġ 3
o w
t er
- -
Ġ W
Ġp ro
Ġ1 9
Ġ G
a y
Ġs t
it h
g e
Ġ v
is t
Ġa s
_ _
at e
Ġth at
a b
i f
e m
q u
an d
Ġ O
he r
es t
e ct
re s
or t
ĠT he
it y
Ġw ith
Ġ J
u m
Ġo r
Ġ 4
Ġa n
Ġ 0
r i
p p
v er
a c
o d
Ġa l
v e
e c
es s
o c
t h
i es
Ġb y
Ġc om
0 1
il l
Ġs u
Ġe x
o p
s e
Ġa t
Ġ 5
an t
Ġa re
u d
Ġ U
Ġw h
1 9
Ġ r
ar t
ĠS t
a in
ro m
n t
iv e
i al
o re
Ġ it
ĠĠ ĠĠ
e w
Ġ 6
Ġ y
Ġw as
Ġ -
ou r
u re
al l
................ ................
Ġ K
en d
i a
l d
ar d
ig h
f f
Ġf rom
a p
a k
ĠI n
u nd
Ġn ot
b er
Ġ V
ion s
ic h
i p
' s
o g
Ġ 7
e p
Ġs h
Ġ2 00
at ed
e ar
a ge
ar y
ic al
Ġ he
Ġ le
1 0
a g
u st
ation s
__ __
Ġ "
i re
Ġ 8
an s
u p
) ,
t her
Ġc h
el l
) .
Ġ en
E R
i z
Ġh a
in e
Ġs e
o st
Ġ 9
d u
1 1
p er
ab le
c c
en ce
Ġs p
f or
u b
Ġth is
a re
Ġre s
1 2
i e
p l
t s
an ce
c l
Ġcon t
Ġa d
Ġ us
ct ion
ic e
r u
as t
O N
Ġ k
Ġ un
ou ld
Ġp er
-- --
er e
i b
ĠC h
Ġ im
t e
Ġcom p
Ġp l
er v
g h
Ġha ve
Ġa pp
or k
I N
Ġ1 0
p t
ou nt
ig n
v el
a ct
Ġ2 01
or d
on g
ul t
Ġ1 8
Ġwh ich
A N
ou s
u e
T he
it ion
f er
r y
en s
A R
1 5
p ort
Ġ qu
1 3
a ch
igh t
. ,
a v
l ic
1 8
r ic
Ġal l
as s
1 4
00 0
2 0
id e
u al
Ġa b
Ġw ere
A T
E N
A L
for m
ation al
on d
E S
o v
om e
ĠT h
ĠC om
Ġl a
Ġh as
Ġp art
Ġ Y
is s
Ġ19 9
a il
en c
1 6
at er
Ġ j
ment s
i an
Ġw e
he n
as e
o ver
Ġ1 2
1 7
res s
O R
Ġm e
at es
on s
an c
e g
ter n
Ġo ther
ou t
re e
l l
t o
or y
ar k
ĠU n
Ġcom m
an g
ra m
Ġd is
am e
or s
ac k
p h
Ġd es
e x
Ġc l
a ce
3 0
Ġre c
if ic
Ġ und
ĠP ro
el y
Ġp re
Ġw ill
Ġthe ir
im e
s o
it ies
2 5
is h
ol l
Ġa r
Ġm an
2 00
i k
o k
on t
er m
in d
Ġas s
.. .
ent s
o od
cl ud
os e
it e
Ġin d
o b
s s
Ġa g
Ġpro v
Ġcon s
c id
5 0
j ect
il d
Ġy ear
n e
ol og
on e
m er
2 4
Ġc an
Ġsu b
Ġp r
Ġ ro
Ġa cc
Ġit s
i o
i le
ri b
r ans
Ġon e
Ġbe en
Ġ1 5
in t
ĠĠĠĠ ĠĠĠĠ
Ġre g
i ed
2 7
le ct
Ġd o
2 3
Ġt ra
y st
S T
Ġ1 3
Ġ1 4
er al
ing s
ect ion
Ġin ter
Ġal so
Ġh is
Ġund er
Ġ1 7
Ġe v
____ ____
u gh
Ġ1 6
2 9
Ġo ut
I C
Ġb ut
Ġm ore
2 6
y s
Ġre l
Ġ i
ow n
r it
e f
Ġan y
Ġh ad
p e
ol d
vel op
at ive
2 8
Ġim p
Ġ2 0
Ġm ay
w e
yst em
ou nd
v i
Ġs c
Ġt e
I T
Ġin c
l and
am p
u c
Ġin clud
Ġw ork
Ġthe y
Ġ &
il ity
o y
Ġg ro
he d
n g
Ġth an
Ġ19 8
Ġa m
ĠA r
l es
4 0
Ġa ct
w o
iv ers
Ġwh o
er t
) (
o ol
Ġn e
e e
ak e
Ġ1 1
ub lic
2 01
at a
g ram
Ġ [
ut ion
Ġo b
it ed
Ġn o
Ġsp ec
I ON
Ġthe re
w n
Ġw ould
us e
2 2
id ent
Ġsu ch
a h
re d
ir st
3 3
Ġo ver
Ġ ra
Ġe t
ĠCom m
at ing
Ġ up
Ġre qu
Ġ est
p os
in al
ĠR e
Ġof f
he re
res ent
6 0
---- ----
Ġs o
Ġe ff
al e
Ġy ou
a w
ĠA l
Ġst ud
ar i
p ect
ro ugh
ĠH e
E C
n ing
Ġb et
Ġ ,
oc i
it s
â Ģ
u res
m an
h ip
3 5
k s
Ġt ime
Ġ $
o h
4 5
Ġt rans
pp ort
Ġthe se
Ġt wo
Ġs erv
is e
st it
ad e
ĠA n
ĠD e
g an
2 1
Ġad d
Ġe m
an ge
as ed
ra ct
ĠTh is
I n
a x
E D
Ġg en
i el
Ġin v
i ent
ic s
Ġp ol
at h
7 0
t ed
ur ing
t he
os s
A S
over n
ch ool
um ber
t on
Ġat t
ĠI t
Ġn ew
re n
ers on
................................ ................................
t y
Ġ ent
ĠSt ate
Ġde velop
ay s
A M
ic es
3 6
ĠM ar
u g
ĠF or
ĠC on
3 4
3 8
ul ar
7 5
p r
f t
is ion
ĠN ew
em ber
Ġs ystem
m s
form ation
i x
9 9
ire ct
al s
Ġf l
Ġbe c
Ġon ly
Ġd if
st ru
Ġa c
ur al
c ed
E L
ot h
Ġs ec
a ir
ib le
n er
Ġd et
Ġl oc
we en
I S
c on
č Ġ
O L
8 0
c ent
Ġapp ro
ou gh
3 9
ar g
re at
Ġin to
em b
U R
f ter
Ġp ar
s on
er y
t t
4 4
oll ow
an k
Ġab out
Ġ3 0
Ġ2 5
Ġyear s
Ġm od
i er
Ġf irst
Ġ if
3 7
Ġpro du
Ġ :
iss ion
ow er
oc k
c es
o int
Ġ =
r al
Ġd ist
ce pt
ĠS c
c ess
Ġw hen
a j
ort h
o f
Ġ Z
Ġs ome
Ġbet ween
Ġ `
Ġp e
ic k
A C
Ġ Q
et h
Ġth rough
6 5
. "
O T
9 0
I L
ut h
ur n
Ġc o
Ġo per
c om
ĠI nd
e b
ĠR es
ivers ity
Ġs ur
w ard
an y
N D
o ve
Ġde f
ĠP l
Ġsh ould
IN G
Ġre port
Ġin t
4 8
Ġus e
Ġre m
Ġv al
ĠC l
7 8
Ġf ollow
Ġpro gram
Ġ z
ĠA d
Ġ --
3 1
iel d
ch n
Ġsh all
o ok
ĠE x
d er
a use
u es
ion al
as h
id er
Ġ ed
E T
= =
4 9
e ver
d e
5 5
ou se
R O
ĠN o
4 6
ou n
7 6
Ġe l
Ġus ed
er n
in s
et s
olog y
Ġs ign
t en
he s
v en
Ġfor m
Ġc ol
Ġd el
ut e
or n
Ġpart ic
Ġc ount
in ed
3 2
in a
........ ....
in es
Ġ /
7 9
w w
Ġrequ ire
al th
ou th
I I
Ġo ur
ra ph
is c
e y
ĠO F
overn ment
Ġ2 4
Ġa v
a z
ĠC ol
Ġb u
iv es
19 9
enc y
le ment
Ġk n
Ġp h
c k
6 8
ant s
f ore
Ġex t
Ġs a
Ġm ost
ĠP h
ic t
Ġre p
Ġc ap
Ġn umber
I D
u ch
Ġprov id
in c
Ġex p
b le
7 7
6 9
iz ed
m e
il y
Ġe ach
Ġst ate
Ġc ent
Ġd ata
H E
v ent
ĠS h
Ġp ublic
A D
a u
us s
EN T
Ġdis c
Ġs et
Ġw here
Ġin formation
oh n
ĠR ep
Ġinc re
Ġeff ect
6 6
ĠA s
Ġ2 8
5 8
Ġsu pport
Ġ '
vi ew
Ġf e
mer ic
m in
an n
O M
Ġdif fer
t ic
ro l
ĠS p
ĠA ss
Ġne ed
i or
R E
ul ation
Ġcomm un
Ġm in
at t
re nt
ĠT e
is m
Ġc or
if ied
i am
Ġw ell
et y
4 7
Ġh igh
ĠC o
U S
r ation
op le
Ġa fter
Ġres p
Ġthe m
re t
en n
un g
5 9
ĠS T
l ed
Ġ2 1
t ain
Ġ +
0 8
v ed
Ġp erson
ĠUn iversity
at ure
Ġde c
S t
i qu
Ġd uring
iv id
Ġm ade
le y
uth or
ĠF r
it al
g y
ĠL e
iv er
pl oy
Ġe qu
Ġh ow
Ġc ur
Ġm ust
Ġm on
or ld
7 4
s h
ik e
is hed
i od
Ġv i
L E
as on
5 6
U N
č ĠĠ
Ġgro up
con om
Ġ2 9
Ġc ar
Ġp ur
Ġb l
Ġpro cess
Ġ2 2
Ġ end
ot al
ul l
Ġth ose
Ġ X
8 8
Ġ2 6
ĠCom p
C H
Ġc ould
r on
ĠR eg
le ction
as es
0 5
ĠW e
if e
4 1
ar ge
ab ility
Ġth ree
, "
it t
ĠC ent
Ġle vel
ex t
AT ION
7 3
enc es
Ġm ain
Ġe ar
ĠI N
ric t
iz ation
Ġs im
ĠD ep
Ġst r
Ġv ari
it ions
en g
Ġ2 3
is ter
in k
ĠA ct
in ce
tern ational
am es
4 2
Ġcons ider
ag es
i ence
ĠA meric
om en
Ġin f
Ġf in
ĠC ar
Ġwith in
0 9
Ġs m
ĠJ ohn
ard s
i um
om m
ro p
Ġm ed
Ġor gan
Ġqu e
ir on
7 2
Ġl ong
ĠR o
Ġin s
4 3
an e
Ġb oth
r is
iv en
Ġcomp le
Ġpe ople
Ġb el
al ly
I V
Ġc our
Ġ *
ĠW h
ru ct
Ġt erm
age ment
Ġm ark
) ;
ĠO r
Ġis s
Ġman y
ff ic
C h
Ġ her
0 6
at or
Ġ u
ab l
Ġp resent
ĠI s
Ġt y
Ġcont in
ow s
ĠS ec
w ay
ĠN ational
7 1
art ment
k e
Ġim port
p or
Ġo p
Ġthe n
a e
it te
Ġde p
Ġf act
ical ly
el f
Ġact iv
Ġg o
ar m
Ġre t
Ġo cc
Ġc ost
in ation
ist s
ot e
Ġs ame
a i
1 00
in ess
0 2
ar ch
igh ts
r id
ĠC ount
Ġs chool
ot her
Ġn on
un e
ĠSt ates
8 9
. )
f ul
al ity
ra d
Ġare a
Ġdes ign
0 3
________ ________
ĠM an
at her
in ing
Ġ ................................
8 5
ĠĠ Ċ
Ġ1 00
Ġd irect
Ġinclud ing
Ġf ac
R A
ail able
Ġla w
amp le
8 6
ir c
or m
ĠU S
ro und
Ġag ain
T h
ent ial
el s
Ġbe ing
iz e
oc ial
pt ion
Ġpro ject
du ct
Ġs er
Ġ3 1
E M
ro ss
Ġre ce
Ġdevelop ment
emb ers
v iron
ĠE n
Ġ2 7
ĠA ll
r im
ri es
ar s
Ġde m
u ro
are d
en se
0 4
ĠUn ited
Ġp oss
ep t
y n
Ġex per
* *
Ġper iod
Ġp os
Ġ es
end ed
U T
ĠB o
6 4
Ġse e
il le
Ġgen eral
Ġcon c
Ġo wn
ĠG en
iv ed
a ve
Ġch ild
n ess
Ġp op
y m
Ġfollow ing
Ġf ound
Ġcon f
Ġw ater
Ġte chn
ivid ual
Ġd i
U L
Ġbec ause
fer ence
Ġad v
Ġc re
le ar
5 4
Ġl and
er c
ist or
Ġ ident
Ġle g
6 7
Ġv ery
A P
um an
od e
our ces
Ġadd ition
Ġrec ord
Ġwh at
ĠM in
Ġcon d
Ġp res
5 2
he m
5 1
i i
ig ure
Ġs he
ur y
Ġb as
Ġp o
Ġbu ild
Ġst and
ing ton
5 7
ĠG e
Ġsec ond
us iness
Ġa uthor
y l
m ed
Ġan al
Ġle ad
5 3
0 7
at ely
il it
s c
itte e
i ous
et t
r an
Ġdes c
Ġd er
I R
u ed
Ġre f
ĠM r
ific ation
Ġinv est
Ġf und
aj or
Ġpro t
I G
Ġ er
ĠS erv
ak ing
6 3
ĠB l
p ro
Ġp at
Ġ 00
Ġbe fore
Ġor der
viron ment
O S
ĠA g
A G
6 2
Ġc ase
id ence
Ġper cent
ĠA nd
b y
Ġl im
m it
6 1
Ġg u
ĠE ng
ĠH ow
is ed
-------- --------
ill ion
il ities
Ì ģ
a f
our ce
ir d
Ġapp lic
Ġres ult
al es
Ġt est
Ġf un
rib ut
Ġpro per
Ġd id
ĠF l
r ist
Ġper form
U M
9 8
ĠS e
ĠN orth
iv ely
ist ory
ul ts
le v
Ġme as
ĠA pp
Ġinter est
Ġloc al
ot t
at ic
ĠA m
Ġ x
ad a
Ġav ailable
ro w
@ @
ĠP ol
ĠC al
re g
Ġoff ic
e h
Ġf am
Ġpl an
Ġpl ay
Ġs l
Ġdiffer ent
Ġs ection
og raph
e v
ate g
or g
ater ial
if y
Ġ5 0
Ġm at
Ġh im
ĠP r
ĠCount y
ĠC ont
Ġe lect
stru ction
t al
Ġb o
Ġe ver
Ġsm all
Ġg r
Ġ201 0
Ġem ploy
Ġed uc
Ġg overnment
Ġa ff
v ing
Ġsign ific
I A
ic y
Ġe conom
Ġserv ices
Ġprov ide
anc ial
ĠY ork
ĠS chool
Ġcur rent
Ġ ................
ĠI f
eth od
olog ical
v ers
a ff
Ġc all
ĠA t
Ġex pl
ĠDep artment
Ġp ass
Ġind ividual
im es
um b
ĠO n
E P
oc u
8 7
f ess
Ġm et
Ġind ic
cc ess
ĠJ an
ub l
anc es
g g
I ST
ert ain
ur ther
b e
s p
8 4
Ġdet erm
Ġest abl
I M
ĠT HE
Ġ200 8
/ /
Ġdo es
ber t
Ġcont rol
ĠM ay
Ġj ust
Ġcl ass
Ġm ake
Ġre se
EC T
min ist
ĠM ed
Ġf our
v al
c il
Ġ4 0
ĠP art
8 2
Ġm embers
) :
ro ad
Ġr is
Ġst at
re et
Ġm y
g et
Ġch ar
ear ch
ur s
Ġb en
Ġv ol
ĠE d
Ġev en
le t
Ġs ol
Ġf ore
iv ing
du c
ĠC ity
8 3
w ork
it or
Ġc are
9 5
Ġs it
Ġpartic ular
Ġl ess
Ġp ract
Ġare as
a pp
ab or
ĠW ill
Ġ200 5
our n
Ġl o
AN D
act er
ĠC an
== ==
Ġrep resent
Ġf r
u ation
re en
st and
ĠA ND
Ġb ased
Ġpro ble
Ġ200 9
ĠThe re
et er
ain s
Ġimport ant
' t
Ġkn ow
Ġagain st
g in
8 1
O C
ys is
Ġhe alth
ual ly
Ġserv ice
Ġg ra
Ġ200 6
Ġpl ace
Ġme et
ĠC or
Ġ200 7
Ġg l
am b
O D
ĠS outh
Ġan n
Ġy our
Ġ ................................................................
Ġval ue
Ġm ajor
ĠM c
A Y
Ġb ack
ĠR ec
Ġ201 1
Ġl arge
stit ution
ĠN ov
ĠĠĠĠĠĠĠĠ ĠĠĠĠĠĠĠĠ
Ġwh ile
le g
Ġprovid ed
Ġv is
as k
Ġus ing
P ro
Ġp ower
ĠG u
Ġse ver
Ġimp ro
Ġre st
Ġn ational
ĠD r
Ġacc ess
ad o
ĠD ist
ruct ure
Ġstud y
ĠA b
Ġch ang
Ġres pect
n a
Ġqu est
er ing
oun cil
re ad
ĠP ar
uro pe
Ġg ood
Ġprodu ct
Ġl ist
ec ess
a us
Ġ3 5
ĠAmeric an
Ġl es
h old
Ġg iven
Ġto tal
Ġp ay
Ġinclud e
A B
Ġex ample
Ġd u
l p
Ġwith out
I P
z e
le ge
at s
Ġsa id
Ġn ow
ur ity
9 7
9 6
r ing
ĠP res
l ess
Ġsignific ant
ĠE l
Ġ201 2
am ent
ro up
Ġin st
Ġacc ount
ed eral
Ġsu pp
ĠComm ission
Ġh and
Ġp ri
d ay
an a
ER S
Ġor ig
en e
s erv
Ġp oint
Ġm uch
inc ip
: //
ur ch
in ts
Ġw ay
Ġt ax
ĠT o
Ġab ove
ĠO ct
ĠP ark
Ġrese arch
Ġex ist
Ġ200 0
Ġp ost
er ation
ec ut
ic a
T H
Ġ200 4
v es
Ġen g
tt p
il es
for d
Ġrequire d
Ġm aterial
ĠT ra
Ġass oci
stru ct
ĠRep ort
ĠJ u
ce ed
p ri
og n
Ġb usiness
Ġ ...
al t
Ġd r
Ġv s
Ġs ocial
ce m
ĠP er
Ġf ield
c he
i j
ie f
Ġgro w
Ġr ight
9 2
Ġre ad
u k
Ġp ot
ec ial
ĠThe se
Ġw omen
Ġ201 4
ĠI m
Ġspec ies
Ġ200 3
9 4
ent ion
C T
ve y
Ġresp ons
ĠC H
is on
ĠC O
p ut
ĠM e
ĠIn ter
ĠComm ittee
Ġpartic ip
p le
Ġest im
Ġt r
il ar
Ġch ange
ak en
ent ly
er ed
il i
Ġ3 2
Ġre du
u f
ĠGen eral
Ġn et
ĠA ug
Ġh ouse
ar n
Ġt re
l o
ĠC our
ain ed
Ġpro pos
ĠSt ud
at ory
9 3
Ġinv ol
Ġpol it
ĠD irect
ĠW est
Ġ201 3
N A
iqu e
Ġ3 3
Ġop en
9 1
Ġl ike
Ġ #
Ġ |
Ġever y
Ġs ince
Ġhe lp
ĠH ar
Ġ200 2
O W
ib ility
Ġm illion
ĠĠ Ġ
Ġt ake
vi ous
ĠS ch
Ġchild ren
Ġm ethod
l er
ect ed
Ġh ig
os p
ic o
Ġn ecess
ĠT rans
at ural
Ġsub ject
ĠJ une
Ġw orld
ĠE urope
Ġcommun ity
rib ution
ĠS ee
Ġpr im
cem ber
ri ed
Ġob ject
Ġ )
Ġte am
Ġstud ents
ar a
Ġpr iv
Ġben ef
u le
A r
ing le
c o
it ive
U n
ic i
Ġd ay
Ġp ers
ĠB e
ĠA f
Ġman agement
in o
ĠL a
A n
Ġam ong
Ġmark et
Ġw he
m a
l ine
ĠO ff
ĠB ro
are nt
C E
ĠS ept
Ġm ar
t ing
Ġl ine
Ġf re
Ġ201 5
Ġ3 4
Ġl ow
h am
ĠHow ever
od y
it her
ul ations
Ġ3 6
ra ft
o ot
l u
ro ll
a im
oci ety
Ġw rit
u el
y d
ver age
is ions
Ġ200 1
Ġin it
Ġs k
ĠA pr
Ġl ast
Ġsh ow
Ġdisc uss
Ġt em
AT E
T otal
u ary
on es
v ille
Ġvi ew
Ġam ount
iv al
al f
Ġ ;
n ot
Ġl ife
re l
ang u
un ic
e k
al k
Ġdesc rib
Ġpro m
ĠWill iam
Ġind ust
im um
ur g
p s
Ġl os
ww w
th ough
T S
Ġr un
ĠI I
Ġc rit
ult ural
ourn al
Ġc he
Ġbe h
is l
Ġf urther
Ġre al
Ġimp act
ect or
Ġd ue
u ra
Ġfin ancial
Ġd ocu
ĠD es
at ors
ut ure
Ġf ind
ĠThe y
d en
Ġall ow
Ġmon th
lect ed
Ġadd ress
ĠC ons
Ġt er
c y
i en
ro du
Ġposs ible
Ġactiv ities
ne y
ire d
Ġr ate
um e
Ġm ult
im ent
Ġn ear
op h
Ġacc ord
ash ington
end ing
O P
ĠC ouncil
Ġpop ulation
Ġh uman
ĠIn c
Ġ âĢ
ĠD av
ĠIn ternational
Ġc over
Ġspec ial
ab ly
Ġra d
t il
Ġst art
Ġre view
ĠSt reet
ĠE m
ĠA ust
ĠR E
Ġd own
S P
Ġ6 0
il t
p ar
AR T
Ġd a
e ed
ol ution
l i
stit ut
ur b
Ġimp lement
Ġcount ries
ĠM ich
Ġeduc ation
Ġa ir
Ġcount ry
C C
ĠS he
ĠS u
ES T
Ġc lear
cl us
Ġen vironment
Ġ4 5
ĠV al
w are
um m
ĠD E
ĠMar ch
ĠCh ar
ĠB ut
it er
C on
l ing
Ġsever al
Ġp p
ad em
Ġsystem s
ĠF eb
ill s
Ġa ut
ĠG r
Ġp ort
Ġl ater
ĠH igh
Ġsu ccess
ĠB r
Ġc al
I F
Ġm en
l in
Ġchar acter
Ġ3 8
o ber
u x
ak es
tic le
Ġd om
................ ....
ĠPro gram
Ġres ults
Ġ3 7
Ġcomp et
ĠCh rist
ure d
or ies
Ġcon duct
ĠG overnment
âĢ Ļ
ap ter
Ġty p
ri al
S S
ĠServ ice
ĠT otal
ĠJu ly
Ġear ly
f ace
ra g
Ġass ess
te g
ĠN ot
es tern
Ġappro pri
Th is
Ġs om
ep end
ĠH ouse
Ġ3 9
Ġn ame
our s
Ġbuild ing
ĠS m
A l
ĠS an
Ġhe re
ĠPl an
stit ute
Ġc ertain
iv ision
ĠG l
Ġcom b
ul es
as ter
ĠL aw
on y
ĠA c
Ġg reat
C A
Ġh ttp
o le
Ġen s
rid ge
ĠQ u
Ġhe ad
Ġst re
Ġan other
Ġapp ear
ore d
Ġc irc
un ity
Ġwhe ther
5 00
os ed
ap er
Ġmod el
N o
Ġp or
Ġpri or
ĠB ar
Ġw ar
Ġpol icy
" ,
Ġex am
ĠAss oci
Ġreg ard
ie ve
Ġret urn
Ġle ast
g o
in n
ĠDe cember
Ġ <
. -
ĠU N
Ġincre ase
Ġanal ysis
ĠCol lege
Ġpot ential
ot s
op e
ĠCour t
ist ics
o ff
id es
ap e
velop ment
Ġd en
Ġl arg
Ġcond itions
o x
ers hip
g en
Ġpr incip
C O
t a
Ġst ill
ac in
Ġar t
Ġfun ction
m y
a ul
Ġre fer
at ives
U B
h ib
end s
se qu
id a
us h
ĠP re
Ġ ~
Ġun til
Ġal ong
Ġc ases
ĠW ar
Ġl ik
ĠP ublic
Ġ %
ĠI nt
ilit ary
ĠW orld
ĠG roup
ac es
f ic
Ġr ights
Ġtra d
Ġf ew
ĠBo ard
ĠRes earch
Ġen c
Ġ199 9
Ġsim ilar
Ġex pect
Ġproper ty
P S
le x
Ġin ternational
ra y
Ġass ist
Ġhow ever
Ġspec ific
Ġme ans
R I
id d
st er
ig ation
ĠS ection
Ġob serv
................ ........
ĠCal if
Ġinclud ed
l a
ort s
em s
Ġt reat
Ġev idence
ar ies
ĠW ashington
o or
Ġup on
c ri
Ġw ord
y pe
Ġty pe
er gy
Ġcomm on
i h
ap s
Ġgen er
Ġconc ern
st ant
E x
L A
Ġris k
ĠS ystem
itt le
e ad
Ġcont ract
' '
ĠM on
Ġf uture
Ġw ind
ult ure
Ġocc ur
iv il
g u
is ing
Ġcon n
ĠAn n
O V
Ġsu gg
ward s
ĠComp any
qu e
ob al
Ġf inal
Ġde v
ĠApr il
ĠC ON
Ġsugg est
Ġrel ations
Ġf ive
T ER
Ġvi ol
Ġdet ail
Ġgroup s
Ġd ie
im ate
l or
Ġa ge
Ġm ember
Ġfam ily
ĠD ec
st r
ĠHe alth
ĠS ub
g ress
ĠAug ust
ab les
re w
Ġv er
uc k
Ġrec ogn
vent ion
Ġd ays
Ġth ough
Ġ4 2
w ays
Ġrec omm
ĠSept ember
Ġt aken
Ġeconom ic
Ġar r
e es
Ġsa f
ĠCent er
ĠAf ric
ĠB u
s ide
if f
Ġ4 8
Ġsh ort
y r
Ġkn own
ĠPres ident
Ġag ree
orn ia
Ġ4 4
ĠA ir
ud e
Ġchang es
Ġnecess ary
tern al
ĠO ther
Ġreport ed
Ġf ull
Ġin teg
b or
Ġd ate
ep ar
Ġ ut
Ġpos ition
Ġ199 8
Ġto p
and s
Ġre ason
Ġf il
r or
Ġm ight
A s
p ond
P P
Ġs ite
ĠE duc
o e
Ġph ys
Ġs ingle
ĠĠ ĠĊ
Ġrel ated
ven ue
i res
U D
om p
led ge
ĠE ast
ĠSt at
Ġb i
Ġb est
ĠV ol
a it
A V
om b
ric k
ĠR iver
ĠT O
i pp
] .
Ġof ten
ĠDist rict
ĠJan uary
Ġconsider ed
stand ing
Ġhig her
mit ted
ĠY ou
Ġcost s
ist ic
Ġ4 1
Ġde b
a id
as ing
Ġorig inal
ĠSec ret
E W
p art
ĠB rit
w h
Ġp ubl
F igure
AR D
ond on
Ġde g
Ġs ide
Ġb re
Ġaddition al
Ġterm s
Ġo ld
ĠS o
Ġ Ð
Ġsub s
i et
Ġme an
Ġm ove
ĠA cc
ra w
oc us
S C
Ġrequ est
Ġimpro ve
on a
al d
ition al
Ġrece ived
um er
ĠOff ice
T able
h a
Ġa ch
ĠF in
t ion
Ġst aff
at i
s u
................ ............
Ġr ange
land s
ĠOct ober
ĠD ef
Ġa ction
P age
Ġs ix
Ġprodu ction
Ġp ress
Ġpolit ical
k i
Ġtra ining
enc ies
istor ic
ct ions
ĠT r
Ġ4 3
Ġex cept
at o
y p
Ġa round
se e
Ġe ither
W h
e al
Ġn eg
Ġpre vious
Ġgro und
Ġres ources
ens ion
Ġvari ous
y ch
at ch
ac ed
Ġpro ced
ĠA R
p ose
o id
end er
i ber
Ġl as
her s
Ġh old
ĠP ress
Ġ ide
erv ation
ion e
med i
Ġoffic ial
Ġbel ow
Ġiss ues
ĠS ur
ĠPro v
angu age
Ġcl aim
o res
Ġpro b
Ġcour se
ĠO ne
Ġperform ance
n o
ĠB y
% )
Ġquest ion
ĠTe chn
us ic
Ġ4 6
S E
ĠS w
ĠF OR
Ġrequire ments
ĠD ay
Ġ4 7
ther n
Ġj ud
Ġt imes
ain ing
x im
ĠC ong
Ġse x
ĠJ ournal
ĠA L
Ġhe ld
W e
G E
Ġm ot
Ġ4 9
g es
Ġ5 5
Ġs epar
Ġle ft
ir m
ĠG erm
ĠDe velopment
Ġen ergy
Ġgrow th
b all
Ġexp ress
ecut ive
Ġf ail
on se
Ġes p
ĠCalif ornia
k n
Ġcom pl
Ġob tain
Ġprogram s
IL L
nd er
Ġh istory
" .
ib r
A d
Ġpriv ate
ĠS en
un t
Ġ199 6
c i
Ġa verage
Ġ199 7
m ission
Ġde cl
B ER
ĠW ith
Ġbas is
@@ @@
Ġsp ace
ĠE st
ru ary
ou thern
ag ed
Ġst ructure
Ġ199 0
Ġad minist
in ter
Ġoper ations
Ġc amp
Ġn atural
ĠNov ember
Ġs ent
Ġh ome
Ġ7 0
Ġp ast
n es
at ter
or ge
pp er
ĠRo ad
ĠW hen
ex as
Ġl ook
Ġappro ach
ĠM ark
Ġof fer
Ġo pt
F or
T o
ĠDirect or
Ġassoci ated
T R
ĠF ore
red it
eh ic
ree k
Ġappropri ate
Ġl ower
Ġcons ist
Ġdocu ment
, ,
f ield
r ast
Ġstr ong
w ith
Ġpro fess
Ġd on
om a
Ġlevel s
c ul
eng th
Ġ0 1
ĠC ap
Ġb ook
AL L
b s
Ġestabl ished
Ġcall ed
Ġv ers
ĠAust ral
Ġk ey
Ġproble m
ac y
T A
ĠP e
Ġb road
Ġqu ality
ens ive
ac ity
Ġad j
Ġpo ints
Ġo pport
r d
v est
c ont
a ction
w ell
Ġan t
Ġre pl
Ġincre ased
Ġ ill
Ġmain tain
om as
Ġ199 5
OL L
k a
Ġstud ies
ĠJ ames
Ġf ar
Ġn ext
am a
n el
i ents
Ġlik ely
ish ing
ĠW ork
Ġs at
ĠM or
Ġ8 0
I t
Ġg e
Ġc ity
ra in
ĠM iss
ĠR ich
ip ment
ell a
er a
ab it
F F
er ve
Ġnet work
om s
p re
Ġev ent
Ġ201 6
ĠA re
ĠP R
Ġother s
Ġcommun ic
Ġm ov
Ġbec ome
Ġf ocus
mer g
O U
ĠO per
R e
Ġpre d
Ġc e
Ġinc ome
Ġcomp any
Ġb r
201 0
ut es
Ġf a
w ood
A K
Ġprovid es
~ ~
z a
Ġev al
res pond
Ġre v
le ase
Ġac cept
Ġg re
Ġg et
ro s
ru g
Ġro le
ot es
P R
f l
Ġth ink
pl es
Ġc aus
Ġl oss
T E
er o
at ures
am ed
Ġsu per
Ġcour t
ĠRe v
Ġsec urity
fic ult
m en
ch an
ĠInd ian
Ġs ay
Ġdescrib ed
a el
Ġac ross
M ENT
Ġcon struction
Ġb ro
ĠCar ol
Ġle t
l s
ĠR el
Ġb ase
ord in
l ied
Ġs ize
ĠDav id
Ġha ving
Ġf ram
Ġro ad
Ġ6 5
Ġar ch
Ġt urn
Ġc op
Ġiss ue
ad es
ĠL ondon
EN D
s w
c hes
ĠD el
ect ions
Ġapplic ation
.... ..
air s
ĠA nt
it a
Ġdevelop ed
ĠIn stitute
ar ing
Ġwork ing
ag o
ĠAssoci ation
ĠH istory
Ġneed s
ĠSecret ary
ain t
Ġsh own
IT Y
Ġ5 2
S H
ĠY ear
m ost
Ġth ird
it le
one y
Ġreg ion
Ġ9 0
Ġ199 4
Ġab s
y a
ĠB er
Ġ7 5
O H
Ġt w
Ġe as
b it
c a
it ect
her n
Ġdif ficult
Ġk e
g n
Ġ5 4
Ġstand ard
i ans
Ì Ī
Ġdec ision
ĠF irst
et te
Ġs on
om an
ap t
Ġf ree
Ġp ut
Ġ5 3
Ġval ues
C l
S A
Ġcap ital
ĠI ND
ĠF und
ir gin
ĠH er
Ġ5 6
Ġ5 1
Ġcomp ut
Ġad op
ĠA ng
ĠMan agement
a res
ĠAr ch
Ġtrans port
ĠEduc ation
. :
2 000
is es
ag raph
Ġpro f
201 2
ra p
ĠE lection
ĠS ociety
am s
OR T
ĠFeb ruary
s ych
ĠP at
Ġsh are
ĠAd d
Ġpropos ed
Ġ _
Ġc ust
Ġexist ing
idd le
P A
ict ion
Ġl ight
ĠEurope an
r s
Ġorgan iz
ĠM od
Ġeffect s
OT AL
Ġpar a
r ated
Ġeffect ive
ĠInd ia
Ġmonth s
ist ry
Ġas k
Ġcom e
Ġr ather
it es
Ġm ilitary
Ġto wn
is ation
N ew
l ig
Ġab le
Ġmeas ure
i ra
==== ====
Ġpl ant
Ġd ou
iss ions
y ear
Ġens ure
Ġfor ce
g er
it ation
ĠF ederal
l ish
ĠA N
ar ily
iv ity
Ġde ath
a o
r up
ar ter
an o
r ate
epend ent
Ġt en
Ġleg al
ĠAr t
Ġs us
Ġbet ter
ap an
O G
ĠT exas
Ġc r
v is
Ġinclud es
im al
Ġ5 7
em pt
ffic ient
le ments
Ġ199 3
. --
ĠT able
l im
Ġ il
Ġt arg
---------------- ----------------
Ġf em
S h
Ġn orth
ĠS H
ot a
Ġre d
ĠM ary
201 1
Ġl og
st on
ĠAmeric a
ĠE conom
Ġin form
ĠP RO
anc ed
A A
ĠL ou
ud get
Ġfre qu
it ing
Ġrelations hip
read y
1 01
ĠN e
Ġm ax
Ġw ant
Ġproble ms
op s
ag n
E X
Ġse ason
c le
AR Y
Ġrel ig
Ġinf lu
Ġ5 8
ort hern
Ġ5 9
e qu
Ġ199 2
Ġa u
ĠSc ience
ix ed
Ġqu al
b ased
ĠS er
ĠPh il
and er
Ġexper ience
Ġc ateg
ĠS up
ĠCan ada
if t
ign ed
Ġm or
' ,
ĠE v
Ġh ous
y le
ĠCent ral
ES S
ac hed
Ġtrans fer
200 9
Ġcomp on
b o
Ġr ates
Ġtreat ment
Ġh alf
00 00
Ġac qu
ĠR ed
Ġo pp
Ġ6 4
ĠM A
ĠA M
oc al
Ġs outh
Ġc oll
Ġlim ited
Ġbec ame
Ġv ehic
ĠK ing
Ġcan not
Ġs w
Ġyou ng
C L
Ġindust ry
re st
Ġ6 6
ĠG reen
n s
m p
om in
Ġbe gin
Ġst ates
P L
200 8
D e
Ġl ittle
Ġb ound
I E
for ce
Ð °
I nd
Ġw ww
a ut
Ġch o
av y
Ð ¾
ĠC A
Ġc y
ĠG ra
Ġb ody
Ġmeet ing
P h
Ġf ood
Ġg ive
C ont
IG H
........ ..
Q U
200 7
S c
e ff
ĠA v
Ġd est
ĠIn formation
Ġ0 9
C R
ĠRo bert
Ġm aking
Ġ ..
ĠFor m
ĠJ os
I O
erc ial
________________ ________________
Ġa ud
Ġoff ice
Ġ 000
ar c
Ġactiv ity
ĠS im
200 6
S U
Ġdist ribution
Ġdef ined
Ġt ri
Ġpract ice
al a
ĠN et
ach ing
Ġn orm
k t
ch ange
Ġs ource
Ġ ess
ĠR uss
ĠC OM
all s
Ġdef in
il s
Ġproduct s
Ġex pos
ep h
ĠServ ices
Ġs ym
Ġthere fore
ĠTh at
Ġp age
ĠP aul
lev ant
ent al
c ast
ĠM o
ĠSm ith
ol s
ig an
. ;
ĠCong ress
Ġcap acity
Ġcont ribut
B R
IC E
Ġknow ledge
Ġ199 1
it z
200 5
AG E
Ġleg isl
ĠD is
Ġstat us
Ġset t
E E
Ġl anguage
-- -
i os
Ġt ru
get her
R es
Ġapp ly
ĠL eg
M A
Ġto gether
ĠGe orge
3 00
uf act
4 00
Ġoper ation
ĠM at
Ġal ready
Ġf ire
Ġschool s
ak er
ĠD ivision
Ġint rodu
Ġne ver
P l
ag er
Ġass um
ĠSt e
re m
Ġcent ral
Ġresp onse
i ences
ĠI d
Ġgre ater
ur rent
Ġm em
ĠCarol ina
r at
.... .
Ġequ ipment
irgin ia
Ġfac ilities
ĠP ort
Ġto o
Ġsur face
F OR
Ġh ard
in ary
at al
O n
Ġbeh av
Ġl ab
ur ance
Ġcomple x
Ġcomm ercial
Ġmeas ures
ecial ly
ess ion
Ġcomm it
Ġauthor ity
ver t
Ġfr ont
200 3
U C
Ġapp oint
Ġc ross
F R
op er
Ġstud ent
ĠPro ject
ĠTh omas
ĠPro fess
et ic
__ _
Ð ¸
Ġd am
Ġproject s
Ġloc ated
ic ro
an ks
Ġto ok
201 3
Ġs um
ĠCh urch
ĠB en
ĠUS A
Ġb ar
u i
ĠCl ass
ĠH is
Ġt ext
ĠE L
p d
D P
C ON
Ġc ame
ĠB ay
ĠW ater
Ġs ector
ĠA tt
Ġb al
Ġc it
Ġch all
iqu es
es e
Ġpers ons
he ad
Ġpur pose
Ġinit ial
ĠP al
m on
pos es
ĠFr anc
Ġfund s
Ġmult ip
ĠA T
ĠB ank
ĠM art
Ġl i
ĠE lect
ar io
umm ary
** **
he l
Ġun it
Ġh istor
ĠS al
EL L
is f
Ġrec ent
Ġet c
Ġp arent
Ġn ature
200 4
t ime
u a
ine ering
ĠD o
xim ately
Ġm er
čĠĠ čĠĠ
Ġev ents
er ia
g l
ab ilities
Ġp en
Ġinvol ved
ĠT H
200 2
Ġestabl ish
Ġcor respond
k l
i ance
Ġex c
Ġh om
Ġ6 3
Ġatt ack
um p
ĠG od
Ġg ame
i as
ĠI II
p ts
oun ter
N E
an ies
r ative
ĠM al
Ġprim ary
it ude
Ġg overn
ill ed
Ġpol ic
ĠCh ina
ĠAd minist
Ġprot ection
Ġexpect ed
Ġn a
Ġperson al
ra b
Ġsh ows
Ġs em
stitut ions
ell ow
Ġtechn ology
ĠUn ion
Ġfor mer
Ġcont act
ol id
ĠI ll
Ġ` `
ĠJ ust
ber g
ol a
enc ed
ĠA D
Ġpubl ished
B C
Ġaccord ing
Ġgr ant
A ll
ĠT R
Ġent ire
Ġ0 2
ĠD on
re ed
P H
st ra
ĠR O
ĠRep ublic
Ġpre p
re ct
h t
ĠEn vironment
ĠO ffic
est ic
Ġst ep
Ġ6 7
Ġdem on
Ġsur vey
.... ...
ĠF igure
w ise
ĠP O
Ġun a
b ack
Ġgeneral ly
at ively
Ġal tern
........ .
ut y
Ġinit i
ĠPro t
Ġindividual s
t ies
Ġ6 2
i us
S p
Ġparticular ly
] ,
Ġl ength
g round
Ġneed ed
Ġcomple te
Ġnot e
Ġ198 0
ĠB el
ĠEng lish
unic ip
Ġident ified
b l
ar l
Ġh ours
ul a
Ġ6 8
ĠL and
Ġann ual
ĠF rom
A pp
umb ers
Ġcontin ue
v a
Ġse en
Ġc ivil
ens es
Ġp aper
ac hes
ĠV er
ĠN umber
ĠBrit ish
ĠC ode
Ġtyp es
ans as
' .
IN E
ter m
ĠD em
M S
ĠAc adem
Ġun its
D S
k y
Ġor d
ri an
l am
Ġs am
200 1
Ġfore ign
Ġresp ond
o o
Ġcent ury
ĠC reek
n ov
Ġal ways
c hed
ĠIs land
Ġc ell
ĠRec ord
Ġf ul
Ġsaf ety
ĠS P
Ġser ies
Ġcomp ar
Ġpur poses
ĠP L
Ġcol lect
Ġpresent ed
ag ing
Ġ198 9
or a
Ġ7 2
ĠJ apan
ĠJ r
Ġ6 9
ĠD an
iz ing
ĠOr gan
m es
Ġcl os
b ur
Ġd one
Ġl ic
Ġgu id
ĠT ype
Ġwrit ten
ĠW il
Ġdem and
Ġs al
ĠO R
Ġs elf
Ġbu ilt
ir t
ĠB i
t ra
Ð µ
ĠP age
Ġim m
Ġcontin ued
Ġstand ards
Ġst ruct
and id
os ition
ay er
Ġ6 1
Ġre levant
II I
Ġcontin u
en a
Ġp our
Ġme chan
ĠĠĠĠĠĠĠĠ ĠĠĠĠ
Ġj ob
Ġesp ecially
ĠI S
Ġph ot
oc ation
ĠP et
an ia
ĠF R
Ġs ens
G R
Ġass ets
Ġt able
Ġwho le
d s
Ġeff orts
b on
Ġcond ition
ĠS C
i ers
Ġ q
om et
Ġsit es
ĠT er
Ġrem ov
Ġk ind
Ġfact ors
ant a
ĠL A
Ġincre asing
............ ..
Ġim medi
hen s
Ġpro s
201 4
ĠM ore
Ġl ack
Ġv ict
ĠLou is
Ġl abor
en ed
as ons
r ant
T e
ibr ary
r as
osp ital
ĠO f
Ġout side
ec k
Ġreport s
I ES
Ġpat tern
Ġocc up
Ġt ro
Ġl ate
Ġbenef its
Ġwe ek
ĠAr my
ĠL ake
ir th
el ves
Ġcons um
emb ly
ĠS ocial
Ġs ources
I B
ill age
ĠR ES
ĠM AR
Ġc ert
ĠJ ack
Ġres id
it ch
Ġe merg
Ġrecomm end
ĠS ome
T C
Ġpro gress
ĠH ol
Ġ >
Ġth us
m ark
Ġm ass
ĠM et
Ġ1 01
g ed
n ow
Ġfl ow
ild ing
ĠV irginia
Ġth reat
E V
ĠD ata
ĠJ ew
Ġst ation
ĠS am
Ġw ood
Ġplan ning
Ġgl obal
irc raft
ĠO b
H O
Ġd ans
T Y
Ġf ederal
ĠCon ference
Ġcon cent
c ial
Ġmed ia
b urg
j e
end ix
A t
Ġ9 5
Ġpur ch
Ġdist rict
id s
Ġ198 8
Ġ7 6
w est
Ġse g
Ġtra de
Ġpart y
or age
ograph y
G A
w ater
g ra
ĠRe view
j a
an i
ĠD et
d o
ĠN Y
ens us
H e
Ġreg ister
Ġv an
un ities
IN D
F L
ĠJ ud
st e
Ġ !
ĠM a
in i
cri ption
ĠAfric a
Ġthrough out
ĠReg ister
Ġc ause
Ġfollow s
Ġ7 4
ul ated
h r
Ġ8 5
Ġst e
l ier
Ġphys ical
Ġ7 1
Ġwh ose
Ġstr ateg
ĠE r
ĠPh ys
G en
ĠH uman
use um
........ ...
rim inal
ĠC L
Ġa p
Ġ7 3
Ġ9 9
L e
8 00
el t
Ġappro ximately
Ġqu ant
at ers
Ġpl us
ĠB ur
ion es
S R
Ġpar agraph
ĠTe am
Ġg as
Ġoper ating
Ġm it
uc lear
ag ue
ĠSt and
ĠE N
Ġ198 6
" "
p id
h io
Ġgra du
Ġmat ter
V I
av es
ĠA fter
Ġfore st
Ġdis pl
OR S
Ġcust om
clud ing
Ġdesc ri
Ġtarg et
Ġc a
Ġrem ain
Ġr at
Ġtem per
Ġbe gan
Ġ7 8
Ġsc ient
Ġinvest ig
Ġh abit
Ġmaterial s
Ġcomm and
T HE
ran ch
m ing
ĠM ex
ĠN or
ron ic
ĠWh ite
ĠM ain
Ġdis e
Ġ198 7
Ġref lect
Ġs ch
ing u
E A
Ġprov isions
Ġd ire
n i
ell ing
ĠMich ael
I AL
Ġpro ceed
ri a
h i
ĠM ill
u er
AS S
1 10
Ġmed ical
Ġfe et
u ge
or por
ĠU K
Ġdesign ed
M P
............ .
............ ...
us ed
Ġal though
Ġorgan ization
ord er
Ġdeterm ined
Ġrecord s
ĠBro wn
as tern
ly ing
Ġ ir
stitution al
Ġdirect ly
ĠGe org
anc y
Ġr ules
Ġpl ans
Ġits elf
D R
ic ago
Ġke ep
ed s
Ġadd ed
Ġo u
d om
Ġ7 7
act ions
Ġmethod s
Ġs qu
Ġcon struct
Ġpol ice
ĠB R
al y
I f
ĠFl or
ĠSec ond
Ġcl ose
Ġnot ed
Ġlim it
ĠH all
hem ical
id ad
ĠN ame
Ġsu st
Ġim pl
ĠT ur
Ġwork ers
Ġagree ment
Ġinvest ment
Ġdeg ree
Ġf all
Ġ0 5
ner gy
att le
Ġassess ment
ident ial
Ġpro p
Ġpre vent
ord ing
D ate
ĠAre a
Ġloc ation
i ation
Ġon ce
Ġl ed
on om
b a
ĠA ff
Ġf ile
Ġcomp anies
c ks
Ġpre c
ĠP ost
urb an
Ġ0 3
ĠH ill
Ġprov ision
m ore
ol ic
201 5
Ġm ess
Ġ198 5
ri e
Ġde al
Ġn umbers
Ġact ive
clus ion
ĠO N
ĠW estern
Ġprovid ing
Ġaff ect
Ġra il
ĠO p
Ġre ference
Ġb ank
Ġover all
ar ia
U G
Ġbo ard
Ġpolic ies
X X
Ġmon itor
n ew
ra z
ĠR ad
u it
OT ES
Ġcomp ared
6 00
Ġsp e
Ġc redit
Ġpr ice
Ġm oney
ĠH istoric
ĠC P
Ġsuccess ful
Ġcons ult
r b
Ġg ames
ress ion
re am
Ġdeterm ine
o ch
Ġr ule
un ction
Ġin stru
w here
ren ch
ĠWh at
Ġstate ment
Ġb ur
Ġreg ional
ĠM y
Ġenvironment al
11 1
ur ation
Ġin stitutions
rough t
C ol
Ġp ark
U P
isc al
port s
Ġj o
B S
Ġ7 9
ie ved
ify ing
Ġgo ing
Ġfe atures
Ġcar ry
P er
T ON
ĠChar les
Ġcommun ities
ĠO ver
a is
Ġal most
ĠCh air
Ġword s
M AN
ell ig
st ances
Ġc ultural
E AR
ĠFr ank
Ġw id
im ens
ad d
ĠB ill
s elf
Ġm m
ĠRich ard
Ġreg ular
ĠB as
ian a
ĠO ut
ten ance
ĠM em
Ġe th
Ġh on
th at
E n
ĠH en
Ġcurrent ly
ich t
ĠC he
ic it
Ġf air
Ġd rug
ĠF ound
Ġfor ces
in ct
ER AL
Ġm ention
Ġstre ng
ĠC amp
p ret
Ġw ide
Ġte ac
K H
Ġconduct ed
Ġdemon str
ew ork
Ġsc he
ip s
v o
Ġwork s
10 5
ĠBl ack
is her
Ġsub stant
Ġman ufact
ĠM us
ĠS pr
over y
m ar
Ġqu i
ĠSp ecial
Ġfun ctions
Ġf av
ĠAustral ia
le vel
Ġha pp
un a
Ġle ar
ĠM ac
Ġsit uation
Ġj e
Ġinst all
Ġprot ect
Ġimplement ation
IV E
m et
Ġsat isf
ĠD ie
D A
ĠU nder
Ġach ieve
as c
Ġl iter
Ġ201 7
Ġaccord ance
ĠM ont
ri z
Ġun e
ot ed
Ġcomple ted
ĠEx p
Ġ0 6
a ult
Ġe lements
Ġ0 4
ĠG o
Ġestim ated
Ġbl ack
M ar
yn am
ĠA uthor
ft ware
Ġw ent
Ġs old
Ġ0 8
Ġregard ing
E G
ist an
C S
ĠS outhern
Ġf oot
Ġst ri
ĠL im
rast ructure
ĠT own
Ġrespons ible
Ġfor ms
Ġserv ed
AC K
Ġl ink
Ġy et
ĠCon n
Ġro und
Ġsupp ly
ĠF ield
ĠFlor ida
yd ro
H A
Ġlong er
Ġm id
ac ific
Ġcont ext
Ġ19 70
Ġmod ern
ĠWh ile
f r
ĠAr ticle
The re
Ġenc ou
Ġext ent
ĠAl though
Ġv on
Ġst ated
amp ions
l ies
Ġs i
Ġc ode
Ġent er
ent e
ĠMin ister
Ġmax imum
Ġdec re
Ġp ath
Ġfund ing
Ġ8 8
ra el
ul s
Ġs ociety
I X
od es
Ġ198 4
Ġt im
Ġc ut
ĠCh ief
ad os
am ily
9 00
ap ers
ms elves
and o
c ome
Ġse qu
C o
Ġproced ures
ĠR et
ĠMich igan
ĠStud ies
Ġd iss
D es
Ġcre ated
k ing
ac c
Ġbuild ings
Ġquest ions
Ġredu ce
g ov
Ġag encies
ant e
R ep
ĠR oy
B O
Ġassist ance
Ġem b
ĠFor ce
Ġpart n
m m
âĢ ĵ
com m
Ġcont ent
ĠMr s
ĠN on
ĠM ad
al le
Ġa way
Ġorganiz ations
b u
Ġbl ock
Ġs en
Ġhouse hold
Ġas pect
Ġw r
erv ed
AN T
U E
os a
oc ks
ĠW ood
ĠF inal
Ġm iles
S ection
Ġm ission
Ġex erc
S W
ĠFore st
Ġl iving
Ġh ost
o on
o z
Ġinter view
Ġprodu ced
m l
ent h
an el
tern et
Ġ198 3
Ġspec ified
ound s
olog ies
Ġeval u
ed u
ĠS l
O K
S e
Ġapp lied
Ġo il
Ġh ar
ail y
Ġab ility
ri ef
Ġf arm
Ġ0 7
Ġtechn ical
Ġp aid
Ġthe mselves
he st
h ouse
âĢ Ŀ
ĠFr ance
Ġ9 8
Ġbenef it
n ic
B A
ĠR ights
ĠCh ild
it ors
ĠU s
Ġop in
19 99
Ġl ines
Ġemploy ment
Ġpat ients
Ġcirc um
ATION S
W H
Ġpart s
ĠL t
Ġcon cept
h ood
ĠV i
ĠL ong
Ġconf lic
Ġ8 4
C omm
Ġother wise
Ġin j
ol es
. '
iam ent
u z
Ġw est
M E
ograph ic
ĠE ar
Ġ8 2
ĠIn f
ĠT re
im s
Ġgo al
Ġf ri
C P
ĠE nergy
ĠW omen
il ies
ot ing
I AN
hip s
ĠR ob
Ġa ward
Ġf ig
Ì Ģ
ĠM ember
Ġiss ued
Ġc ou
Ġlet ter
in ated
hem at
c ol
Ġpar am
Ġdep end
a ign
Ġch arg
Ġen h
Ġbas ic
Ġser ve
ĠG EN
ann el
ĠB all
ren ce
Ġ8 3
x x
Ġmin or
10 4
al i
Ġth ings
EN C
Ġobserv ed
ĠK h
ĠE X
ĠCor por
ĠE nd
ar ian
kn own
âĢ Ķ
or ing
it able
Ġwh ite
15 0
Ġequ al
E Y
ĠHe ad
Ġrece ive
el d
Ġlear ning
ok e
Ġmajor ity
Ġy ards
Ġind ependent
Ġ8 1
C D
Ġe ast
av ing
Ġcon v
Ġpart ies
Ġm is
ens ity
ĠComm unity
Ġar gu
Ġun c
k o
Ġcrit ical
ĠH am
A m
stit u
ĠTh us
Ġmin imum
ĠAss ist
n y
ĠSec urity
F ig
ĠH on
Ġatt empt
Ġact ions
Ġcar ried
Ġde pos
Ġto day
ĠCl ub
en ing
pt ions
: :
UR E
in er
Ġunder standing
Ġt aking
ĠChrist ian
R IC
Ġlo ad
ĠProfess or
? ?
O r
ĠP ER
Ġ198 2
ĠCont rol
Ġle arn
and a
Ġde ep
Ġpre m
Ġus es
Ġlist ed
Ġ9 7
roll ed
ĠA V
g a
Ġa ircraft
end it
IT H
Ġpo or
12 0
el es
Ġrecord ed
ou l
P r
Ġsu fficient
Ġcol lection
N ational
J an
ĠP enn
Ġ198 1
ask a
Ġag ric
ĠIn s
M r
C om
an z
th ing
Ġbegin ning
Ġobtain ed
ĠIm p
ĠN O
o pp
Ġprocess es
10 2
ra ge
ĠO hio
Ġcent er
Ġ8 6
Ġpos itive
Ġbec om
Ġ8 9
el le
Ġe lement
Ġ8 7
Ġlarg er
Ġp un
Ġc andid
AM E
ĠTechn ology
or ial
Ġcont ain
Ġperson nel
Ġcomm ittee
ĠA venue
ĠL et
Ġrequ ires
Ġ1 20
ĠEx ecutive
ĠCh icago
Ġter rit
Ġs y
ĠB usiness
ĠEng land
Ġp ric
ĠSur vey
ĠS O
por ary
fer ences
w ide
F T
ro wn
Ġask ed
D U
anc ing
ĠJohn son
Ġwe ight
Ġl in
ur t
ir ing
ph as
Ġm usic
Ġ1 11
Ġcor rect
ugh t
ĠM ass
F A
Ġse lected
Ġ9 1
og en
Ġ9 6
Ġ {
Ġcre ate
AL E
Ġarch itect
Ġut il
ol it
Ġcit iz
y e
Ġex ceed
R eg
f rom
ĠPol icy
Ġser ious
10 3
ER V
Ġbel ieve
ur is
s et
Ġfollow ed
Ġp ack
Ġd at
Ġreg ist
ir it
L a
ig en
b i
Ġus ually
Ġav oid
Ġreg ul
d own
it ness
Ġrad io
Ġear lier
Ġm ach
al ysis
Ġsex ual
Ġ................................................................ ................................
Ġd ig
Ġtra vel
ĠA lex
ang er
Ġb ring
ĠM ount
s ch
ĠMex ico
rib ute
ĠE qu
S O
ĠĠĠĠĠĠĠĠĠĠĠĠĠĠĠĠ ĠĠĠĠĠĠĠĠĠĠĠĠĠĠĠĠ
Ġn umer
Ġdevelop ing
ĠC R
Ġadj ust
Ġin cid
ĠI r
Ġess ential
Ġd iv
ial ly
unicip al
ĠL o
Ġ1 50
pd f
Ġreg ulations
Ġag ency
W R
n et
Ġfor ward
Ġmultip le
Ġsc ience
L Y
Ġtru e
Ġc le
Ġprofess ional
Ġv ia
Ġe c
Ġsub sequ
R ec
199 8
ĠB ook
ĠK e
Ġcare er
Ġd ia
@@@@ @@@@
O ther
com p
Ġn or
Ġmove ment
l ight
ro y
Ġc as
c her
Ġ9 4
itt ing
ĠT ime
iven ess
fer red
ĠSc ott
c rib
ĠS E
Ġthough t
ĠCol umb
ure au
ĠS y
k en
du le
ant ic
Ġthe ory
Ġro of
Ġdel iver
Ġt itle
N S
T O
s k
N ov
et ing
ĠGerm any
Ġcor por
Ġin put
ĠIn vest
Ġappear s
res h
! !
Ġrel ative
Ġin struct
ĠJos eph
Ġpress ure
Ġ19 79
b id
ĠDes ign
Ġ9 3
Ġ9 2
b r
N ote
Ġact ual
ION S
Ġan sw
st ate
cept ion
l iament
Ġn ar
m t
Ġst ory
Ġoffic ers
ĠC are
c er
ĠG old
Ñ Ģ
ĠIs rael
Ġsupport ed
B l
re me
id ae
Ġst ock
Ġm akes
it i
B M
Ġlaw s
ow a
ino is
Ġan g
Ġredu ced
Ġunder stand
Ġallow ed
UL T
p ly
Ġen ough
ĠB O
Ġto wards
el ine
Ġdis p
S ee
ec ause
Ġemploy ees
Ġmod els
25 0
ĠM ost
Ġauthor ities
ra c
ĠM il
F C
ĠL at
ĠR d
Ġopport unity
Ġb udget
Ġpl aced
Ġs ense
ris on
A meric
Ġf uel
ob ile
S ec
ĠR ock
Ġtra ck
Ġb all
ĠTrans port
Ġche ck
ĠD u
Ġ @
Y ear
O ct
Ġ urban
ĠInd ust
ploy ment
Ġf ace
p o
P art
ĠI V
Ġb rought
U ST
Ġm iss
el ines
ĠCent re
ĠD en
Ġpract ices
Ġrelig ious
is ms
ĠAt l
ot o
it o
Ġ19 78
Ġsu ff
Ġdire ction
or al
oc r
clud ed
Ġdiscuss ed
Ġrem ains
Ġsim ple
ĠP A
is k
Ġsc ale
ĠM D
r ance
ĠI D
ad ian
Ġoffic er
ĠVal ley
St ate
or ation
Ġaut om
H S
Ġcal cul
Ġm ort
ĠC amb
vers e
Ġcommunic ation
isc o
AT ES
Ġw ays
end ment
Ġcont ains
Ġ3 00
ost on
Ġb orn
Ġp et
Ġl ive
ing er
ĠT wo
g or
oun s
est s
Ġchall eng
m ond
ĠD uring
Ġsepar ate
ĠAfric an
199 7
ĠA C
Ġit ems
Ġbe y
re y
Ġpro port
ĠL os
re hens
ĠG overn
f e
ly mp
rel ated
ĠCh apter
ĠP op
s ec
Ġro om
op eration
Ġw in
Ġestim ates
Ġappro ved
Ġar ticle
d a
10 6
Ġprob ably
Ġm ill
b ook
ow ers
Ġdiscuss ion
Ġe ight
ellig ence
ic ial
Ġimport ance
c an
at us
Ġd raw
Ġbey ond
ĠQ ue
ĠB L
Ġrefer red
ĠM useum
ĠPart y
00 1
w in
lo ad
Ġapplic ations
Ġsit u
id o
Ġdiffer ences
P O
al ty
Ġfe el
ĠP M
ĠF rench
) )
ut ions
p ite
ĠEconom ic
ĠT im
eth ing
ĠL abor
Ġval id
rodu ction
ĠP eter
Ġsp eed
ĠF ac
ĠF L
Ġstate ments
Ġpre par
e an
Ġse ven
ĠTe ch
ate gy
ver y
Ġse em
Ġapplic able
he t
Ġbo x
Gen eral
ous ly
Ġdom estic
Ġviol ence
ĠM ag
Ġopport unities
iz es
re te
Ġac adem
ĠE nt
Ġpur su
Ġsur v
ĠWilliam s
pect ive
el a
ici ency
un ch
Ġent ry
AN G
Ġful ly
Ġnorm al
199 6
ar ant
Ġm arg
ĠL ife
Ġs ample
Ġ ?
ang es
Ð ½
7 00
ĠS ince
b re
ĠJ un
force ment
Ñ ģ
h aps
Ġa ware
ĠT or
att ers
Ġrel atively
Ġeff ort
Ġde cid
Ġatt ention
Ġvehic le
Ġcap t
Ġlead ing
Ġst age
le ph
ĠP acific
Ġinter pret
m al
IS S
Ġinflu ence
Ġrespons ibility
Ġout put
Ġ19 76
Ġ19 77
ou ri
ess el
Ġv o
J ohn
Ġman ner
ĠAnn ual
ef ul
Ġcover ed
I s
Un ited
Ġp as
F rom
Ġin ternal
Ġb illion
ĠĠĠĠ Ġ
. ),
Ġk m
s hip
i y
ĠS k
ĠAss embly
Ġc ulture
Ġcon sequ
P T
Ġeng ine
Ġb it
ĠC ost
b and
Ġstr ategy
Ġe lection
C OM
Ġear n
Ġn amed
Ġdiffer ence
Ġwh y
H ER
10 8
ĠFound ation
ĠF e
ĠF ort
Ġmean ing
Ġ5 00
U ND
Ġtra ffic
Ġst orage
Ġa f
ĠJ ul
Ġ, ,
Ġm ig
ah oma
Ġvol ume
Ġfam ilies
Ġs ales
Ġp sych
ĠR un
Ġne igh
I Z
ĠAg ency
Ġ19 75
12 5
ut t
ay ed
S ub
im a
Ġent re
Ġe lev
Ġtrans l
Ġarr ange
Ġident ify
Ġto ld
ad el
Ġn ames
are n
Ġofficial s
ĠV ict
Ġpres ence
D E
Ġj oint
kl ahoma
ip l
iv a
ĠP o
Ġfac ility
Ġ19 73
Ġdist ribut
Ġun ivers
Ġcl imate
ĠSp ec
Ġ19 60
ĠBo x
w a
Ġb us
Ġl ot
Ġeconom y
ic ated
Ġequ ival
Ġh or
Ġrel ation
r t
10 7
Ġm ag
ĠR EP
art ers
Ġdetail s
Ġinterest s
Ġco ast
r ight
Ġconc er
ĠL es
Ġch arge
l t
c ing
ĠGerm an
yr ight
11 5
Ġprevious ly
Ġp oll
Ġb rick
ra f
ĠP erson
ĠStud y
p ur
Ġhigh ly
19 90
Ġelect ric
I nt
Ġd ied
ect s
ough t
Î ¿
Ġs ays
u ff
um n
I K
in son
Ġpl ants
ĠC oll
Ġre asons
M ay
Ġill ust
g ing
Ġdo ct
k ins
in et
Ġexp and
Ġhous ing
ĠSt r
Ġstruct ures
Ġproper ties
A ss
ult y
Ġt ry
T OTAL
Ġreport ing
Ġcom o
D ec
und red
ĠY es
Ġanal y
Ġpercent age
Ġperform ed
Ġm ap
Ġcompon ents
Ġwork ed
ĠFin ancial
Ġm ind
Ġfact or
il a
Ġrespect ively
Ġob lig
Ġadop ted
ĠB re
Ġre form
Ġtrad itional
ĠP ower
b t
Ġar g
Ġnot ice
11 6
Ġp il
Ġus er
Ġdist ance
ĠS W
ĠW eb
it age
Ġbehav ior
ines e
Ġvari ety
Ġc riminal
f ort
D ist
Ġc ounter
199 5
O B
Ġdocu ments
Ġrest rict
Ġprep ared
AN S
L D
Ġc u
ĠT OTAL
wh ich
Ġredu ction
Ġdou ble
m ail
ĠS il
Ġprodu ce
ul f
11 4
on n
Ġindic ated
Ġsubs ection
Y es
ĠHen ry
IN T
Ġdec isions
ĠR ef
Ġch urch
Ġqu arter
A b
Ġmain tenance
IS H
E d
Ġinf rastructure
Ġcrit eria
Ġm om
in ued
et ers
201 6
Ġmov ed
ĠBu ilding
ĠD ou
Ġtr ust
Ġsust ain
Ġmin utes
Ġpr int
ent y
ri age
ol f
a ud
Ġb irth
Ġinc orpor
ĠB ow
11 2
st ory
ot ion
Ġr ank
R S
ĠAcc ording
Ġcompet ition
Ġd ivid
man n
ĠReg ional
ĠS pe
Ġ1 10
in f
ĠJust ice
Ġex change
ĠSu pp
i at
Ġd ivers
re c
ett ing
Ġunder t
Ġel ig
ĠM usic
ĠR ail
Ġcomm ission
r ich
Ġdescri ption
Ġun less
ĠD isc
Ġsign al
Ġc ash
ar r
Ġport ion
AR K
Ñ Ĥ
Ġf iscal
h o
or ia
Ġar tic
Ġtre nd
uris d
ĠD ate
AC H
Ġcomput er
E B
Ġfram ework
a a
ĠMart in
ĠSt an
Ġappoint ed
Ġnot es
ree ment
Ġbal ance
Ġfe ed
id ing
13 0
ĠN orthern
ĠI T
Ġhig hest
Ġv e
Ġb ig
ĠN ations
ĠS af
ĠS ol
Ġstart ed
Ġindic ate
he ast
ĠR D
Ġtemper ature
ĠP ri
Ġs il
Ġimmedi ately
ĠU se
Ġclear ly
Ġsom ething
A nd
ECT ORS
Ġcharacter istics
ĠH aw
i ro
Ġ( "
Ġsk ills
Ġre pe
P D
erm an
Ġdise ase
ĠIll inois
Ġu pper
ĠSp ace
Ġcircum stances
Ġmonitor ing
Ġ19 74
Ġdefin ition
Ġem phas
ocu ment
Ġm o
Ġs earch
ĠL ab
Ġ19 72
Ġal t
Ġparticip ation
G e
Ġer ror
y an
ill ing
Ġn ation
R U
ann ed
Ġse a
M I
ĠGeorg ia
ĠM ur
j o
Ġqu ite
G O
ĠL ee
t hen
ĠD C
ĠF urther
Î ±
ĠE ach
ĠS ign
Ġcl in
l ife
ific ations
bur gh
Ġn uclear
Ġprogram me
Ġdis pos
ĠLt d
ĠO lymp
Ġmem ory
10 9
Ġaltern ative
am in
Ġfl oor
Ġsu p
Ġplay ed
ĠAdminist ration
ĠAcadem y
ĠC r
ĠC D
ud d
ĠAs ia
Ġso ftware
ĠJ eff
Ġopin ion
Ġ1 12
Ġlegisl ation
ĠO l
ĠM er
Ġconsist ent
ĠCon vention
Ġch apter
čĠĠ Ċ
if orm
N orth
t es
Q u
per ty
ĠDef ense
ic ine
or gan
AC T
Ġf ixed
ĠF re
Ġeff ic
ĠH el
l ist
l ike
Ġrec ently
ak ers
Ġ ri
at ur
Ġdetail ed
S ON
ac he
cl os
Ġm g
................................................................ ................................
N ot
b our
Ġgo als
Ġl at
Ġoccur red
ĠK n
and e
ĠCO UN
ĠNew s
b ra
Ġad equ
Ġwh om
Ġwind ows
P E
Ġfl u
ec ution
R Y
Ġadminist ration
Ġmat ch
ĠB ureau
Ġg ave
S ource
Ġd as
Ġfem ale
Ġper m
Ġaff ected
Ġlarg est
Ġorig in
Ġm ale
Ġco ordin
ĠE ff
ide o
Ġup d
ov a
Ġ um
Ġindust rial
o ir
ot als
over ed
P ER
ĠJ ones
Ġconn ection
Ġfe ature
Ġrec on
or ado
ur er
Ġm other
Ġse lect
ĠS A
ĠEnvironment al
ce an
Ġra pid
Ġl ost
ĠSt ation
Ġpric es
ĠT em
S D
Ġsl ight
W L
ĠN A
ad or
E l
Ġdev ice
Ġm icro
ĠJ im
EM ENT
eg et
Ġconcern ed
Ġc anc
Ġcon vers
199 4
s es
Ġ \
N O
Ġbre ak
riz ona
Ġwrit ing
ĠU t
ĠTr ust
Ġdeb t
Ġre tain
ĠG ar
ĠB ob
al ed
Ġext ra
Ġparent s
W hen
Ġ1 15
Ġph ase
Ġpr ison
Ġb or
ĠG reat
k er
Ġeduc ational
ace ment
ĠIs lam
Ġdo or
ĠA rab
Ġcaus ed
Ġsignificant ly
ist ical
ay lor
ĠM iddle
Ġexpos ure
IC AL
Ġ1 14
ĠK ore
r um
Ġd os
ri er
N ame
h at
12 8
enc ia
Ġr ural
B L
ĠT ax
ĠâĢ ĵ
Ġse ems
Ġo d
Ġus ers
ĠOffic er
Ġrel ating
---- -
Ġus eful
ĠD IST
rehens ive
Ġes c
in ity
iv ery
ĠIN C
us ion
Ġan im
ĠS R
Ġcount y
m i
ĠAd v
Ġt end
Ġf irm
Ġvers ion
ĠOF F
ĠO ur
Ġmention ed
ĠL ist
and om
M O
Ġin stitution
ECT ION
Ġg ot
Ġst ations
Ġe p
im in
Ġpro hib
hold ers
á Ħ
Ġs an
................ .
ĠPro f
H ow
Ġt ask
ĠH istor
Ġin nov
ĠEng ineering
ou d
ĠS ing
sp ec
Ġexper iment
Ì Ĩ
Ġel se
Ġint ended
b ury
re es
y ing
du ction
á ħ
ĠM el
ĠAg ric
Ġeval uation
ATION AL
ĠL ocal
AS H
ER N
ĠT enn
Ġsim ply
Ġscient ific
gor ith
ĠI L
Ġ10 5
er ry
g reg
ig e
Ġs aw
au x
Ġsp ect
ĠW al
ĠI ss
ĠR A
Ġn ight
ĠU C
ĠB ul
Ġto ward
p oint
Ġpay ment
ĠS r
en ge
16 0
ĠB et
ĠB oston
Ġcol lected
t r
ĠS em
Ġcom ment
Ġ4 00
Ġd ella
Ġadv ant
ĠSt ep
Ġcon stant
Ġform al
ast ic
os en
Ġpop ulations
ĠAss ess
rb an
ĠD R
u y
Ġimpact s
ĠM ike
d es
Ġact ually
Ġ19 71
ĠO ld
Ġprincip al
Ġf ish
U H
ĠC ivil
US A
ĠR em
er g
Ġdo ing
Ġv ar
ab ase
Ġ1 13
Ġf igure
ill a
Ġcamp aign
Ġind ex
ĠE U
Ġin struction
Ġneg ative
Ġnear ly
ĠCan adian
ĠRes ources
11 3
Ġhistor ical
Ġproced ure
Ġm agn
ĠT est
ch a
id ed
Ġann oun
Ġparticip ants
199 3
Ġso on
ĠCh inese
Ġcitiz ens
ĠM embers
Ġsen ior
ens ation
Ġpass ed
Ġresult ing
ĠMed ical
ĠMc C
ru it
iv o
1 19
Ġtest ing
Ġhim self
G L
ĠS M
AS A
yl v
ur ities
Ġsol ution
Ġl ay
ĠCon f
ĠJ o
Ġ19 50
OR D
ĠGl obal
14 0
ĠM en
Ġcompon ent
ĠS oc
v in
ĠA ut
ĠT om
r ations
w as
Ġdirect or
Ġprim arily
az ione
Ġreg ions
ĠN ote
ĠA S
Ġ1 30
ĠColumb ia
ĠA B
C ount
OR Y
Ġm and
ab led
11 7
p ir
in cluding
Ġcoll abor
ĠCorpor ation
ĠComm unic
ĠE D
ĠLeg isl
Ġm us
ĠMin istry
# #
if ically
Ġam ended
12 9
Ġexp endit
Ġth ous
Ġconcer ning
EN S
ĠSc he
ĠL ibrary
ĠC ross
ĠâĢ ľ
duc ing
od ies
ĠFranc isco
ĠBro ok
ament e
Ġpl aces
w an
Î ¹
ĠO x
go ing
is hes
id i
Ð¾ Ð
ol ars
ĠAr ts
pl o
Ġconsider ation
ĠL ord
ĠIn ternet
ĠG ood
ph ia
12 3
Ġatt end
L C
ĠPol it
ĠJack son
im ents
Ġf ather
Ġocc as
Ġclaim s
................ ..
Ġh arm
ĠC ast
Ġfail ure
ist a
ion i
ĠSystem s
is ition
ĠYou ng
AT A
Ġsom et
ĠAng eles
Ġconcern s
h ab
Ġr iver
Ġsur round
f ect
Ġh yp
======== ========
ĠP ass
ĠS uch
Ġfac ilit
Ġre le
Ġre ally
Ġgen eration
Ġestim ate
Ġ19 68
Ġ19 69
Ġrat io
Ġag reed
Ġf ra
Ġcont ained
Ġam b
l aw
Ġro ck
it ud
av al
Ġide a
ĠJew ish
ful ly
Ġal leg
Ġconflic t
b en
Ġp le
ĠCh ampions
199 2
ĠN ow
ĠN atural
Ġplay er
Ġdep artment
Ġinvol ve
ĠAn alysis
U K
Ġle ave
Ġe in
Ġwe ap
Ġc m
Ġc ard
UT H
Ġappro val
Ġrecommend ations
Ġopt ions
ĠAl so
F S
ĠS CH
Ġchang ed
re land
ers e
iv ate
Ġre ve
Ġex hib
ĠB al
ĠP en
h ttp
ĠP OLL
M an
Ġc ult
it led
Ġdam age
Ġincre ases
Ġun ique
h ing
UB L
f ol
am m
A pr
ĠOr der
ĠF il
ĠB Y
ugh ter
AN C
ament al
Ġdist inct
Ġdesign ated
k ey
Ġw ild
AC E
Ġm atters
ar p
m od
ĠP a
Ġins urance
os is
199 1
n ce
Ġfl ood
Ġintrodu ced
G H
ird s
IC H
adel phia
ĠAff airs
Ġc red
rad es
Ġprincip les
Ġt alk
u j
Ġmark ets
Ġm ount
ect ors
e ks
ĠApp ro
Ġv irt
ĠRoy al
N umber
Ġoper ational
W D
und er
Ġbeh ind
Ġc ore
r ig
Ġg reen
ouns el
Ġrecogn ized
N R
ĠM s
J ECT
g r
Ch apter
Ġrecomm ended
B y
lic ation
at form
r ical
Ġrem aining
et ary
ĠC AR
un k
ĠO klahoma
ĠH ome
Ġsub mitted
Ġt a
Ġb rief
Ġoffer ed
ĠF ig
P RO
S ept
Ġres ource
Ġcateg ory
ĠRe qu
ond s
Ġmom ent
Ġpos itions
Ġh undred
Ġfrequ ency
ĠComp ut
Ġdep art
Ġsc en
ĠSu pport
ĠAuthor ity
V ER
Ġpres ident
Ġper man
Ġ ult
Ġv illage
ment e
ĠF red
Ġ1 17
ĠT w
ol ved
ual ity
ĠP sych
est ion
ĠAn y
ĠRe ad
Ġvis it
Ġh y
' re
Ġcl ub
z en
Ġh um
Ġso il
Ġelect ed
ĠM any
D r
ĠN C
Ġlead ers
Ġj urisd
F r
z o
Ġt rial
Ġ10 4
Ġre venue
Ġs ound
Ġto ur
Ġv ent
ig inal
Ġhabit at
11 8
---- --
ĠCo ast
Ġex ternal
ress ed
on ial
ĠPar is
Ġs ections
AM P
Ġal ter
ans ion
S M
ul ate
Ġrequire ment
e ared
O UR
am er
ic ation
ost er
Ġsmall er
Ġb ra
ĠR EC
ĠS un
Ġm il
Ġcons ervation
ĠM ethod
Ġw ife
ĠK ent
Ġf ine
Ġm a
ot i
. ).
Ġfl ight
W est
Ġreturn ed
ir ls
Ġcateg ories
ĠS and
Ġacadem ic
EN CE
ĠH E
ĠL u
le m
Ġst ra
Ġsecond ary
Ġcon ce
Ġpop ular
Ġprocess ing
Ġent ered
ocr atic
Ġform ed
if ies
pp ed
Ġreason able
ĠL E
ar ry
Ġaspect s
Ġ10 2
Ġpe ace
iqu id
ĠAustral ian
ic ations
bo ard
Ġy ield
Ġadminist rative
OR E
Ġpre ced
iam i
ĠUn ivers
ĠE ll
Ġgood s
ĠGEN ERAL
Ġteam s
ĠI l
Ġse lection
Ġpublic ation
Ġra ce
Ġ10 3
ĠF our
ĠRep resent
Ġ1 18
ĠNet work
ĠB or
AN K
Ġsym b
ĠPol ice
Ġsus p
Ġv ote
re ci
Ġimpro ved
Ġs av
ĠK ansas
st one
Ġim age
O ne
Ġd oll
................ ...
Ġa ux
ro om
ĠW ild
AT H
ĠP H
Ġcomb ined
Ġp ain
ĠF amily
Ġgrow ing
ĠF ed
AN CE
Ġmod e
reg on
ang ed
Ġmess age
ste in
Ġtechn iques
Ġ19 67
B I
Ġres erv
R o
Ġqu ick
Ġra ised
ĠUn it
Ġ10 6
F E
am ber
Ġs ed
Ġm iddle
Ġteac hers
Americ an
F eb
Ġon line
Ġf if
ĠE astern
ĠSc iences
IN C
Ġset ting
12 7
Ġinvest igation
ang ing
Ġa im
Ġd aily
g ar
b al
r n
Ġl atter
ib ilities
Ġindic ates
ĠI owa
ef ore
IGH T
ĠLe ad
M in
act ive
Ġrem ained
Ġcal c
Ġapp arent
ĠM O
Ġsche me
qu ir
og ue
ĠC OL
Ġre ach
Ġres olution
Ġremov ed
Ġexp enses
Ġm ix
oph y
ĠB E
12 2
ung en
ĠC ath
Ġsu re
on ent
ĠPar liament
ĠF air
Ġamount s
ĠA ve
ĠS U
Ġm ut
lev ision
Ġb and
rup t
ĠChair man
Ġs ter
Ġtest s
F I
Ġz u
ĠV an
av a
Ġauthor ized
Ġs ets
ĠApp endix
S outh
er k
Ġd ynam
Ġass igned
an ch
ĠN E
ĠAg reement
form ance
Ġb ill
Ġl it
Ġc hemical
Ġst yle
ĠG ame
or ph
Ġresid ents
Ġext ended
T ra
Ġsur ve
Ġsomet imes
v ision
ĠCar l
ĠComm on
ii i
er ate
Ġv ert
IT ED
Ġw aters
Ġg raph
M D
âĢ ¢
p a
.................... .
ĠA rizona
ĠSt aff
Ġnew s
ut ies
d ef
Ġaccept ed
t i
w ar
est ed
P C
le te
Ġw on
ar on
Ġt akes
Ġvehic les
Ġ1 16
Ġp ict
y es
ect ive
ĠG ard
ra wn
Ġre lease
Ġ19 65
ĠF Y
Ġcop y
W A
Ġatt ract
Ġfield s
Ġsum mer
ĠP ers
12 4
" )
av en
Ġexpress ed
ul ed
Ġsh ares
ĠH a
ĠMus lim
Ġcho ice
ĠU p
ro g
ro te
Ġinst ead
ĠK en
c ons
b ell
ĠA ward
ĠC re
Ġte aching
Ġwe eks
ĠCl ark
ac ing
res ents
ĠPlan ning
ĠCamb ridge
aw a
pr ise
ĠI reland
c el
ib ly
ĠDav is
Ġres ist
or ter
ĠEx per
ĠW all
Ġo ption
ab il
ĠW ell
Ġn om
ĠC y
Ġinst ance
ick ing
leph one
Ġlead ership
Ġhe art
u v
Ġmeas ured
Ġeff iciency
19 89
Ġaccount s
ĠG R
ĠDan iel
Ġtechn ologies
b ut
.................... ..
Ġstep s
O OD
ĠEd ward
ĠM E
ĠSen ate
S L
Ġexerc ise
Ġp ed
ra q
eb r
C omp
Ġext rem
ter ior
Ġproport ion
un n
ĠV otes
12 1
ĠThe n
Ġb ott
Ad d
ĠK enn
kn ow
D Q
Ġh ospital
Ġ10 7
ric ted
id ge
ĠAcc ount
Ġinstru ment
Ġt rib
Ġall ows
Ġtra in
or ney
Ġw all
a ur
Ġwe bs
Ġexper i
Ġh istoric
er ior
ĠC urrent
Ġfre ed
ĠD i
on ia
ĠA ud
Ġ ....
Ġsec ret
ĠLe ague
Ġdecid ed
ĠMiss ouri
Ġfram e
ĠL ow
Ġ ^
Ġs ale
Ġg ender
Ġrel i
Ġcol lege
Ġex act
ĠG A
Ġrepresent ed
Ġmeet ings
C ent
V er
Ġconsum ption
Ġre ached
ĠL ew
Ġs outhern
ĠM ax
ĠL i
Ġdef end
M ed
Ġz one
ĠCom mer
19 86
Ġg ives
ĠThere fore
W ith
Ġsuggest ed
ad i
ain e
M C
th s
ĠV I
Ġris ks
Ġmar ried
CA A
AB LE
R Q
ak s
ĠB ig
Ġan c
Ġ19 66
Ġsubstant ial
ou ston
ĠW ay
cri pt
du ate
sh all
Ġcont ribution
isc hen
Ġexam ples
Ġhous es
ĠN EW
ĠCOM M
Ġcl osed
Ġ1 19
enc ing
l ie
is p
ĠPl ace
Ġper haps
Ġh ot
te en
ĠP ubl
Ġant i
over ty
Ġsqu are
Ġfor th
ĠAnd rew
Ġa id
ĠN avy
vi ation
Ġbe g
ol i
an es
Ġw itness
t ical
s ub
ĠT D
ĠAssist ant
Ġequival ent
ĠS EC
ĠSc ot
12 6
ĠA ccess
Ġatt ribut
Ġen forcement
Ġem issions
ak a
ĠPe ople
un te
v s
C ap
ed d
com es
Ġl ives
` `
Ġliter ature
Ġplay ers
n am
ric ts
Ġobject ives
rop ri
Ġbook s
Ġs in
ess ee
D on
Ġa cid
and on
ON D
Ġtre es
Ì Ĥ
Ġcy cl
oc ol
st ream
al o
01 0
D ep
Ġt ree
Ġr ise
ĠS ov
ĠProt ection
Ġh ydro
13 5
ĠV OTES
W S
ĠCh ange
hemat ics
Ġo m
ENC Y
ĠS ar
ad as
x ic
Ġc ast
ĠB ecause
ĠM ah
ian o
angu ages
eng er
Ġv eget
Ġ10 8
Ġt ell
A ug
Ġal gorith
Ġsp irit
ent i
Ġstre am
Ġdef ense
te x
oc ated
Ġstrateg ies
z i
if er
Ġdis ch
Ġw a
p at
ĠJ ac
Ġrun ning
In ter
ĠEx t
Ġocc urs
Ġcommit ted
Ġpursu ant
ST IT
Ġeffic ient
Ġcar bon
eal and
ail s
Ġtransport ation
M AR
ĠPro cess
Ġcon ver
Ġsp read
Ġconstruct ed
Ġth ing
rim ary
F M
p ower
ĠS ir
ĠCon stitution
Ġprom ote
ON E
ĠF A
Ġs umm
Ġn orthern
Ġbl ood
Ġst ore
ic ip
ĠR h
Ġm s
Ġd uty
H R
ĠM it
Ġwind ow
Ġshow ed
ĠGr and
Ġ10 9
Ġvari able
Ġcomb ination
ĠT rib
ri x
Ġch annel
ĠC irc
ĠW R
s en
Ġear th
19 88
ĠT V
Ġcon ference
Ġd ed
ĠPr incip
ĠB road
v ol
Ġle tt
ĠP it
ĠStat istics
RO M
ĠM ult
Ġro ute
ĠP ur
OC K
ĠM os
ris is
ers ey
c ar
.................... ...
E ng
13 9
ĠSaf ety
Ġo t
ĠOper ations
ĠInter ior
Ġrep resents
h an
Ġcont rast
Ġemploy ed
ven ues
Ġapp eal
Ġper mit
An n
Ġcont aining
re ich
17 3
c hen
19 87
ĠĠĠĠĠĠĠĠ ĠĠĊ
ed y
Ġsubsequ ent
ĠDe v
ĠC op
Ġst ru
ĠUn iv
________ ____
Ġp i
Ġassoci ation
Ġnumer ous
ee k
Ġ19 64
ĠST ATE
ĠS ERV
ĠCol orado
Ġclass es
ell er
čĠĠčĠĠ čĠĠčĠĠ
re p
ĠT erm
Ġdel ivery
Ġp ages
Ġs oci
Ġmot ion
Ġ-- -
Ġt al
ĠP oint
ĠM S
ĠST AT
Ġ12 5
pos ition
w estern
13 2
ĠS Y
Ġloc ations
lement ary
ĠW ind
ĠZ ealand
ĠD EP
ylv ania
Ġst reet
Ġcomp rehensive
ĠG ames
Ġal one
Ġw oman
es ter
ĠR oman
ay a
Ġins p
M c
ail ability
Ġsequ ence
Ġcover age
a ire
Ġread ing
Ġd ro
all ed
ĠB rad
Ġf ight
Ì §
T V
ir ms
19 80
Ġf t
ĠA P
ĠPro perty
ĠT otals
Ġident ity
ĠM AN
Ġcr ime
ĠW here
Ġperiod s
ĠE s
Ġslight ly
ol ar
Ġ19 30
rop ical
Ġs and
Ġanim als
Ġtre ated
ĠL ine
Ġback ground
Ġdisc rim
M arch
Ġs yn
Ġ2 50
Ġfav or
ĠStat us
ĠS ym
j ust
Ġre new
IT E
j i
Ġcontribut ions
ĠE th
ac iones
20 2
Ġfil m
ĠE ven
Ġwas te
Ġfind ings
p et
F ER
j oy
as ure
Ġbecom es
Ġlim its
omm od
Ġgu arant
Ġex ecut
Ġseg ment
Ġ Î
Ġbehav i
Ġb ul
Ġ ur
ĠB oth
ĠT ri
ĠR am
ĠBe ach
ic ted
ĠWil son
ient o
Ġz ero
Ġelig ible
ID E
F inal
W N
ĠSpr ing
il ing
ĠI ran
Ġcompl iance
Ġpattern s
J P
Ġimplement ed
ĠB ra
Ġencou rag
ĠB a
ht ml
in ner
13 3
19 85
ĠAl b
crib ed
em y
g i
S o
ĠIn st
ĠT op
Ġass ign
c in
Ġfig ures
W ill
ĠAl bert
Ġ19 40
18 0
z er
Ġexper t
Ġ id
alle l
h ar
N P
Ġsp ent
ĠR ou
M M
Ġcorrespond ing
Ġra re
ab eth
Ġter ror
Ġcle an
Ġpay ments
U AL
ĠPhil adelphia
or i
Ġt it
ĠSer ies
........................ .
g ent
Ġo x
ĠTechn ical
w s
G EN
Ġmet al
Ġr andom
ens is
raz il
se y
Ġach ieved
P ublic
Ġa ve
Ġchalleng es
Ġl ie
ac ional
Ġregister ed
c oh
-------------------------------- --------------------------------
ĠMin nes
Ġp al
clud e
ĠĠĠĠĠĠĠĠ Ċ
ĠM ail
C al
N Y
Ġagric ultural
ĠT aylor
Ġn ine
r ants
Ġobject s
ĠA p
Ġcy cle
ĠV AL
ĠV is
ark s
Ġdist ingu
k in
Ġis t
ĠMinnes ota
Ġacc omp
ĠCont in
ĠL iber
Ġadv ance
h and
Ar ticle
Ġch ief
ĠCap ital
ĠS us
Ġh our
uth ors
Ġview s
ĠRuss ian
Ġl if
ĠKing dom
Ġsh ip
Ġp a
ĠH ospital
Ġnot hing
P ar
ĠA G
ĠM id
ab a
Ġargu ment
L V
ul ner
A c
~~ ~~
Ġinstruct ions
Ġcon stra
ĠDie go
j et
ĠM ath
ell ed
' m
ĠR ay
ĠH IV
an ic
........................ ..
13 1
Ġ19 61
Ġd ry
Ġbel ong
s er
Ġde leg
Wh at
Ġgrant ed
m o
13 4
ĠC ur
UM BER
ĠW H
Ġrelationship s
qu arters
ĠOp en
Ġro ut
ĠEng ine
ipp ed
ili pp
m osp
Ġcomple t
14 5
ĠC ase
Ġc ru
Ġd ivision
G l
Ġsl ow
ici ans
ire ment
14 4
ĠB ern
Ġp od
A ST
us es
Ġob l
ĠAn th
ig er
Ġex cess
ĠSt ock
A H
e ment
ĠRE G
Ġa qu
end a
Ġenh ance
g al
Ġw alk
b ro
sh ire
ĠF ree
ic an
Ġdev ices
Ġdom in
l ar
ater al
sc ape
Ġ19 62
Ġs n
ol is
ĠI raq
13 6
Ġst one
' d
Ġco al
ĠFore ign
ĠMill er
Ġcom ing
ĠB ridge
ch o
ĠCons ervation
N e
ĠP C
Y ou
Ġg iving
ĠF ar
Ġgener ated
ĠM P
Ġar rest
g ment
Ġd raft
Ġgr and
clus ive
Ġs oc
Ġa uf
ĠChild ren
clud es
Ġ19 63
Ġcons olid
ĠAssess ment
Ġimprove ment
ĠCh ris
Ġjud ge
Ġsc ore
ĠPop ulation
13 8
ĠOlymp ic
Ġprincip le
Ġer r
Ġcour ts
S I
ish ment
ir med
Ġsam ples
Ġ ]
Ġwr ite
ĠĠĠĠ ĠĠ
re a
Ġv ary
ĠH and
Ġrece iving
Ġor ient
ons in
m at
act or
ĠV A
Ġemerg ency
Ġcol or
D O
Ġhe at
ĠA ction
h y
ĠS qu
ĠO regon
s ylvania
ĠR od
Ġ19 20
qu es
ĠL ind
Ġm al
ĠP ay
ĠD ocument
Ġlarg ely
ĠSe a
Ġsign ed
Ġpartn ership
Ġguid ance
Ġform ation
Ġto ols
Ġj ournal
ĠR est
Ġpat ient
ĠAr k
Ġoper ate
Ġ ign
Ġde ad
isc onsin
F Y
Ġrepresent ative
Ġl iber
im b
ĠMed ia
ĠRes erve
well ing
ĠEL ECTORS
f in
Ġder ived
um in
ord s
**** ****
ĠReg ion
Ġmain ly
T rans
Ġartic les
ĠT reat
Ġcons ists
ĠĠĠĠĠĠĠĠ ĠĠĠĊ
Ġdr ive
ĠM ajor
M e
A g
S K
Ġins ert
cl ass
Ð »
u h
Ġent itled
ĠG ro
I m
Ġold er
ist ers
ac ent
Ġunc ertain
Ġg ain
Ġcour ses
l ow
OW N
IC K
14 8
2 30
T M
pl ing
Ġcontin ues
ĠTransport ation
Ġpurch ase
ip e
Ġcom ments
Ġsc reen
........................ ...
ole c
ĠS om
Ġfri ends
L AND
uck y
ĠS ummary
ĠC ro
Ġeng ineering
Ġsuggest s
Ġansw er
Ġe ll
ig ration
y er
k g
UN T
ĠI bid
Ġhe ight
Ġanal ys
ig u
ec es
ĠW ITH
ĠIs lands
ĠRes p
Ġsc ope
Ġcompar ison
Ġw estern
ific ate
Ġad vert
Ġsc hed
B e
ol y
Ġf it
ĠCON T
Ġv ac
en ant
ĠOrgan ization
R ES
Ġev olution
Ġn ut
ĠE c
he ster
Ġs ession
Ġcont em
ĠH ous
Ġpl atform
ĠCor ps
isc he
ĠS um
ĠOx ford
Ġint ent
Ġyou th
n n
Ġc ities
14 6
14 2
Ġnar row
ĠVol ume
Ġgovern ments
Ġw rote
Ġparam eters
em a
ord ination
AT ED
Ġb ad
Ġbro ther
Ġcre ation
ĠCount ry
Ġw or
Ġext ensive
ĠC ensus
ĠD O
Ï Ħ
ĠSen ior
Ġar m
ag ers
ĠC a
on ic
Ġa us
Ġpropos al
ater n
EL D
ĠOn ly
Ġre n
ĠLe vel
19 84
ĠT imes
ol o
ĠRes ource
ĠMan ager
hes is
ail ed
Ġcom es
Ġre nt
k h
Ġf rag
Ġper mitted
Ġfe es
Ġstrateg ic
ĠV ice
r ator
u est
Ġimprove ments
Ġreg ulation
13 7
Ġvari ables
ebr aska
Ġf ast
Ġsup ra
ĠP ak
14 9
00 2
ĠEar th
ĠBrit ain
ĠT el
ĠT od
Ġvict ims
ĠState ment
Ġfour th
17 0
Ġcontract s
ell o
Ġ ____
Ġexpress ion
00 01
T T
z y
Ġp anel
B E
N C
US E
ĠS anta
Ġacc ommod
Ġrec overy
Ġag ent
Ġexcept ion
ĠAd vis
Ġfa ith
ĠMod el
15 5
IC S
Ġmark ed
Ġind epend
ĠN OT
AN N
............................ .
Ġb odies
Ġm es
Ġadvant age
Ġsh ared
w er
Ġconn ected
ĠSov iet
ace ae
ĠStand ard
ĠArch itect
ĠS a
CT ION
ur ies
G S
Ġbound ary
Ġmaintain ed
Ġspec ifically
Ġfund amental
Ġadequ ate
old er
Ġide as
Ġestablish ment
ik a
Ġ19 45
Ġ14 0
Ġdig ital
id ers
itte es
ĠIt al
end e
am i
Ġemploy ee
d r
Ġins ide
Ġad apt
) -
S EC
ĠN one
az ine
Ġprot ected
Ġb er
Ġact s
Ġland s
ed en
Ġph il
Ġag o
rup tion
Ġcomp ris
Ġhe avy
Ġch air
14 3
Ġto uch
Ġprior ity
Ġwe ak
ob re
S u
st ance
ĠB udget
stitu ency
Ġf resh
d i
N on
st ract
ĠG i
Ġer a
Ġcaus es
Ġen joy
ĠC le
ĠIt aly
Ġcalcul ated
Ġro b
Ġcent re
Ġco operation
Ġst op
Ġan imal
Ġp owers
a fter
Ġlook ing
19 83
19 0
ĠTh ree
Ġit em
Ġhand s
H U
Ġeng aged
Ġconc rete
J u
iz abeth
Ġst ress
in ations
ĠF ire
il ton
ĠF IN
Ġchall enge
th let
L Q
T ime
Ġpro c
pl ace
ĠMary land
Ġcommunic ations
Ġsubject s
Ġacc ur
Ġprogram mes
Ġis ol
om pl
ch t
Ġtrans form
Ġassum ed
ĠP ot
Ġro ll
Ġabs ence
Ġtrans ition
ĠH om
OR K
Ġcustom ers
Ġlab our
ĠL og
ĠH o
ĠI ts
ĠEn ter
Ġg old
g s
Ġn ative
ĠU rban
- .
Ġsignific ance
Ġfor ced
Ġfail ed
Ġsupport ing
ĠTra de
ĠRad io
ĠS L
Ġfreed om
ĠAv ailable
ĠR en
Ġsaf e
Ġeas ily
Ġ12 3
Ġend ed
ile y
Ġhousehold s
ane ous
ink ing
ĠJ er
? "
14 1
Ġb anks
ĠCon struction
F irst
hem istry
Ġadv anced
elf are
ĠJ ersey
rap y
Ġsol id
Ġmult i
S B
Ġm ac
Ġwebs ite
Ġwe ather
N H
A ct
Ġd ial
Ġobject ive
Ġopen ing
Ġen able
ĠD ar
Ġdispl ay
Dist rict
em pts
b ar
our se
ĠD er
Ġappro aches
Ġexp ansion
ĠH ouston
Ġtw enty
Ġjust ice
Ġad ult
ab ama
Ġd uties
15 4
ot ic
Ġapp eared
ĠK ar
Ġk ept
ĠG re
Ġsee k
Ġresult ed
O ver
Ġown er
Ġf elt
il ed
Ġs ont
Ġexist ence
Ġinv ent
et ts
Ġstreng th
Ġregul atory
Ġform at
Ġrepl aced
Ġac know
ĠIndian a
T D
............................ ..
Ġ12 8
A cc
Ġhe ard
Ġp hen
ing ham
ĠRO AD
ĠJ oe
C an
ord ers
C ons
P M
ĠPro duct
ad ium
Ġtrans mission
Ġsp ons
Ġmar riage
ĠSup reme
ĠTenn essee
Ġdep th
Ġed ge
Ġpartn ers
ĠL ittle
M on
cent age
Ġprofess ion
ĠG al
Ġstart ing
ov ers
et on
V ol
f ers
ĠD am
F IN
14 7
om y
om ing
ĠNot es
as i
17 5
15 2
ĠProv ision
ord an
Ġan tic
/ -
ĠM iami
Ġrele ased
ĠT en
ĠTra ining
is a
at ically
re qu
Ġto t
Ġown ed
ĠDes cription
Ġm ental
gy pt
Ġcell s
Ġ __
ĠM ic
Ġint elligence
Ġmed ium
Ġinteg r
ind ing
S m
Ġpred ict
19 82
iv ation
Ġpl anned
LE Y
ust er
Ġneigh bor
em ale
20 3
I RE
ĠRuss ia
Ġs ort
15 1
F O
Ġc at
EC H
b lic
ĠR og
ĠLew is
v ard
Ġre ject
Ġ iz
Ġa x
Ġwith d
s m
H V
ir k
Ġres idential
app ing
on to
Ġcont rolled
m iss
15 6
IM E
ĠP ract
O OL
Ġdirect ed
oc c
Ġl iquid
Ġexpl o
S ch
ĠK el
ĠR ule
ce ived
Ġclin ical
Ġv en
Ġext ension
ĠĠĠĠ ĠĠĠ
ĠN R
Ġoblig ations
ĠG all
Ġre in
Ġorgan ized
ĠR os
ĠM ission
ĠH y
Ġb ed
Ġtyp ically
M R
Ġd ark
en z
end o
al ing
Ġparticip ate
ĠL y
ĠN J
P OLL
201 7
w orth
AND ID
ĠB ack
y ard
Ġc ouncil
N ER
ĠF ood
th ur
Ġtrad ition
Ġelect ronic
20 5
ath an
Ġsom ew
Ġpract ical
ĠCont ract
ĠC ard
Ġtax es
Ġthe ore
re ll
o is
ĠA SS
ĠOr d
Ġloss es
as p
el er
le b
Ġt u
16 5
ĠRecord s
ĠD EL
t rans
Ġpen alty
Ġrecogn ition
ĠT E
Ġperman ent
Ġent rance
Ġbusiness es
Ġaddress ed
Ġcomp ensation
Ġconsider able
Ġ18 0
ee ch
min ister
ĠHigh way
ĠM ilitary
r ary
Ġmach ine
Ġclos ely
OL D
j u
24 0
Ġex ecutive
N et
J une
Ġrepresent atives
Ġinvol ving
pos ed
ĠComm and
Ġtransfer red
ĠK ey
' ve
act s
em an
G T
Ġ12 2
ĠB h
Ġd ies
Ġencou rage
ff icking
D ef
ĠPenn sylvania
ur ning
ĠAs h
ind er
Ġb ridge
olit an
ub e
Ġturn ed
ear ing
S an
Ġcomplet ely
C ar
Ġexperi enced
ers ion
onom ic
Ġ ice
15 7
% ,
oot ball
r ite
ĠMar ine
M IN
ĠA F
k es
ĠB ell
A v
Ġon es
se x
Ġhe aring
at re
ro ph
Ġd anger
ĠIm pro
Ġro t
Ġf iles
b ed
G r
pect ed
clos ure
Ġcharg es
Ġmov ing
ĠAnt on
vent ions
Ġw orth
Ġadv is
Ġcandid ate
ĠP an
Ġany thing
ol n
ĠPO ST
ĠC ENT
ĠC C
............................ ...
ev in
Ġm unicipal
Ġshow ing
W AR
Ġha z
IF IC
Ġ19 56
26 0
3 50
c are
FOR M
UBL IC
Ġfl at
ul um
Ġnetwork s
Ġeth nic
C ENT
Ġopen ed
20 4
ĠIN TER
Ġident ification
Ġshe et
ak h
ur d
ĠH ay
Ġpart ner
Ġnew sp
ĠAr m
Ġent ity
Ġsp ring
AT T
ĠThe ir
Ġcor ner
Ġbroad cast
Ġob vious
Ġregist ration
ĠL ane
Ġjurisd iction
P re
R ev
Ġeffect ively
ic ian
, .
RE E
Ġrequest ed
Ġj u
ie ce
Ġout l
Ġ16 0
ĠC rit
ĠC ond
g roup
Ġaward ed
Ġorgan is
e ur
Ġw et
Ġacc ompl
Ġneg oti
ĠC orn
Ġlett ers
ĠSte ve
Ġwant ed
ING H
ĠW alk
os ing
ĠB razil
19 81
15 3
Ġ12 1
Ġbel ief
Ġstreng then
ĠGu ide
ĠL uc
ĠS ep
Ġdest roy
ĠP aper
ĠS D
P res
ĠJ es
Ġweap ons
Ġacqu isition
Ġguid elines
r ust
Ġelectric ity
G u
um es
ON G
ĠG reg
UM M
IN A
OR TH
ĠCon c
Ñ ĥ
B ut
l an
Ġm aster
Ġord ers
Ġex ists
Ġcall s
itz er
ĠF ax
Ġ19 59
Ġc rop
i ant
m outh
ĠP oll
Ġmot or
ĠA PP
gh an
ĠJapan ese
ĠB eh
00 5
Ġag ents
Ġcommit ment
ĠN ASA
coh ol
Ġv ot
Ġposs ibility
ĠO ak
Ġinterest ed
Ġv ideo
Ġac res
un s
Ġdia gn
IG N
15 8
E lection
Ġt ack
ĠCath olic
ĠT C
Ġdistribut ed
act ers
ann a
Ġs ac
16 7
p ass
E O
Ġl anguages
Ġc er
ĠE C
Ġinteg rated
Ġcons ent
Ġb es
Ġman ager
Ġ19 58
The se
Ġinvest ments
Ġd ensity
Ġs ing
Ġfl ows
ĠAdd ress
ĠĠĠĠ Ċ
ic ks
Ġpe ak
ĠKore a
Ġhold ing
ĠSt re
V A
Ġarrange ments
l ich
op ter
ional ly
ĠGovern or
ĠMe eting
15 9
2 20
ush ing
Ġv ulner
Ġm i
ra cy
ã ģ
Ġlead er
ĠI R
an ish
Ġre nd
iss ipp
ĠW ard
ach us
16 8
ir ty
Ġexc ell
Ġf lex
Ġvis ual
Ġun iversity
Ġadv ice
Ġam end
Ġdivid ed
os ite
ĠInt eg
D C
Ġa uthors
O ff
Ġagree ments
ID S
Ġimmedi ate
Ġj un
r ine
Ġc ry
ĠAtl antic
Ġ12 7
Ġstra ight
ĠM u
ribut ing
Ġsy nt
B B
E m
Ġ19 48
Ġeas y
ĠRo ber
ell ite
ĠAs ian
et ies
ĠT X
er r
16 6
De cember
inc ial
ceed ings
ĠB ru
Ġin g
Ġconcent ration
Ġs ummary
ĠH or
19 78
Ġ19 41
2 10
Ġgra de
I AM
ĠM aterial
19 79
ĠJ on
o i
Ġinstru ments
Ġabs ol
o a
ĠCo ach
Ġinterest ing
Ġexam ination
ĠM oh
an th
Ġmin im
ograph ical
ĠM IN
ab e
O O
Ġout comes
Ġcont ribute
ĠS her
Ġexpl ained
`` (
Ġoff ers
ĠTh ird
ri ers
Ġg ar
u rop
Ġp apers
c ell
Ġlin ear
G B
Ġst ake
AS E
Ġsec urities
el lect
Ġjob s
in y
ĠW isconsin
P ART
Ġd iam
O per
Ġl ove
it ative
ear s
Ġrese arc
v an
ĠS und
Ar t
Ġsol utions
Ì Į
ĠG DP
M B
ĠC am
ollow ing
Ġexpos ed
B u
ĠJ oint
h m
ĠM aster
, '
Ġ19 57
Ġc orn
Ġin tern
Ġprepar ation
ĠAnd erson
A Z
ĠC AN
ĠA CT
ai res
Ġquick ly
Ġprob ability
ung s
du ced
Ġ13 5
Ġsett lement
H igh
Ġreturn s
( )
ari os
Ġw er
ĠB ranch
Ġwid ely
ĠBar b
Ġlo an
l ag
ĠS at
Ġrepresent ation
ic hen
ĠReg ist
is ch
L S
Ġint ers
ĠB ang
c or
Ġbeh alf
l ong
Ġo ch
+ +
ĠInd ex
Ġsch olars
Ġle ct
um s
00 3
Ġeas tern
Ġp overty
Ġobserv ations
ke ep
7 50
ĠD un
H Q
ĠD ES
Ġexpl an
Ġdecl ine
rim es
19 77
f it
Ġ ............
Ġrelig ion
Ġcomp osition
ĠP ier
c s
ĠPh ilipp
ol k
Ġth ick
Ġhyp ot
D av
ĠH ot
Ġf ee
ĠL ight
Ġman aged
D o
ĠEl izabeth
ĠLim ited
issipp i
achus etts
Ġproceed ings
Ġjo ined
Ġad ults
Ġre ar
as ts
% .
Ġcomple tion
p erson
20 6
ap h
ĠB ase
ĠGr ant
ĠPl ay
ap ed
Ġm ob
Ġhelp ed
ĠS i
s is
16 4
Ġteac her
omm end
le ts
Ġlo ans
ĠStud ents
ĠG a
. /
App endix
Ġo s
Ġ19 44
19 76
Ġpre v
Ġadj acent
Ġda ughter
as ks
Ġk g
Ġfrequ ently
Ġdeterm ination
ĠJud ge
Ġ1 000
RIC T
ĠMark et
2 25
B r
Ġinterpret ation
Ġav ailability
P I
et e
Ġthe r
ĠUt ah
ish op
ĠR on
al se
Ġatt ached
val uation
Ġa er
Ġfocus ed
L ES
Ġcanc er
em ed
R el
Ġcons umer
ĠCor p
OL OG
A fter
Ġf u
Ġv ill
Ġave c
Ġ19 55
ot ype
ĠHistor ical
ĠCOM P
s ite
ĠSup er
rop olitan
Ġsec ure
ĠS ant
Ġ19 49
Un iversity
Ġfil ed
@@@@@@@@ @@@@@@@@
ĠChar l
ĠSc ient
Ġcontrol s
IT ION
Ġhe ar
ĠLat in
Ġun known
Ġconf ig
Ġ12 4
Ġcl ar
h igh
Ġk illed
Ġ iron
ty pe
Ġret ail
ut ch
Ġd iversity
Ġoff ices
19 70
Ġmechan ism
l ik
Ġlab el
Ġ6 00
22 2
Ġ12 6
AR A
ĠHer itage
pl us
Ġdist ricts
c ia
os h
Ġpro of
Ġc risis
Ġcre ating
IV ER
pt on
V al
Ġhor iz
Ġsp l
20 8
are t
Ġfri end
Ġbel ieved
ad y
r ane
16 2
Ġcarry ing
Ġh ope
Ġw el
ĠH art
Ġsu itable
Ġ19 51
Ġinc ent
Ġdou bt
17 4
Ġstud ied
Ġfound ation
itud es
Ġsim pl
Ġd ated
' ll
IC A
Ġm obile
ĠM ot
ĠPl aces
Ġon t
. ]
ĠI P
ĠS ite
ĠV iet
25 6
Ġ19 42
- ,
Ġpor ch
ĠJ ean
ĠO s
ĠA k
vent ional
18 5
Ġpar allel
ĠC T
Ġdescrib e
ĠM icro
IN S
at on
F in
Ġ12 9
b orn
ĠB rian
Apr il
S te
Ġdef ine
ist ent
Ð º
g ers
19 75
Ġco ach
Ġfac ulty
Ġab use
w ing
ĠRel ations
Ġ( $
Ġp ool
Ġdes pite
h al
20 7
Ġsustain able
Ġlic ense
ly n
ĠP OL
Ġ8 00
16 3
Ġterrit ory
ĠV ari
ĠE gypt
ĠAcadem ic
Ġintrodu ction
ĠD ame
row th
Ġatt ended
im p
ib li
ro c
Ġaccount ing
clus ions
Ġlead s
Ġcont ra
16 1
ĠH ard
Ġdoll ars
Ġ19 00
ro it
o oth
op es
Ġ19 47
Ġrespons es
ĠU T
17 6
im m
ĠK ong
s ent
ĠN ebraska
ap a
Ġmembers hip
3 01
ĠHaw ai
ĠFin ance
Ġcol umn
G ER
Ġown ership
19 8
ĠGu ard
oy d
Ġres ol
Ġposs ess
ĠR ules
b el
Ġtyp ical
ĠP D
on ents
19 5
Ġapp lies
Ġen act
Ġexam ined
M ost
Ġre ducing
ĠCons ider
ĠTre as
Ġcon ven
ĠL in
33 3
Ġf irms
U nder
Ġmechan isms
l on
arg o
Ġo vers
ĠW he
u able
h u
og y
ĠH O
Ġin stitutional
ra v
Ġun s
Ġat mosp
on ym
m ont
Ġequ ity
ĠF arm
M ich
Ġacqu ired
Ġcon form
Ġstrong ly
ĠH IGH
Ġ19 52
Ġchar acters
Ġ19 46
Ġb ranch
Ġim ag
ĠGu id
Ġfl ag
ĠPl ant
Ġsever e
ĠStep hen
Ġte levision
ĠR ound
s i
h as
T ype
Ì ĥ
Ġdisc ip
ĠG U
Ġsp ort
el son
quir y
il ly
ĠM ap
orm al
A tt
Ġex port
Ġfind ing
ĠArk ansas
Ġr ich
Ġo g
cept ions
s uch
H z
Ġ Â
Ġinform ed
che ll
ĠReg ulations
ET H
ĠF ull
Ġdecre ase
Ġv el
c ious
ĠMed icine
W AY
ĠA st
16 9
t ure
Ġso le
um ul
Ġn ov
int on
E st
Ġ19 54
Ġchang ing
20 9
Ġd ram
ĠAL L
Ġ ille
ĠPh D
Ġ19 38
im ore
ĠS ource
Ġrec re
Ġbott om
out heast
W ARD
ĠMore over
ag a
ast e
Ġun iform
Ġ19 39
emb le
sh op
ĠA ge
b b
ĠB C
Ġcont roll
ĠQ uality
Ġl iv
Ġag greg
Ġextrem ely
ĠN CAA
Ġb order
Ġf ell
ut ral
ING S
ic le
ĠPl ayer
ĠE ric
Ġsupport s
Ġcap ability
ĠDu ke
th is
Ġphot ograph
Ġpil ot
Ġcap abilities
if fer
Ġch osen
ĠAll en
Y S
ĠR AM
Ġattack s
Ġsh ape
ect ic
ĠG h
t re
Ġl ibrary
Ġl ived
ĠL ear
N ATIONAL
ou ts
Ġpro min
Ġla unch
OH N
ĠD L
ĠH ong
Ġcorpor ate
Ġst ories
27 0
Ġp air
2 12
Ġs ong
Ġphil os
ĠA CC
M L
m aking
Ġrespond ents
ĠD om
H ar
ĠBl ue
l av
ĠCOUN TY
Ġconf irmed
ul i
Ġtrans actions
00 4
ateg ory
Ġprof it
ĠAlex ander
Ġm ent
ĠG E
ĠT itle
Ġto ol
Ġext end
Ġdat abase
ĠREP ORT
ond er
Ġd rop
Ġroad s
Ġcon cluded
Ġde i
ĠYear s
Ġcomb at
Ġg irls
ĠK im
ĠRES ULT
Ġout standing
ĠP ART
D EC
o j
17 1
omp son
ĠComp et
ex ts
Ġeffect iveness
ĠW y
ĠĠĠĠĠĠĠĠ ĠĊ
Ġ19 53
ĠH ig
ou ver
c ount
ĠPer formance
Ġsp eech
ain ts
ĠH ere
Ġst ay
w ick
ĠS ever
Ġerr ors
ĠC ert
Ġis land
d ale
Ġn am
17 9
ĠS on
Ġstat istics
emb re
Ġinstall ed
19 2
ĠScot land
Ġcontinu ous
ĠG L
ĠM ON
ĠH al
O ut
Ju ly
Ġexpl icit
d isc
ĠW eek
l ation
ER E
imens ions
ors hip
Ġed itor
is se
ĠAl abama
ĠS aint
ĠF isher
: \
ĠBall ot
ĠWork ing
ĠLegisl ative
Ġ13 3
Ġs ectors
17 2
Ġcon clusion
os ystem
ĠH S
Î ½
let in
17 7
Ġper mission
Ġf le
c r
ĠO nt
Ġin n
Ġsp orts
ĠL ie
Ġre venues
T I
ĠM C
Ġsche dule
pr int
RE ET
U ENCY
Ġs ell
Ġs end
ament o
Ġaware ness
ĠRes ults
17 8
at en
ĠâĢ Ķ
ĠE R
S erv
Ġf urn
a ver
Ġex ecution
Ġag ed
AR E
ĠCommunic ations
ĠN at
ĠCl in
Ġpers pective
Ġsurve ys
ut ory
Ġcontinu ing
Ġplay ing
ah r
Ġh us
Will iam
Ġstand ing
b et
Ġclass ification
Ġrun s
Ġcertain ly
re al
ĠId ent
ĠE p
Ġass ume
Ġantic ip
st ood
Ġmor ning
Ġsc hem
Ġsu c
Ġc ounsel
ĠPro c
Ġelev ation
ol ia
Ġbound aries
et ball
ĠHow ard
Ġs ought
D V
Ġconf idence
ex ual
Ġdid n
ĠE V
ĠV illage
M ark
here nt
Ġsomew hat
Ġd im
un al
28 0
Ġmort ality
Ġiniti atives
18 2
ĠR a
ex p
in ction
19 6
ret ion
Ġg able
d on
medi ate
Ġmor ph
23 5
Ġrem ember
Ġ13 7
Ġv ir
Ġ13 2
ĠT al
ĠH ans
id ents
ff er
ĉ Ċ
Ġsub mit
Ġw alls
att al
18 9
ok ing
ĠIr ish
ĠB udd
el ess
Ġsign s
Ġar bit
Ġon going
ut her
ĠC it
ĠMar shall
cl es
4 50
ĠU k
Ġs un
ĠCh ap
18 8
ĠD a
Ġconn ect
Ġc atal
Ġstruct ural
Ġ19 43
Ġc am
ĠSim ilar
Ġfor t
Ġapp reci
Î µ
V II
h l
ĠAl tern
Ġp an
Ġanalys es
19 72
ĠCommission er
ĠD own
IS C
u ing
ur i
Ġdeliver ed
ĠPolit ical
Ġexpendit ure
Ġest e
ĠLabor atory
ĠH IST
Ġoper ated
Ġhe t
ĠPro ceedings
ĠS UB
ĠD ig
ĠW at
oss ible
F G
Rep ort
19 4
Ġv ision
Ġ13 1
UM A
ĠO H
ĠE M
S w
Ġalgorith m
Ġal s
Ġw arm
Ġ14 5
18 6
Ġcon j
Ġdeb ate
s ection
el o
ĠW ales
iz z
Ġexper iences
Ġcharg ed
Ġinteg ration
ĠEar ly
ir l
Ġmost ly
Ġa st
j an
ĠAmeric ans
Ġannoun ced
Ġs ides
ab b
Ġse ed
18 4
k u
AT ER
c f
r in
) ................................
Ġtrend s
Ġd ose
Ġinj ury
E ast
19 74
Ġoriginal ly
Ġrepe ated
ENT S
Ġkn ew
Ġfl o
Ġam endment
Ġopt im
Ġd ell
ĠFranc is
ĠS av
fr ont
Ġw ait
Ġtarg ets
ts burgh
Ġ19 36
gl as
Ġhom es
Ġremov al
ili ar
D ay
ren cy
ĠCom b
Ġvari ation
Ġbehavi our
Ġc od
ĠJ ordan
ellect ual
Ġrec ip
ĠW A
ĠHous ing
b ound
om er
Ġ17 0
ĠMc K
alt imore
Ġgr ass
y t
iss ance
stitut ed
Ġrel ief
ĠH ills
Ġconsequ ences
Ġrespons ibilities
p res
19 7
Ġd rawn
Ġli ability
Ġdeg rees
Ġp ick
ĠComput er
Ġconvers ion
ĠJac ob
AT O
ĠV en
if ier
Ġli abilities
D L
B o
ess els
ĠJew s
C or
Ġaff ord
ĠPak istan
Ġw ish
ĠPOLL ING
ap olis
Ġw inter
the less
ic he
ĠSm all
level and
OU ND
Ġent ities
w ill
Ġexpl ain
aw are
ĠRe al
M at
18 7
Ġsp ending
Ġch ain
ĠG as
ĠS ingle
ri pt
Ġground s
Ġk ick
Ġan s
ĠSche dule
Ġcrit ic
ĠMass achusetts
ens ions
Con stituency
as a
c m
Ġgu ard
ĠLaw rence
ĠR ural
A ust
Ġfoot ball
Ġb omb
Ġinter ior
Ġserv ing
Ġg etting
Ġte le
Ġtem porary
A F
eth yl
à ¤
Sec ond
Ġreview ed
Ġ13 4
Ġgu ide
Ġdemonstr ated
ct ic
ĠMount ain
Ġaff ili
ĠN a
Ġ ..........
eral d
Ġconsult ation
n on
Ġmod ified
' )
ĠMar g
Ġest ate
ĠAn other
C N
j ud
Ġman if
ord on
gra duate
Ġoper ator
h n
enn is
Ġrepl acement
Ġwe b
18 3
inc oln
B Y
ĠD ATA
ĠDirect ors
ac her
ĠP AR
Ġpict ure
Ġeng age
ĠMo ore
ĠLe on
ĠBl ock
est ing
Ġcustom er
b ody
Ġun f
ant ry
ĠIndust ry
Ġp ul
Ġc ool
Ġsurround ing
Ġover l
ĠAf ghan
iv ities
Ġvol unte
Ġass et
Ġim ages
ID GE
ĠStand ards
Ġ urg
Ġar med
Ġpropos als
av or
ĠC all
ĠIN T
Ġgro ss
Ġnecess arily
Ġun ion
Ġrest ricted
ĠA verage
her lands
Ġcor rel
Ġres idence
ĠShe et
ĠW in
Ġn one
ĠDep uty
k m
ĠHar ris
Ġrestrict ions
ĠM att
25 5
ĠPri or
Ġincid ent
ĠF G
az z
Ġco oper
Ġmanufact uring
le ep
o en
N OT
ĠAm endment
Ġn r
op y
it is
ĠF C
ĠP rom
Ġst im
Ġacc ident
Ġwr ong
og s
Ġ ......
Ġentire ly
A E
ĠBer lin
Ġs obre
ĠG reek
Ġlearn ed
Te am
Ġgreat est
Ġpro te
Ġind irect
pl ay
Ġdec ades
Ġmarg in
ĠJ ose
S F
Ġjud gment
D uring
Ġappear ance
urn s
ag ar
Ġind eed
ĠIslam ic
Ġp lease
res hold
ĠPublic ations
23 3
ĠĠĠĠ ĠĠĊ
ch i
Ġatt empts
19 73
19 3
ĠB ah
Ġme ant
ĠE merg
inal s
ĠD ak
Ġman age
ĠO pp
ĠPr int
Ġm ixed
r r
Ġt i
ĠD or
Ġadv erse
Des cription
sc ale
Ġne ither
ot he
ĠD iv
Ġwhere as
Ġrequest s
St ud
ĠB ry
row s
Ġbi ological
ĠL L
Ġcap able
ĠPro p
30 5
et a
f aces
Ġvert ical
OM B
24 5
oc racy
Ġk il
ĠN eg
UT E
ĠC OR
Ġbecom ing
ism o
Ġqual ified
ĠProgram me
u w
Ġw ing
- '
Ġprovid ers
ĠHar vard
Ġ13 8
ĠV a
Ġdrug s
ĠRou te
Ġ14 4
ĠS INGH
am ination
ub a
ĠN ev
Ġ13 6
ĠFl ight
ol t
U s
ĠKent ucky
Ġal le
JECT ED
Ġmeasure ment
ĠStr ateg
ĠQu arter
du e
ist ing
I d
Ġun able
UMM ARY
ct or
Ġmin eral
ĠRober ts
ill er
it als
Ġdist urb
Ġsh ift
ploy ed
s a
D I
ĠG il
ĠAb d
im ony
N PS
Ġsitu ations
Ġgr ants
Ġ( %)
Ġmar ine
Ġr g
ac co
Ġarchitect ure
** *
Ġd ates
ĠO cean
Ġpol y
ST ATE
ĠP ed
. *
hab ilit
Ġab und
ura cy
ĠB efore
23 4
Ġincreasing ly
Ġcho ose
ĠStan ford
W ashington
ĠĠĠĠ ĠĠĠĊ
Ġful f
ĠR oss
ast ers
Ġsent ence
Ġh it
Ġhon or
ĠM ess
el and
3 60
Ġ ........
iz ations
Ġg rad
ĠMiss issippi
ĠH ung
Ġallow ing
ĠWal ter
et her
d ec
Ġdecl ared
Ġown ers
S ummary
on al
cl osed
re nd
19 1
rate gy
Ġdel ay
18 1
01 1
Ġdevelop ments
99 9
Ġ13 9
oth ing
az a
con n
Ġcl ient
ĠAgric ulture
at iv
im ately
ĠDel ta
plo ad
22 1
ant es
u ment
p en
M T
Ġcandid ates
Ġc ited
l og
Ġdiscrim ination
Ġla un
he tic
Ġclass ified
Ġa ver
ĠN ature
ĠK al
Ġcre w
Ġn icht
Ġfin ance
ĠL eb
m b
H I
u an
Ġresist ance
Ġread y
Ġdis app
ann els
Ġland scape
ed er
as se
Ġalleg ed
ĠSp ain
ĠS S
Count y
Ġoff ence
ĠVal id
Ġreg ime
ĠPart icip
stitut es
Ġb its
ĠO cc
ĠFurther more
Ġprov ed
Ġf ix
Ġpresent ation
Î ·
z ing
ial s
Ġimpro ving
Ġbel ie
ĠI C
he im
tex t
Ġmarket ing
AP P
ric ulum
ĠF ellow
AP TER
iff s
oc ate
O FF
2 26
ĠPal est
ĠR and
ab ric
ĠS UR
Ġad minister
Ġfact s
ĠSp anish
ĠStud ent
Ġh at
O b
ĠS ports
Ġdeterm ining
ĠTh rough
Ġbro wn
ĠSchool s
2 24
el ih
ĠU pload
Ġref ers
Ġwe alth
ic on
Ġpre gn
ĠĠĠĠ ĠĊ
Ġtest ed
is er
Ġsumm ar
Ġ`` (
y o
ĠB arn
ĠW HO
Ġf isher
olog ist
Ġro ugh
Ġt asks
p m
Ġ19 37
Ġbl ocks
________________________________ ________________________________
ĠT W
Ġconf irm
M od
Ġste el
Ġtry ing
ĠS et
inc inn
Ġ14 3
en h
Ġsub sc
Al though
Ġfinal ly
Ġp ip
Ġfacilit ate
ĠG er
Ġproper ly
Ġundert aken
Ġdise ases
b ec
Ġtrans action
Ġgo es
Ġapplic ant
Ġinvolve ment
Ġgl ass
ĠS ix
ĠD omin
Ġc os
Ġsw itch
Ġ17 5
alt ies
23 2
comm unic
Wh ile
Ġrespect ive
ĠFor ces
Ġorder ed
ul ing
ĠG RE
Ð ²
19 69
ĠF ootball
ĠCh amber
Ġhold s
ĠB A
ad v
2 13
OD E
Ġg ard
Ġh all
elih ood
ed ing
Ġst able
Ġvis ible
p ubl
ĠDe velop
ad s
19 68
Ġ15 5
D ata
Ġsuc ceed
um a
Ġth or
incinn ati
ERS ON
Ġf ert
ĠG O
Ġphen omen
ĠR idge
ific ant
unt ary
U V
00 6
Ġb irds
Ġconsum ers
I l
Ġv ic
ĠH un
Ġposs ibly
m ir
AD E
Ġpotential ly
Ġt ill
Ġed ition
i ate
Ġcop ies
2 28
ĠL em
Ġunder lying
Ġwill ing
Ġm ur
Ġw ave
ĠInd ividual
ĠOFF ICE
x i
ĠL B
Ġtr uth
Ġunder stood
( (
Ġ14 1
z t
ĠMar c
ĠH u
ĠB on
ĠCons ult
Ġref uge
ĠB os
Ġmeasure ments
ĠBow l
Ġaud it
Ġpet ition
ĠC ab
Ġdepend ent
ĠM t
2 11
il er
an ning
ĠTown ship
Ġstru gg
ĠFinal ly
B UR
ĠT ro
l en
Ġk ing
2 15
ĠS eg
Ġcoast al
23 8
us al
Ġlegisl ative
Ġn i
27 5
d et
ĠVi ew
ĠSt art
Ġarr ived
ĠF E
Ġb ond
Ġlabor atory
ĠG RO
30 4
ic ate
inc eton
igen ous
19 71
Ġc art
Ġbor row
ĠEconom ics
Ġtra fficking
23 1
w rit
pp ing
Ġsp aces
Ġl ists
Ġp ra
ĠN ort
ES H
c d
23 6
2 29
ĠL anguage
Ġim per
ge bra
ĠThe ory
ĠBel g
Ġcontribut ed
ec onomic
Ġpro ve
itzer land
Ġte lephone
l ines
Con n
Ġdescrib es
Ġstr ing
Ġevent ually
Ġm ile
yn ch
C op
Ġn av
Ġ19 10
ĠS n
list ed
O ur
P e
ĠE very
on i
Ġen emy
Ġspe ak
ĠPerson al
Ġle aves
Ġd uration
Ġexpand ed
IS ION
Ġviol ation
Ġoper ators
Ġv oting
D irect
ĠEx pl
Ġvict im
Ġp up
Ġno ise
ĠK evin
Ġtrans it
ro duct
Ġcons erv
es ch
19 67
Ġt ried
Ġaccur ate
ĠB us
Ġthous ands
ĠR yan
ĠL ove
ĠM I
Ġra ise
in ate
Ġelect ions
ĠU pper
Ġgradu ate
ĠK at
GR AM
ĠL ic
Ġ16 5
ĠAr thur
ess ions
S ome
op her
Ġsp ot
Ġch art
O F
Ġ* *
AN E
D et
ov en
Ġassess ed
ING TON
ed e
er ies
ĠM ach
Ġla id
ĠR I
Ġobl igation
ru e
ĠF a
m as
Ġbe ar
ĠO wn
30 3
ĠB est
Ġn u
ĠAnth ony
Ġlic ens
ĠCh o
Ġout come
Ġdif f
ĠPro ced
Ġst ages
" ;
em et
r ates
Ġ2 10
Ġass ert
Ġstat istical
ĠAtt orney
Ġimp osed
D D
ĠL am
ourn ament
ĠM unicipal
Ġbe aut
ess e
ail ing
ĠS hip
Ġr ig
ĠInt roduction
Ġel imin
ĠM aj
Ġ2 20
l n
r ition
Ġbu y
Ġpl ate
ĠInc ome
ĠC at
ĠT our
Ġ19 33
Ġtw ice
ĠN ic
ĠTor onto
Ġfin ancing
vent h
ĠMon itor
ĠProvision al
Ġre action
EN N
ĠEst im
Ġy ellow
ĠL as
ĠTh ompson
M G
Ġrapid ly
M ON
ĠC t
Ġdepos its
pr ises
ĠK r
ĠFed eration
Ġ19 0
all as
Ġres erve
Ġdom ain
ĠB RO
23 9
Ġjud icial
Ġrev ised
Ġres erved
om ic
Ġh ab
Ġinter action
Ġdivers e
Ġp ure
Ġev ident
ĠAm ong
29 0
Ġex em
Ġh yd
ĠSCH OOL
ad ing
ur ers
ed ia
z ed
ol ly
com ing
Ġsh ot
oc a
STIT UENCY
Ġ2 40
UL L
EC D
act ory
Ġcl ause
Ġ14 7
W K
ic ed
IT S
AN A
Ġappoint ment
ĠM ED
ĠT ext
Ġ19 35
ĠL iter
d ist
ar o
Ġ14 9
ĠG ulf
ar se
Ġsee king
ĠPr ivate
G o
2 27
ill ery
old s
AL S
Ġpriv ile
Ġd ipl
Ġemphas is
S he
2 14
Ġ2 25
Ġrece ip
H P
Ġst ability
Ġded icated
VI EW
Ġdemonstr ate
ar an
Ġper fect
Ġg ran
ĠT am
n ame
ĠLeg al
Ġadop t
ĠAg ain
c u
Ġindust ries
Ġst orm
ev a
Ġle aving
os ph
em ployment
Ġexper iments
P N
Ġf ear
Ġpre vention
Ġt on
ĠT rad
00 7
ĠY our
Ġb il
ĠD rug
ĠSpe aker
ĠUs ing
d ep
In ternational
E Z
ĠR isk
Ġf ishing
Ġ19 34
ĠPr ice
ĠMod ern
F K
ĠF ROM
Ġa part
ust ain
19 66
G old
__ |
uls ion
H G
ĠRe form
est one
f red
Ġpres ents
Ġst rict
Ġs ich
Ġsay ing
g t
ĠAm b
Ġcompet itive
Ġassist ant
Ġindic ators
Ġder iv
Ġshe l
23 7
Ġdel le
ĠBr ig
ĠImp act
ra it
es p
Ġconce pts
---- ---
Ġco ordination
Ġmat rix
Ġ14 2
ĠH oll
Ġm aps
Ġcomp ly
d em
yp es
Ġdecl ar
AM ES
Ġimpl ications
l as
ht m
Ġconcent rations
ectic ut
we alth
Ġ nd
Ġthous and
ĠSen ator
ĠApp lic
C ity
Ġlink ed
ĠRe ference
est ival
ĠW right
H AR
p age
it ro
Ġagric ulture
ir s
om orph
Ġf at
v y
ĠT a
ĠN ich
op t
Ġ14 6
ĠNot re
qu is
end ar
ĠS ud
Ġal cohol
atter y
ĠMAR K
t wo
Ġde emed
ĠSt rategy
ag h
Ġpass ing
Ġsol ar
Ġbl ue
" '
ĠMem orial
s he
ot te
ĠMor ris
Ġoccup ied
OM IN
Ġpark ing
ĠP anel
Ġp it
c al
IT A
Ġdef ault
e enth
ĠRE JECTED
Ġneighbor hood
hold er
Ġsav ings
ĠLouis iana
Ġf alse
u ous
ĠO t
Ġc i
ld er
ĠWh it
Ġ10 24
Ġ................ .
Ġpurch ased
od a
ĠAr gent
Ġexcell ent
L I
Ġmin ing
Ġinsp ection
F P
Ġc iv
ĠIm m
Ġ( )
Ġ20 5
ĠSt ar
Ġb ay
ĠLet ter
ĠInc re
ĠRev ival
Ġsome one
24 9
olec ular
Ġrepresent ing
over ning
ĠX X
Ġgener ate
Y A
ow ed
Ġs el
ĠOnt ario
S en
ĠIndust rial
ĠB ased
ĠEx change
Ġl ies
ĠF ram
ric a
K E
ack s
Ġassum ptions
yd ney
og a
Ġn ort
c ut
f a
ĠPart n
Ġdisch arge
ĠSe ason
Ġal b
Ġr ational
Jan uary
Ġsuccessful ly
AD A
Ġr ing
hib it
Ġ19 18
Ġsupp lies
f ig
Ġwid th
end ers
Ġstand s
V essel
cha ft
Ġdec ade
Ġdeath s
IL LE
e als
attal ion
ĠS f
Ġn omin
Ġ ________________
Ġtra v
ĠC AP
Ġ19 28
ro le
30 2
e z
IV ERS
ze ichen
Ġj our
Ġearn ed
30 8
ĠElect ric
Ġor al
Ġabs or
Ġc ab
ĠSam uel
ĠB AR
if ts
ĠN W
Ġresearc hers
om atic
S chool
Ġg ap
H L
ĠRel ig
h ard
00 18
?? ??
Ġestabl ishing
Ġpass age
Ġp iece
ĠAnton io
ipp ing
p ublic
Ġintegr ity
Ġl ayer
ĠST REET
Ġcent ers
Ġelse where
Ġorganis ations
Ġtrans p
Ġdep ending
Ġ19 19
ĠPh ot
M y
Ġe ine
Ġlin ks
ĠMar ia
24 4
ĠSERV ICE
ph y
if ul
Sept ember
Ġf ill
ĠCo oper
Ġparam eter
all a
19 60
ĠDist ribution
24 7
ĠAdvis ory
Ġrem ark
ĠE ND
Ġcon stitutional
Ġtechn ique
2 16
l ington
Ġprogram ming
h ad
ĠIns urance
ĠAV E
Ġexper ts
d is
id al
ĠF ish
26 5
Ġf i
30 6
Ġdep ends
Ġinter vention
or o
er ick
im en
28 6
Ġvo ice
Ġcommon ly
25 3
h ol
Ġrem ove
atur day
ĠSc i
ĠWalk er
ĠD ick
id os
c n
V EL
Ġres ident
Ġth in
24 8
os ion
Ġdiscuss ions
Ġrecord ing
ard o
ĠH an
28 5
Ġ14 8
at ial
Ġthink ing
ur red
Ġfunction al
ĠPh ase
ĠChampions hip
Ġmin ister
ĠInd ones
m issions
ĠP rimary
25 4
ĠMc G
ĠNet herlands
3 20
Ġfin ished
ell i
ĠL ast
ĠBen ef
I ER
em i
Ġhus band
Ġinc hes
f i
Ġn ations
Ġpres cribed
Ġcollabor ation
it arian
Ġrequ iring
Ġincorpor ated
ant o
ap es
emet ery
Ġpre lim
Ġhe av
Ġ ram
ut enant
ĠSund ay
ĠF ri
Ġmaintain ing
ont al
T ION
enn a
Ġexp ense
Ġcol on
Ġ15 1
ĠR ose
ĠDr ive
Ġevalu ate
Ġvis ited
Ġclaim ed
w ord
ĠSw eden
Ġpolit ics
ag en
ĠAn ne
F D
ST EM
3 75
ĠVict oria
Ġpreced ing
Ġn g
Aug ust
ition ally
ĠRob inson
R ich
ĠM R
Ġpart e
Ġe le
Nov ember
ach ment
Ġcont ents
B ar
re tt
Ġthan k
24 6
V D
ic ular
24 1
19 65
Ġiniti ative
k k
Ġwithd raw
Ġveget ation
Ġinnov ation
Ġpromin ent
s ur
Ġsubsequ ently
ST R
Ġval uable
ot ton
ere e
ag on
IL E
Ġab andon
ĠItal ian
Ġinter face
qu al
ĠC B
we ight
Ġ19 29
ell es
Ġm ine
ĠWh o
ĠW ILL
ĠAust in
Ġlimit ations
Ġexam ine
ĠC ultural
Ġcamp us
Ġp u
h ire
Ġrefer ences
30 7
Ġ15 3
24 3
ient e
Ġch annels
Ġc rimes
P G
ate ver
ound ed
Ġmill ions
A f
ay ette
Ġc ensus
ah a
ov ed
h ave
Ġprom otion
th rough
ra ce
ab et
á Ĩ
ĠE sp
arm ac
ict ions
Ġm ilit
hemat ical
m n
Ġdirect ors
ĠO L
im o
Ġ18 5
Y L
ĠC S
ent es
ol ph
ĠImpro ve
g age
ĠS ac
ĠQue en
Ġno vel
Ġext ract
Ġdocument ation
Ġre ality
r ar
ĠJ oh
Ġta ught
ĠVAL ID
A I
01 2
Ġar my
Ġthere of
se ud
ah l
Ġmove ments
ĠBul letin
IC ES
ĠHam ilton
ĠâĢ ĺ
iv ated
Ġref lected
Ġrepl ace
Ġst opp
b n
Ġgovern ance
ĠP resent
P ol
te enth
L ong
ĠAl aska
ĠS B
ĠP lease
ĠCap tain
ĠP as
ent ed
ob e
Ġspec imens
Oct ober
ĠD ave
g overnment
Ġ15 7
Ġst ored
ĠO il
anc hes
d d
ĠM ort
h ren
ĠK y
Ġvers us
ĠC leveland
Ġth reshold
N EW
Ġposs ession
pl ed
P OS
ĠB altimore
Ġt ail
2 18
tic a
Ġsh aring
app ed
Ġprof ile
ign ment
ĠE B
Ġsymb ol
Ġsym pt
Ġ19 5
Ġon to
O E
all i
Ġcon st
) /
Cl ass
Ġcert ificate
ĠD B
Ġ20 2
ĠA IR
arg ed
Ġtem por
est e
Ġ19 25
Ġins pect
spec ific
Ġhigh light
Ġconstra ints
ĠG ib
ond e
ĠB ou
ĠTur key
Ġro w
Ġnorm ally
Ġm issions
IT T
ĠR aj
1 000
ĠC ra
Ġlow est
G IN
Ġconsider ing
ĠE valuation
ĠInvest ment
E urope
ĠCommer cial
Ġsc ores
ĠSt ew
ubl in
Ġadop tion
ĠH R
00 8
A nt
ĠPhys ics
ak i
Ġw elfare
Ġar ms
ĠWork s
Ġtrad ing
Ġminor ity
ĠMan ual
ĠAdd itional
ĠC ook
eg u
ure ment
ĠDak ota
Ġm ales
N otes
n ia
ĠK now
i u
30 9
ĠO tt
lement ation
Ġprov ince
ĠF ord
Ġfem ales
F l
Ġv ital
g est
en za
Ġopp osition
is ons
ĠL incoln
Ġch ance
Ġpublic ations
ĠN ever
Ġcon ventional
26 6
Ġinvol ves
Ġpur s
ĠS UMMARY
n ik
il ation
Ġ15 2
Ġpl ays
ĠInt elligence
ĠPit tsburgh
ĠDem ocratic
$ $
Ġtro ops
Ġevery thing
m ic
ĠR ate
Ġdr iver
W W
ET T
Ġc atch
Ġacc uracy
ĠR om
60 7
Ġprint ed
ĠTh ose
Ġ19 17
Ġd in
un ately
ĠVict or
Ġ15 6
Ġsign als
ra ine
Ġ................................................................ ................................................................
26 4
Ġadd ing
Ġrad iation
N G
IT IES
Ġ2 12
um ns
Ġro oms
ĠB U
ĠF uture
ĠPh ill
w y
ĠPat rick
ĠFrank lin
Ġ16 4
L eg
ĠC redit
Ġschem es
Ġv ice
ĠF O
pro v
5 50
Ġcol le
CH APTER
Ġprep are
ĠG ER
Ġorgan isation
Ġst ar
Ġ19 14
Ġdepart ments
Ch ar
Ġstri king
ĠW rit
2 17
ĠLab our
r ub
25 8
Ġsub stance
N I
fl ow
Ġend s
ĠTer rit
Ġass embly
3 10
Ġv ast
u ar
Ġre ct
ĠEd itor
ĠN elson
Ġco e
ĠT urn
op ulation
lin ary
Ġc ogn
ĠArch ives
Ġstat utory
Ġr s
Ġcirc uit
C urrent
Ġcomp osed
ore n
Dav id
Ġmor al
Ġ19 26
he astern
ze ch
ef t
Ġ16 7
z z
W orld
b est
Ġconfig uration
Ġb attle
reed om
ĠDou glas
ĠM ale
ĠInd eed
ĠHol y
b rid
OC I
Ġinstall ation
Ġ15 9
Ġt ables
ĠE PA
Ġpre val
Ġro les
Ġp ension
Ġsubs idi
ĠP ARK
D el
ro d
ĠE t
f ree
Ġfarm ers
in ar
Ġarg ued
Ġpower ful
Ġ( .
Ġreserv es
ĠUS C
UT ION
ĠAnn ex
24 2
Ġ15 4
Ġd rain
Ġequ ation
ĠR ow
UR N
gra de
iz er
ot ional
Ġbur den
M iss
40 5
ĠEm ploy
Ġsens itive
ĠC ape
app ro
ĠJes us
r ange
Ġmess ages
Ġide al
Ġ19 24
27 3
Ġleg it
Ġe ye
ad r
ĠA th
Ġparticip ating
2 23
id ades
Ġ19 32
Ġdes ire
Pro gram
Ġacknow led
ĠP AT
Ġgen us
Ġcapt ure
ĠPer iod
EN G
Ġach ie
ĠRich mond
r h
Ġm ist
ĠD ur
s l
29 5
Ġhaz ard
ĠĠĠĠĠĠĠĠĠĠĠĠ Ċ
ĠE T
w ere
her ic
or and
ĠSt adium
ire ments
Ġm el
ond ay
ĠProgram s
Ġfund ed
P ort
if i
W E
Ġoffer ing
Ġm erc
ah o
Ġo e
ĠJ ane
27 8
ĠOn ce
Ġart ists
Ġgen etic
25 9
R D
bor o
ĠWild life
os c
ĠF all
Ġv ector
Ġo l
ag an
Ġquant ity
ĠA er
Ġar ts
ĠB ol
Ġorgan ic
Ġen viron
Ġimp ossible
L ondon
Ġfew er
ag s
h is
60 2
s pe
ĠCo le
Ġfam iliar
ĠI F
ĠVal ue
Ġro ot
ĠPort ug
Ġin ject
ĠReg ulation
Ġord inary
ud a
Ï ģ
00 9
ur ches
Ġexperiment al
___ |
6 50
Ġass emb
ĠC up
Ġext reme
c re
ĠCl imate
ĠF er
Ġsepar ated
R ef
ĠJu an
Ġearn ings
Ġrecommend ation
Ġpre fer
z ione
l ad
Ġto xic
ĠM as
ĠRepublic an
ĠDe an
ac a
Ġexact ly
ĠBas in
ab y
26 9
Ġact ing
Ġm ais
ow nt
Ġtra ined
Ġacc used
ĠDet roit
Ġ15 8
he nt
Ġsu it
27 6
Ġdifficult ies
pect s
Ġall a
Ġenc ounter
Ġar ray
ant ly
ut o
O Y
S al
Ġtri p
ĠMed al
ĠM un
Ġall ocation
Ġimplement ing
Ġsold iers
W ork
ĠC ust
Ġm outh
sec ond
Ġthreat s
ic ity
U X
ĠB and
Ġsubs id
28 8
eng ers
ra ble
Ġsubstant ially
ĠRe venue
K ey
ill ance
Ġf oss
ir i
ple te
Ġ19 21
Ġsched uled
Ġut ility
01 5
Ġens uring
qu atic
Ġ19 27
ĠUC LA
ĠCare er
Ġgreat ly
Wh ite
Ġfe as
ĠP un
Ġreve aled
M s
29 9
Ġsh oot
Ġg ather
Ġproject ed
n amed
ĠO k
ĠS oci
G Y
Ġ16 8
Ġa o
Ġpoint ed
y cl
25 1
Ġ19 23
ĠPro s
Ġjo in
25 7
ĠTe le
ĠFr ont
ĠW el
Ġrecogn ize
ment o
Ġexpendit ures
are a
B N
Ġthere by
Ġ16 9
Ġ19 31
re ction
olog ists
B U
ĠCo ordin
ĠMat the
ĠY EAR
aj o
Ġdes ired
ĠR EL
Ġw ider
Ġ16 3
ter ed
Ġ18 8
Ġz a
ri k
Ġtransl ation
ĠD A
ĠC AL
Ġstake holders
Ġdisc retion
c ap
anc er
Ġwer den
Cont inued
ort ion
r us
d y
eter ans
m id
Ġaud ience
ĠPro duction
iment o
le ans
p read
ĠJ am
L L
Ġinitial ly
ĠR ight
K A
W V
ĠM es
Ġille gal
ac cess
ĠQue ens
in th
f irst
Ġapparent ly
Ġw ire
Ï ħ
Ġwar rant
Ġdisc overed
Ġg i
osp itals
Ġh ier
Ġcon stitu
az ioni
Ġn os
in burgh
il ia
Ġw atch
Ġ2 30
Ġj a
Ġaccept able
Ġ16 2
ĠN uclear
og rap
Ġec osystem
Ġencourag ed
n eg
le tic
ER ED
Ġargu ments
ĠOb serv
Ġ3 50
au k
Ġprelim inary
d am
Ġin h
26 7
ĠC as
Ġdynam ic
ĠN av
ĠD NA
ent er
25 2
Ġrep air
Ġexplan ation
G ra
Ġreflect s
ĠInd ependent
Ġrad i
ĠMor gan
L ab
ĠQ U
Ġ( -
Ġmer ely
ĠSw itzerland
ĠCamp bell
28 7
38 0
ĠPER CENT
ĠPr inceton
26 1
f all
ĠJ enn
Ġseem ed
it ivity
26 8
or ne
ĠOb ject
ides pread
end ent
om es
ĠIss ue
Ġevalu ated
on z
N T
iat ric
26 3
Ð ´
Ġ16 1
Ġg all
Ġel im
Ġobserv ation
Ġstre ets
Ġupd ated
Ġhard ware
ĠSh ort
2 19
or iginal
ĠPort land
Ġcap ac
Ġt ip
Ġpass enger
b ay
Ġb an
S ince
ĠSing h
pr ing
at he
Ġam pl
ĠL ower
ab out
Ġpre t
ĠRes idence
c raft
ĠPe ace
Ġnew ly
ĠM erc
Ġce leb
ĠReport s
ĠAfghan istan
sh ore
Dep artment
we et
27 7
re f
Ġcontem porary
C I
AT IVE
Ġro utes
leg es
B orn
be ing
ĠM and
Ġe yes
!! !!
01 4
Ġ................ ....
Ġcivil ian
OR N
ĠSe attle
omb re
ri p
d el
Ġher itage
ĠTrans it
ĠVi ol
ĠIn iti
omet ric
ĠC ru
ĠRepresent ative
ĠBu ild
ĠZ e
Ġcop yright
ĠN ative
ĠL ang
P at
ĠH op
Ġ2 15
R et
Ch rist
Ġhar vest
Ġ }
Ġlist ing
Ġt ick
ic ide
orand um
ĠC ir
fol io
ĠAir port
ĠP arent
verse as
be an
Ġopp osite
; ;
rid or
ac on
Ġhe nce
AT S
Ġcl ients
P aul
Ġshe ll
Ġdef e
11 11
F ederal
Ġs ou
em en
ĠM N
Ġregard ed
Ġdeal ing
D B
Ġp ray
Ġacc um
ĠN ation
ĠI M
Ġv ig
27 4
em e
ĠHon or
J ack
ĠB art
Ġf illed
R EC
ath y
Ġ00 000
Ġg est
Ġsam pling
28 9
ĠL ett
Ġdifficult y
ĠK l
er i
Ġsub d
ows ki
Ġany one
ĠFr m
in ning
01 9
ĠP ack
V E
Ġcomm ittees
ĠF ern
Ġserv es
AN I
ĠF ile
el ve
ĠMit chell
Ġn urs
ĠL ib
Bl ack
O f
Ġamend ments
omet ry
Ġregular ly
Ġm ail
Ġforest s
h us
Ġinterview s
Ġaff airs
Ġ19 15
Ġreli able
l ast
Ġdem ands
Ġsim ult
ĠEv ans
ĠDIST RICT
Ġint ensity
Ġfac ing
- _
ĠB ull
est y
ĠF mt
ul ating
27 9
ĠComm un
ĠJ kt
ĠConn ecticut
p i
Ġad mitted
Ġcon stitute
Ġman agers
EM BER
01 6
ang le
ĠSf mt
S ECT
ĠL LC
at abase
rid ges
n ut
al ia
ĠT un
ov o
Ġimp rison
Ġcur rency
an on
Ġmust ered
. (
A ge
ru ction
ĠW es
ĠDel hi
ĠJ OHN
Ġcover ing
Ġint ellectual
Ver Date
Ġ18 61
Ġph one
Ġt ropical
Ġpr ime
Ġdec ide
ĠB apt
ĠT Y
ĠG ordon
S im
Ġ7 00
S ur
habilit ation
3 40
le tt
Ph il
ĠBarb ara
ĠF I
ail and
ĠY outh
D RA
ag ues
Ġeven ing
a uc
Ġa z
amp ion
Ġsub t
Ġr an
Ġdecre ased
G P
Ġscen ario
Ġsed iment
wh ile
Ġ19 22
Ġto ler
in us
Ġann ually
Ġinvestig ations
R ed
Ġman ual
roll ment
Ð ¼
ol as
ĠL O
t age
Ġun us
T wo
ĠAd am
is i
ĠPrincip al
ĠT A
ĠOr leans
Ġmig ration
Ġindic ating
ade qu
Ġrail road
ĠM ove
Ġmonth ly
Ġsm ooth
ur ric
ET TE
ĠDef ence
MENT S
IC O
FOR D
Ġfore cast
Ġbeg ins
ĠLear ning
Ġ19 12
Ġ â
Ġiniti ated
on ly
al so
ĠRec ommend
ĠStat istical
Ġterm inal
ĠT ournament
29 4
29 8
W omen
ĠE SP
ĠAre as
Ġsuper ior
Ġlaun ched
imens ional
l ock
01 3
! "
ĠP ra
ro vers
r if
Ġob s
Ġang le
us ing
Ġdet ection
Ġb io
uss ion
Ġg un
ĠĠĠĠĠĠĠĠ Ġ
Ġcomp os
Ġn el
am ples
Ġsat ellite
B ALL
st an
G reen
am an
ĠScient ific
Cop yright
Ġt ank
Ġarrange ment
Ġassoci ations
Ġdo ors
T X
Ġcharacter istic
ĠSever al
id en
ist e
Ġthe rapy
ĠG ary
3 70
19 64
em ic
Ġl l
Ġ2 35
it ter
f our
x y
ĠCol omb
lic k
Ġ17 6
M al
an ne
ĠComp ar
Ġb is
ut ation
Ġdiam eter
ĠMat hematics
ĠS K
cc in
Pro v
C he
Ġst ead
Ġn ach
L et
ĠD EC
ĠKel ly
ine a
it en
M ore
a ft
ĠC incinnati
Ġ16 6
ĠY et
N N
" ).
ang a
Ġg od
Ġsa ve
V AL
ĠC riminal
Ġsupp lement
Ġv otes
row d
Ġemploy er
ĠN AME
wh o
ore m
at in
rom e
J ames
Ġ19 7
Ġimm ig
n r
Ġch ampions
id el
ĠH as
S il
Ġprison ers
Ġprodu cing
b urn
Ġt urb
ub le
ĠRuss ell
T exas
e a
Pro ject
Ġall ocated
ke ley
Ġhand ling
Ġrem ote
l ia
M en
Ġrecogn ised
f s
ap ore
ĠB eg
B el
Ġscient ists
ĠCommon wealth
ĠM i
n ight
Ġ17 7
Ġevery one
- (
ut a
Ġaccess ible
Ġin clusion
ĠS ydney
igh th
ĠS ound
Ġt ar
Ġcollect ive
ĠPol y
ĠSpr ings
ĠAssoci ate
Ġo cean
ĠD I
Ġg rid
umul ative
im iento
Ġaddress es
ow ell
par agraph
S Y
Ġpr on
arg et
Pro fess
ĠH AR
iss a
29 3
ey er
================ ================
ĠG iven
ĠApp lication
Ġmiss ing
act ors
b as
Ġassess ments
Ġequ ally
Ġdispos al
29 6
Ġt un
Ġinter val
ĠN az
Ġpat ent
Ġproduct ivity
28 3
ill o
ĠD al
Ġindepend ence
ĠV ehic
ĠDon ald
on el
Ġse asons
Ġpl ain
Pres ident
bu ilding
Ġb in
ĠC hen
Ġ ..............
Ġc old
ĠBook s
ĠRel ated
ok ed
27 2
s ki
Ġd il
26 2
Ġret irement
E F
ĠAdminist rative
Ġ17 3
ĠF le
ch ild
ffic i
cont inued
Ġdefend ant
ĠR ank
Ġkind s
thlet ics
ash ion
Ġinter pre
Ġf ruit
Ġunivers ities
R AL
od ge
Ġhapp ened
33 5
ĠCol lection
ĠB ron
Ġt ons
Ġr ating
Ġ2 11
TH ER
Ġ .....
Ġexpert ise
36 5
ĠViet nam
ĠP s
sp ace
ĠR US
Ġdepos it
Ġcar s
v as
ĠĠĠĠĠĠĠĠ ĠĠ
IS E
Ġ2 70
RE P
Ġpost s
p ic
n ed
ĠS el
' "
Ġpl ane
Ġse at
X V
W ar
Ġt act
Ġart ist
ĠRegist ration
A ir
ĠTem ple
ĠA RE
as ures
Ġstat ute
Ġe en
uer to
ĠPr ime
ĠH old
Ġconn ections
L B
Ġdel iber
39 0
ĠR ap
ist ence
h ow
ĠN ick
Q G
p ay
WL RQ
Ġuncertain ty
Ġ ul
Ġexp ed
Ġnewsp aper
th an
Ġent ries
ire ction
Ġdr iven
ĠW EST
E lect
ĠG round
re port
is o
in ition
Ġpart ial
Th at
i ot
F ore
l ades
ĠD raft
ĠY ale
28 1
Ġpres um
Ġ18 90
29 2
ĠCommer ce
19 50
ar th
p ost
Ġdr iving
IST ER
cl aim
p ol
Ġ17 9
Ġsatisf ied
Ġform ula
28 4
Ġill ness
os es
ON S
01 8
Ġ ________
Ġmur der
ĠEr n
ĠG rowth
33 4
Ġsepar ation
Ġent ering
ĠW D
ĠC ulture
un ting
Ġd ors
ĠAtl anta
ĠR B
Ġ20 3
inet eenth
ĠT ask
Ġben ch
Ġconsolid ated
r un
FORM ATION
ĠEmerg ency
iv i
Ġinst ances
id ay
ed a
Ġtri als
Ġc ette
ĠW E
ĠBru ce
Ġth irty
d ie
ĠChar acter
iod iversity
ĠHar ry
A IR
Ġs hed
Ġa wards
ĠL ect
Ġ17 4
an ied
ik h
ĠMa ur
Ġassum ption
W ater
Ġcol umns
Ġra in
Ġenh anced
Ġc es
ĠW as
28 2
ae ological
ĠO w
bor ne
Ġlat est
f ish
RE G
aw ay
Ġsur pr
Ġz ur
ĠC M
Ġme ets
Ġpros ecut
ĠL ess
ĠAd ams
Ġ rom
iv an
Ġrec over
Ġg ains
ĠF if
Ġmed icine
e en
Ġvis itors
How ever
ĠSim on
ĠOffic ial
ang el
at um
Ġpre ferred
r ont
ant i
Serv ice
s ign
3 30
Ex p
ĠH ug
Ġ19 16
ĠT ai
g un
Ġarchitect ural
ĠPubl ishing
ĠB ad
Cent ral
Ġus age
ĠSil ver
Ġconsider ations
Ġachieve ment
I ll
ĠBr un
29 7
D em
Ġus ual
ER T
lik ely
Ġ17 1
ĠB ot
ĠBeh av
Ġadvert ising
ĠI A
Ġabs ent
est a
ia h
ĠB aker
C B
st ic
ĠP E
ĠMad ison
ĠK os
Ġin ner
S r
ĠD aily
Ġident ifying
ac i
Ġanc ient
Ġb onds
ĠO P
l ov
0 40
Ġb rain
27 1
Ġopp osed
ĠPro ble
Pl ace
Ġde ux
ĠP apers
UL TS
Ġimp air
Ġprom pt
Ġkeep ing
Ġvill ages
Ġag es
Ġw ur
Ġcon g
Ġ17 8
Ġd ir
ĠSimilar ly
ij a
33 6
ĠE uro
ug ar
al is
t here
ie g
Ġtr ig
igh ter
Ġfair ly
Ġd welling
L AR
Ġ17 2
Ġmac ro
Ġr ub
Ġlook ed
ub urn
Ġident ical
l ers
ian g
Ġv essels
,, ,,
ut ical
ĠTreas ury
ĠM agn
Ġm ic
ĠW KH
i op
ĠV in
5 12
e lect
ĠA ch
Ġpro pri
og ene
ang ular
UN G
Ġh op
V OTES
Ġbo ys
reg ular
Ġf er
P ost
OLOG Y
19 62
ĠN M
Ġcompar able
Ġprocess or
unicip ality
Ġ19 13
Ġa uch
ĠG P
ĠG ree
ĠFor um
al ph
ĠN GO
ĠLA W
Ġw idespread
id th
Ġg one
29 1
Ġle ase
st en
ut s
amp s
Ġpack age
Ġa y
oc ene
01 7
ĠEm ployment
Ġcl ock
ĠB AS
ĠM AT
m itt
k an
45 6
Ġprov ider
IP S
n ational
eg a
ĠJ ay
ĠPart ies
s or
ĠCent ury
Ï Ĥ
ĠC ANDID
ĠTra ck
sequ ently
BER T
Ġf o
ĠHis p
i ary
on ing
ĠR ick
ĠD ublin
Ġprohib ited
ew er
ĠSt one
ĠO pt
Ġsk in
Ġ18 62
W KH
W C
ĠDes pite
P o
ul u
Ġcorrespond ence
Ġre b
Ġdis miss
in ch
Ġin cl
Ġprop ag
Ġexecut ed
raf ts
Ġdefin itions
ĠOper ating
ĠC hem
e u
G ame
Ġsh ips
Ġs ie
Ġelect rical
ĠH end
t own
ĠT RA
RI B
Ġdist inction
ier ra
Ġsupp lied
ad ed
Ġf ol
v als
Ġorient ation
Ġbro ken
Ġemerg ing
Ġabsol ute
Ġden ied
Ġvulner able
ĠB an
M art
ro t
Ar ch
Ġdet ect
ic in
ĠH ad
Ġperform ing
ĠB uck
it ial
qu er
Ġa head
ĠE S
ĠC lear
id ade
Ġmer ch
Ġfif th
Ġm as
Ġelect ron
Ġr id
et ch
Ġdou b
ĠAb out
ock et
C OL
ĠAssist ance
Ġconsist ing
Ġ18 9
ĠTod ay
Ġs alt
Ġult imately
Ġrev olution
Ġc overs
ri ent
ã Ĥ
onom y
ĠPo ints
19 63
T ABLE
ĠR ange
ira ble
Ġmarg inal
oc ity
L o
enti eth
S ign
ĠBu ff
Ġ18 7
n en
on o
R R
ĠMaterial s
Ġbas k
Ġ18 3
Ġm emb
ul atory
OM E
Ġper pet
uc le
ch ar
Ġv oc
b ox
ag g
ĠR oc
Ġs es
ĠV II
Per cent
Ġdocument ed
ĠAv g
L O
ĠN aval
Ġmat hematics
ĠF alls
ĠT ony
3 25
ER C
ĠKenn edy
T P
ĠSY STEM
N UMBER
ĠTur k
p ire
Ġcomplex ity
34 4
Ġd ent
Ġloc ally
Ġpass es
Ġs oph
35 5
Ì Ĭ
ĠW AR
Ġdoct or
Ġe uro
p us
ĠS ector
3 12
čĠĠčĠĠčĠĠčĠĠ čĠĠčĠĠčĠĠčĠĠ
ou red
Ġ18 64
Ġan terior
ĠJun ior
r ise
34 9
Ġv acc
Ġretain ed
it ime
Ġjud ges
ou ch
ĠMur ray
ur as
ĠT ar
Ġro cks
Ġg ram
Ġcur riculum
ĠP ap
abl ing
ens on
Ġh o
ĠT y
Ġmark s
Ġtown s
ĠResp onse
atern al
Ġ ib
Ġs leep
Ġtemper atures
ĠWh y
H ead
am ine
Te chn
nov ation
Ġstri ke
ĠT s
Ġso ft
Ġ18 80
ĠS AN
J O
3 15
"" ""
38 5
ĠST ATES
in ian
Ġle af
ij e
ĠC ore
oph ys
Ġregard less
ĠAN N
ĠGold en
ro ke
ĠS in
ART MENT
Ġ2 60
Ġ19 4
en er
ĠProv ince
c ase
ĠC ITY
ĠWar ren
Ġvis its
ĠT ob
Ġext ending
ĠCommunic ation
ĠB oy
Ġsem i
Ġadjust ment
ĠN am
Ġreview s
t u
ĠTra ffic
Ġfound ed
Ġsc ored
Ġ .......
Ġcou ple
Ġsecond s
un c
W Y
ĠHawai i
Ġ20 4
Ġreason ably
= "
ĠA le
Ġe gg
Ġp m
ĠAl an
ĠEn c
Ġcomp at
Ġ18 1
ĠP le
34 8
bour ne
im ming
Ġsu d
ĠP os
st ud
33 8
D an
Ġ20 8
Ġoff set
ĠLa ure
in ces
Ġ19 1
ĠOper ation
E v
og ether
## ##
ĠT ER
Ġview ed
Ġwar ning
Ġt il
Ġapply ing
ĠS ab
3 11
L and
Ġpoll ution
ĠS port
ina e
ĠE le
Ġwork er
N M
C ode
ĠB ishop
Ġex cluded
role um
c z
oc rat
ĠCom pl
ĠMe an
Ġd edu
ĠP ast
ĠPhys ical
0 50
Ġg rew
Ġt ied
ĠAl t
Ġseg ments
ant on
ter y
ĠPhil os
19 61
ĠN OMIN
ene z
ane ously
Ġ19 6
ĠWay ne
Ġconsequ ence
au er
Ġatmosp here
ĠPro gress
ĠE in
Ġessential ly
Ġcer em
olog ie
Ġmethod ology
ĠInd ians
ist ed
Ġfra ction
IT AL
Ġster reich
ĠL l
it an
Ġs now
Ġtest imony
Ġne utral
iss ue
s ystem
AR I
R em
33 7
ĠU R
Ġprior ities
om on
f ive
ĠCons erv
er ion
Ġ19 08
Ġhy per
th a
ĠSup erv
Ġb ien
ett a
Ġas c
Ġz ones
Ġa w
aud i
op les
Ġperm its
ĠC e
Ġeng agement
p resent
D G
Ġcontin uation
ac cept
Ġ2 45
Ġte ach
M o
Ġch im
Ġaut or
Ġc odes
ĠS ex
f oot
Ġt ort
Ġtouch down
G roup
40 6
P rimary
Ġ3 01
ĠPRO GRAM
P V
C AP
ad ow
ĠPERCENT AGE
ĠInter view
L IN
S CH
Ġo v
ill ar
ĠDen ver
Ġ2 13
m ay
ĠR at
Ġ18 6
over e
ĠC hemical
Ġb ow
ur st
Ġdestroy ed
ĠPhilipp ines
Ġadjust ed
ac er
Ġin equ
L ocal
Ġra cial
ĠFund s
33 9
Ġs essions
ĠStrateg ic
y gen
Ġbas in
ri o
ĠFac ulty
H H
Sp ecial
r ut
40 4
G AN
ĠM IL
Ġ18 4
ĠH ence
40 2
Ġ .........
th rop
................................................................ ................................................................
C AN
ĠE lementary
Ġk o
pl an
od ing
g rad
ĠIndones ia
ĠBas ic
66 7
ĠN eed
Ġcompl aint
or us
ĠO T
Ġ18 2
ĠĠĠĠĠĠĠĠ ĠĠĠ
Ġstre ams
Ġsympt oms
âĢ ľ
3 14
Ġupd ate
B er
Ġvol umes
ud son
3 13
ĠEv idence
Re ferences
ĠNev ada
Ġviol ations
Ġaddress ing
Ġt ab
Ġcon clusions
ach t
Ġconver ted
ĠD allas
ĠA h
Ġv essel
. ''
v ar
Ġb id
44 4
ph is
S i
em p
et he
ĠA us
Ġcru cial
Ġ20 6
il ib
Ġguarant ee
or ous
Ġprem ium
ĠCar ter
Ġcon vey
ĠA z
ĠA UG
Ġcent res
Feb ruary
Ġf ut
Ġ20 7
Ġis lands
ĠCo al
ri um
Ġex clus
Ġunivers al
Ġ19 2
are st
B as
ĠR oll
Ġdraw ing
ĠBro ther
Ġ ----
F orm
' -
ĠAgric ultural
our t
Ð¸ Ñ
Ġaim ed
4 10
et ry
ĠGra de
Ġ19 3
anc he
Ġprom oting
Ġtop ics
ĠInter est
ĠB M
ĠF M
Ġindic ator
Ġthor ough
Ġfac ed
Ġg ained
en i
8 50
v ia
Ġther mal
ĠCh ile
ari at
ip le
ĠC er
ĠN UMBER
ĠO K
Ġfeed back
33 2
ab ad
f und
f o
H ouse
Ġv or
Ġsurv ival
F H
Ġ2 80
ĠS ong
Ġcont rary
ĠM ir
TR SECT
TRSECT N
Ġmount ain
Ġspect rum
r pt
Ġl ake
publ ished
n an
J un
ip her
ms on
Ġ2 24
au f
Ġnam ely
pro gram
B i
ĠDe ut
Ġenviron ments
for ced
33 1
Ġpred omin
ĠPol and
ĠD id
Ġeconom ies
Ġcur ve
Ġoff ense
Ġle ur
B ox
Ġf abric
ĠJ ason
ĠOver all
ĠMal ays
Ġinteg ral
adv ant
Ġlater al
d ata
Ġ25 5
Ġfin ite
ĠPsych ology
34 6
ĠL ocation
ra ction
Ġthreat ened
ĠConn ection
Ġag gress
ill an
V i
v it
ĠBet ween
ĠTreat y
Ġdis closure
ĠStew art
AM A
P OR
Ġsepar ately
ownt own
FI ELD
s im
ĠE UR
Ġcapt ured
Ġfrequ ent
st able
Ġprofession als
ĠIss ues
Ġsuper vis
40 8
Ġaggreg ate
Ġcon stitution
iv it
ob by
E duc
ĠR ome
Ġrob ust
Ġcomm od
H T
ast a
Ġtrans formation
Ġd up
ag u
Ġ( +
et ime
ĠWith in
ĠNorth western
ĠMe chan
45 5
sc he
ĠCH AR
Ġw age
Ġper ceived
Ġland ing
ĠS alt
Ġem ail
f ram
36 4
amp a
36 6
ĠR ivers
Ġ19 11
ĠF un
ĠS V
ĠEd inburgh
Ġrec ruit
t otal
le ton
Ï ĥ
Ġphotograph s
Ġspec ify
ĠM ISS
Ġ2 17
B en
Ġbas eline
Ġd imensions
Ġbroad er
olog ic
Ro bert
ne e
Ġpl ot
Ġatt itude
Ġco in
ĠDig ital
al m
pro fit
35 7
Ġwild life
Ġwh atever
____ _
c ers
Ġattempt ed
% ),
Ġhoriz ontal
Ġhabit ats
oth y
st ration
M et
ist ically
O ld
ĠT ol
Ġ20 20
Ġcharacter ized
um ni
Ġ................ ..
ess ed
ĠEv ents
Ġinter actions
Ġfa ult
40 9
IN TER
Ġsh ore
ĠL OC
Ġdec or
ffici ency
Sp ec
ain es
g ate
ing ly
anc hester
D is
Ġmin ute
ann on
Ġ18 65
Ġpi eces
H M
P ass
Ġfil ter
19 58
Ġcorpor ation
AC C
et o
N J
w ich
is hers
Ġc able
Ġoccur ring
e or
L aw
ra ck
ĠO ECD
Don ald
ĠTh ailand
ug g
ĠZ one
fort unately
Ġman us
ĠAR PT
Ġbe i
C are
Ġ18 63
/ .
ather ine
Ġaccomp any
Ġg overning
uel a
b ridge
Ġhealth y
L ate
A U
Ġcomm ander
Ġchair man
Ġc reat
ĠF T
ĠG ab
Ġd al
u pp
ah n
ro st
ul us
Ġoccas ion
ress ive
ist o
te chn
Ġab road
ster reich
us hed
ed ge
ĠU l
ĠEst abl
Ġhelp ing
ĠResp ons
ĠProt ocol
Ġvari ations
y ers
Ġinv as
Ġsc ene
c alled
ig o
40 7
F IG
Ġest a
isc her
Ġch a
Ġar ising
Ġcare fully
M ail
Int roduction
cent ury
Ġcontribut ing
enn ial
Sm ith
ĠGuid elines
ĠM T
I J
Ġaltern atives
ĠHIST OR
ĠBudd h
Ġf ly
Ġfind s
end en
Ġstart s
Ġdis k
Ġ20 9
ĠPract ice
ĠMar s
Ġdest ruction
G U
Ġent ertain
ĠN ash
Ġmet ers
ĠJ ob
Des ign
ER AGE
ne ment
ĠN ORTH
Ġisol ated
ĠS AL
ĠC zech
AV E
Ġs ind
ĠPhil ip
Ġint ention
ĠD IS
Ġp airs
ĠD ia
K S
ĠBern ard
Ġvol untary
id as
Ġprot ocol
ĠD U
Ġt all
as er
aj a
at z
ĠRes erved
Ġcollect ions
Ġ19 06
ator ies
60 4
ĠIN FORMATION
ĠV OT
ank a
ĠF ive
ĠIt em
F W
Ġdeg rad
ĠEd wards
Ġ19 09
Ġparticip ated
Ġc ards
ĠD ise
ĠPark s
Ġtheore tical
ob l
Ġaccomp anied
ĠR ice
Ġd c
Ġout er
Ġbo ards
Ġpay able
ĠChrist opher
or se
l oss
ous es
ĠS ustain
Ġr anges
ĠSt ructure
m ad
ĠH az
ha ust
K e
Ġenter prise
Ġmed ian
i ar
Ġbank ing
Ġext ends
ĠP ear
Ġ2 16
es h
ĠF ollowing
Ġsoc io
ss on
Ġmod erate
Ġ19 07
IL D
40 3
35 4
ĠSqu are
ĠP il
Ġp ump
IR ST
UNT ING
Ġcons iders
AM IL
Ann ual
ar ms
ĠAl i
ĠC atal
ind a
Ġdomin ant
Ġinvest ors
Ġhum ans
ĠDel aware
r l
Ġdecl ined
Ġc oh
OV E
Ġtack les
ĠR G
Ġre aching
Ġpost erior
19 45
Ġcons cious
Ġ................ ........
ĠU ND
in ery
Ġ2 14
Ġbra ck
3 45
6 10
v d
ic ing
Y r
ind ex
h att
ĠT N
ĠF emale
Ġ25 6
Ġbr anches
Ġyoung er
Z E
ĠN ut
Ġcrop s
Ġre vers
Ġst ores
lades h
Ch air
C M
el ing
19 59
ĠMonitor ing
ET A
X Q
ĠExp ress
B ill
ĠM W
Ġequ ality
ĠC I
ĠF ox
bor ough
ĠQ ual
Ġ2 23
ĠST ATION
ĠY OU
Ġpart ially
ĠSar ah
Ġcomp rom
ĠPr ince
Ġk on
34 7
Ġh ospitals
n l
ĠCol onial
ĠR ub
Ġcount ies
Ġh al
ET ER
Ġcomm e
A rea
Î ¼
Ġs ister
ĠP ath
Ġdest ination
D T
res p
50 3
Ġa i
ĠW a
Ġincid ents
ĠL arry
ĠAct ivities
_ |
ĠAdv anced
rades h
ĠT ok
Ġdr inking
Ġdis ag
Ġheav ily
as ant
ut ed
ĠD T
ĠDe ath
Ġ................ ..........
Ġdistingu ished
Ġrest oration
Ġcall ing
ĠScott ish
M ax
EE E
ĠRo om
li est
ĠF el
ard ing
g om
j amin
Ġprec ip
Ġ Ñ
000 5
Ġdesign ation
EM I
50 5
ĠPres ervation
Ġjun ior
6 25
Ġv a
ĠHot el
Ġass ault
Ġ19 01
ĠC ounsel
Ġcert ification
il ty
CL ASS
ĠP S
CON STITUENCY
ĠS aturday
ĠA SC
ĠK am
3 17
V ENT
Ġ2 44
39 5
Ġr ic
R ank
Ġadv oc
Ġn as
Ġph r
U p
ĠN ep
34 2
est on
S l
A verage
Ġd ur
ĠBrook lyn
Ġsystem atic
n umber
d oor
36 8
ĠJeff erson
ĠPh one
ĠA K
ĠSub ject
ĠAdd itionally
AS ON
Ġdia gram
Ġbe aring
O pp
a ug
Ġan ten
ĠCol lect
Ġrout ine
Ġel abor
ĠEm ail
Ġman aging
Ġt ape
ig a
Ġinf lation
Ġb urn
R IS
ĠF UND
Ġpart ly
ĠInst ead
ĠI SS
ov i
Ġre j
Ġcont rovers
Ġmax im
ĠP ct
A W
Ġreli ability
ĠM ason
An other
N AME
ĠL ock
ĠPre m
il st
b acco
Ġtarget ed
ĠMarg aret
R C
OS S
35 3
Ġhapp en
Ġaccess ed
Ġmod ule
ST RU
Ġtour ism
ri ev
Ġinform al
ik i
rac use
or f
ĠAlbert a
35 9
Â °
Ġ ion
ĠL T
ue z
ym n
35 6
Ġfra ud
Ġsett led
Ġso ils
38 4
60 5
Ġpar liament
ĠGra ham
Ġ2 75
ro ck
ro e
ĠDep t
Ġinf ection
ici ary
er os
ed o
ĠB ush
ĠSh ow
ct u
ri en
L es
Ġcol our
Ġsol o
et z
Ġbring ing
Ind ividual
Ġbelie ves
ĠPet ers
Ġ19 05
ĠK an
ĠS ri
Ġinv ited
it ure
Ġtim ing
34 3
ĠCh all
ĠN ig
ĠK a
Ġh uge
ĠC rown
ĠRes erv
au ra
isc ell
Ġdim ension
ĠFr iday
ĠB irth
K D
ĠArgent ina
ook ing
ĠE ss
3 16
v ity
Ġmat ches
Ġimprison ment
Ġ ×
ĠU P
ĠT u
ĠR T
duct ions
Ġc ul
Ġ9 00
Ġg ate
Ġvict ory
ĠAr n
Ġautom atically
Ġdesign s
ĠR ace
Ġn ode
Ġhead quarters
C AR
Ġhere by
3 18
Col umb
ĠP radesh
ĠU E
Ġmet ric
Ġimpl ies
Ġpres ervation
b es
ĠArchitect ure
Ġdis put
ru pp
3 19
l ights
ĠSt ra
9 50
ĠM AY
Ġadv ers
ĠF reedom
4 80
Aust ral
Ġo der
ĠP UBLIC
Ġworld wide
Ġcre ative
Ġgro wn
pos ium
Ġ................ ......
ĠEduc ational
r ating
ific ial
35 8
Ġprofess or
Ġattend ance
Ġc ad
ĠAust ria
ĠSh are
rel im
a wn
ĠG ill
ĠS ession
Ġv end
OT T
Ġ2 27
Ġsp end
ĠEff ect
Ġi i
pre ne
communic ations
Ġ2 65
Ġdis ability
Ġ2 19
ĠCON S
4 01
Ġcred its
ĠBi ology
Ġvar ied
Ġs v
Ġl ib
M ain
Ġd urch
ru ck
Ġk ill
ĠZ h
ell en
ĠS ett
ph a
Ġaffect ing
w ind
Ġconduct ing
es is
H AN
Ġtra ins
ĠN ar
37 4
f il
Ġvirt ual
ĠW inter
ĠRe ce
ĠJos h
Ġarr ival
Ġspe aking
uc in
ĠM OR
Ġpass engers
UR ES
Ġanticip ated
Fr ank
Ġhypot hesis
Ġnot ion
Ġris ing
N L
is en
Ġ2 26
Ġmin imal
Ġmus ical
60 6
ys elf
AN GE
Ġag enda
in ent
D isc
Ġexpect ations
19 57
rol og
35 2
CR IP
b ank
ĠE AST
Ġmagn itude
ĠMan ufact
E arl
ĠB attalion
ad ron
0 20
lic hen
ĠST R
Ġch ronic
Ġsuff ered
ĠEqu ipment
ul o
inc ome
36 7
Ġb oy
ĠSt ev
Ġcont ing
36 9
ĠQ B
ĠEff ects
) *
the y
6 15
S up
Ġrece ives
34 1
Ġloc ality
ĠPOLL ED
adequ ate
OS IT
r ons
ĠMag azine
Co ach
Ġ --------
Ġprom oted
Ġwaters hed
âĢ ķ
ĠU pd
Ġincent ives
37 8
ĠEd ition
val ue
Ġspirit ual
ĠCirc uit
Ġa ims
en o
Ġsuper vision
cy cl
ĠC E
or ient
Ġloc k
ocu ments
Ġinflu enced
H er
V ILLE
Ġdispl ayed
Ġcomp are
Ġro y
38 6
ibr aries
ĠSum mer
B ig
olid ated
f are
ann y
ĠMuslim s
) --
int endent
ĠKe ith
Ġ2 22
Ġun likely
Ġtechn ological
ĠD utch
ang ers
Ġbar riers
H D
ĠMain tenance
se ason
a q
F e
H C
Ġo ct
ĠP erm
ĠG ray
ĠPR ES
AK E
Ġreject ed
Ġhigh way
ĠIn form
ĠL ike
Ġinter mediate
ropri ate
Ġhand le
Ġwin ning
ĠF ell
y ou
Ġem ission
pect ives
Ġachie ving
Ġcompl aints
and ra
Ġt or
Ġfrag ment
38 9
Ġch lor
W EST
Ġex empt
I ED
it u
Ġprote in
Ġdanger ous
og ram
Ġinv al
iz a
Ġb ases
H AM
Ġhe l
Ġtra ct
37 6
Ġs ig
000 2
le e
Ġk it
3 28
N F
EM B
Ġar ise
ĠP uerto
ĠChampions hips
p es
Ġsecret ary
Ġ2 21
ĠB BC
ĠM onday
N or
Ġb ays
Ġy e
Ġcaus ing
ĠC ry
N B
ost ic
Ġmach ines
ĠR ED
4 40
Ġoccur rence
Ġbu ffer
ĠR ab
Ġexpl ore
ĠHead quarters
Ġc ub
f amily
Ġnear by
Ġassign ment
Ġg am
Ġser ver
Ġth r
D IST
att i
ĠBu ilt
ĠThe atre
37 9
E nd
ĠCh anges
ĠBapt ist
Ġw ages
ĠB ed
Ġvot ers
Ġdeterm in
Ġt exts
N OW
Ġre ly
60 9
ĠFl a
ed nes
ĠAl fred
Ġen abled
Ġdiss em
Ġinnov ative
ĠSing apore
ĠRog er
4 20
Cal if
He alth
Ġcolle agues
f ound
ĠHig her
ĠFour th
Ġsett ings
Acc ording
r ators
ĠH um
b ol
N one
ĠBer keley
Ġadminister ed
che stra
Ġdisp ute
ĠCr ime
ĠBroad cast
ĠMin or
ĠRequ irements
Ġd og
ĠW ash
Ġinvent ory
P OL
Ġmanif est
ĠB eck
Ġtop ic
o om
Ġdis orders
art z
ĠS ales
W here
ĠSt a
3 23
Ġinvestig ate
D ATE
H Y
ĠCh annel
Ġl ingu
Ġdef ence
Ġc ro
Ġret ired
Ġa os
Ġemploy ers
own ed
C ase
ie u
Ġmil k
PART Y
t ry
ĠForm ation
Ġex clusive
Ġto bacco
Ġtown ship
ĠV o
T r
END IX
Ġs ight
ĠCar ib
38 8
Ġexpl oration
ĠH B
ĠExper iment
Ġsc atter
Ġm useum
im i
Ġsust ained
N ING
Ġdet ected
t em
Ġem pir
Ġf ib
ert on
ĠFred erick
Ġcitiz en
ĠY ards
ĠAnd re
vi er
T urn
est ock
ĠShe l
ĠNor way
ĠR s
ĠF unction
un i
n ote
Ġfam ous
ĠG ender
r igation
Ġ2 33
ĠIn ternal
EM ALE
ET S
Ġ2 29
ĠI BM
ĠE ST
u cc
ĠB enn
E conom
ĠAT L
ĠRail road
ĠOr ange
ĠCra ig
ĠS HE
Ġcom fort
ĠGen eva
Ġ2 39
ac hers
ĠFin land
Ġ2 90
ĠT an
Ġinter ventions
Ġmechan ical
35 1
ĠN acional
Ġord in
Ġphilos ophy
Ġ2 18
m g
Ġaccept ance
Ge orge
Ġbr and
ĠSo ftware
Ġst abil
Ġob st
Ġdisc overy
19 56
ap se
ec ute
ĠSe lect
Ġinc urred
ID ENT
CON T
ĠS F
ĠRev olution
is in
Ġto m
QU E
os lav
w hen
] ;
Ġconflic ts
Ġb on
Ġex ch
Ġdisc ount
Ġcont est
est rian
Ġindic ation
Ġspl it
50 6
ĠH amp
ol ving
ĠColl ins
ECH N
49 5
Ġport folio
Ġclos er
3 26
Ġreform s
Ġex terior
t op
Ġviol ent
Ġmut ual
The y
At l
Ġactiv ely
3 24
ĠRepresent atives
Ġge ographic
un ct
Y EAR
Ġarrest ed
ett i
I mp
36 1
Ġrev ision
Ġdoct rine
ĠM OD
ĠA id
xx xx
Ġe j
G C
ok en
AT OR
Ġend ing
ĠGard en
IC T
Ġoccup ation
art icle
or ms
ĠPre p
D ou
c ue
37 7
Ġ Ñģ
Ġtrans fers
B ased
ĠV ersion
6 16
Ġt ut
ĠBut ler
Ġo c
Ġac ute
L ou
ĠH aven
ĠI EEE
RA PH
ĠF ried
4 15
c asts
Ġtw elve
ĠL I
Ġint ens
Ġp y
ĠProfess ional
Ġhe ter
ĠSc ore
ï Ĥ
edd ed
Ġec ological
P a
Ġ ),
ub b
ap ur
ĠRed u
st all
36 2
v or
ang ered
Ġlog ic
G overnment
Ġdeterm ines
M ad
ĠW W
Ġd imin
end ant
Ġrec ru
h alf
V L
ĠPer centage
Ġrank ed
Ġ2 34
I r
ER IC
Ø §
Ġto d
be it
ĠG az
st al
ert ed
Ġinj uries
ĠN D
ĠO UT
ĠNever theless
ĠE ver
iction ary
ĠC ategory
S hip
ĠS yn
Ġhelp s
ĠST ATIONS
M U
Mich ael
Ġdoes n
r g
i ology
Ġ/ /
44 7
ro v
Ġclass ical
Ġa th
Ġrail way
ĠKore an
ĠF ather
Ġdynam ics
ab el
Ġex ports
af ayette
ĠB I
ud i
Ġm n
Ġn ur
Ġsitu ated
Ġillust rated
us c
Ġr anging
Ġread ily
ĠO m
Ġc f
) ).
et al
EST ED
g ence
Ġintrodu ce
3 27
c urrent
ĠO S
ĠF am
ĠF iscal
l ay
Ġpublic ly
ail le
Ġ4 50
ĠB orn
39 8
ĠW ol
ĠD ue
Ġannoun ce
Ġpro xim
arg es
Ġf ashion
Ġunus ual
Ġw ear
Ġb ird
str ong
ĠR ET
Ġ3 10
ĠH unt
39 7
Ġoutl ined
Ġ18 70
Ġ19 04
ST ER
ĠCl ay
Ġsur faces
ĠO d
V OT
K L
Ġinc ons
Ġexplo itation
W OOD
Ġsub mission
Ġsp oke
Z Z
if s
k r
Ġcross ing
ĠF older
lic t
Ġsc ales
Ġ .............
Ġrec overed
urs day
Ġc in
ĠGl en
Ġliber al
the ir
ac o
ĠAR T
E ff
F ield
ĠF estival
Ġpre st
Ġreceip t
Ġterm in
in to
Ġ2 49
Ġscen arios
Res ults
ob b
Ġto urn
AL TH
M or
Ġatt orney
f ile
bur se
Ġch urches
38 7
ECT OR
Se ason
Ġcon stru
3 21
ĠB ible
Ġmod ification
H on
h s
Ġs ul
m ade
ĠRE V
Ġdrain age
EP T
re ach
000 4
ĠC u
5 10
Ġh ol
ĠInvest ig
ĠClin ical
M ont
Ġ................ ............
n is
ĠN OR
ĠGr iff
Ġs izes
Ġst em
ĠChar ter
R T
ION AL
athe red
ĠC FR
AR M
Ġw onder
n ecess
Ġair port
OT HER
ask etball
let ter
Ġtit les
ber ry
19 55
irm ingham
ĠOr iginal
ĠSp irit
as g
ĠC ash
m atic
Ġlog ical
R uss
38 1
Ġbo at
gom ery
ĠP or
Ġrem ed
Ġfight ing
ĠZ o
W il
Ġtra cks
ate ur
3 99
aren cy
******** ********
row ing
yn n
Ġv it
Ġsole ly
Ġprov incial
Ġsp atial
Ġref used
ĠCl inton
Ġad ap
Ġpr s
ĠD IR
i w
ro se
ĠCont act
od ed
iscell aneous
Ġt ight
Ġc um
ĠPrint ing
37 3
R ad
Ġ3 30
D ES
Ġinterpre ted
ic io
Ġcl uster
as y
Ġro se
Ġin quiry
Ġfav our
Ġg ent
Th omas
Ġcap ita
Ġl ar
ĠContin uation
Ġ3 60
RO AD
t w
Ġspec ification
L ast
Ġmit igation
Ġsur g
Ġstrugg le
F RA
ĠIns pect
ĠR ut
M ALE
e le
Ġsurve illance
58 1
Ġ2 46
Ġstopp ed
Ġ3 20
38 3
Ġqu ot
ĠId aho
Ġpup ils
Ġcon clude
Ġbre eding
Ġpres erve
Ġcon vention
ĠMe asure
ens en
ĠWith out
ĠE vent
Ġint r
ĠAT T
% ).
ĠM B
37 2
Ġclub s
ĠF RA
ĠN ord
Ġcor ruption
- )
Ġhor se
39 4
ĠPartn ership
in formation
Ġk a
Ġson o
ĠCop yright
Ġ2 48
ES CO
rep resent
Ġdisc ont
Ġfeel ing
ĠM IT
e i
ĠC ass
Ġ................................ ...
ĠFac ility
Ġcons ecutive
ĠT B
Ġin herent
ok es
Ġ ...........
qu est
Ġ................................ .
Ġhe d
ĠT ib
ĠPur due
19 52
ĠM ills
Ġt ur
od ium
ĠEngine er
D en
Ġrel ate
Ġin ternet
Ġpar as
ĠBelg ium
Ġconj unction
io x
Ġst ret
IVERS ITY
h our
IT LE
Ġd ra
P AGE
ĠX XX
st own
Ġweap on
N ow
ĠN ag
L ocation
Ġtra il
M ary
Ġrad ical
ĠHe art
IV ISION
Ġ................................ ..
it ar
ro oms
Ġsc oring
ĠMed ic
H F
ak t
4 75
ĠM d
Ġfoss il
IL ITY
Ġatt itudes
it us
ĠJ UN
ĠSO UTH
000 3
ĠSpec ies
ĠGo als
Ġsil ver
s ix
Ġed s
con duct
4 70
S am
Ġarr anged
C ANDID
ĠS audi
ĠL ot
c rit
L os
or um
ĠP rim
Ġcal endar
de velopment
Ġarg ue
B ack
pro cess
Ġdiscip line
J I
Ġbeg un
ĠS elf
Ġvic inity
Ġwitness es
na ire
ĠR io
ĠMet ropolitan
Ġpriv acy
Ġ................ ..............
tic les
Ġear liest
Ġsufficient ly
ĠP ut
ĠW is
Ġcorrel ation
arch y
ĠB eng
Count ry
est abl
T im
Ġdem ocratic
Ġdem ocracy
UR CH
Ġ2 32
ĠH A
s ay
Ġpl aint
th ree
r c
Ġper t
Ġaccount ed
Ġdef ensive
e ch
Ġp ays
ĠD M
ĠB ER
ID A
D F
il o
with standing
36 3
Ġ2 28
apt ers
ĠSus an
Č ĠĊ
ĠPre vention
Ġpsych ological
Ġd an
d oc
thlet es
Ġch rom
ien st
h ill
Ġterror ist
Ġprov en
ĠWILL IAM
K O
Ġattribut ed
ĠL arge
Ġf alls
ĠJ E
ĠCor respond
Ġsoci eties
k ov
St and
Ġhe m
f u
ĠH ydro
Ġins u
Ġg n
Ġm ir
Ġdirect ions
Or gan
yl ogen
ĠA uburn
p ool
ĠBuff alo
i ac
Ġcalc ulation
Ġpen et
Ġnegoti ations
le ted
37 1
6 20
ob a
ĠPhill ips
Ge org
ll a
Ġrenew able
ĠG ross
ĠM ack
Ġj ump
ĠB EL
ay an
p in
is ely
Ì Ħ
Ġmod es
4 25
Ġc ual
NOT E
Ġvel ocity
Ġm yself
38 2
ock ey
an ium
ell s
Ġexplicit ly
un ar
Ġtrans mitted
ĠJ R
Ġmay or
Ġn ob
ĠK arl
Ġreserv oir
Ġdro pped
Ġ19 03
ĠS I
ow ing
Ġbe at
v ari
op al
ĠCON TR
ven ile
ĠTR ANS
ĠW olf
ĠV erm
ĠAltern ative
DU CTION
ov ing
oen ix
r er
Ġse ats
Ġopin ions
39 6
ĠUN ITED
w orld
Ġrough ly
Ġe iner
Ġbeaut iful
le in
Ġlo op
Ġeas ier
Ġ. ,
Ġread er
Ġgovernment al
ĠUk raine
I tal
ist ant
ĠRec on
19 00
ĠK ath
ĠÐ ¿
Ġsal ary
ST AR
Ġ2 31
ĠFram ework
50 8
IP AL
Ġd ens
ĠC emetery
45 8
st ation
Ġweek ly
Ġattribut es
Ġf ract
Ġbi om
F B
Ġautom atic
ĠFil m
Ġsh op
b ian
Ġre ductions
Ġsc iences
Ġoff ensive
Ï Ģ
Ġshe ets
ĠRead ing
3 22
b ach
ĠD ATES
B ro
OV ER
mon th
~~~~ ~~~~
ĠGro ve
Ġpred icted
ĠLe v
Ġgu ilty
Ġdet ention
Ġd ual
ĠI X
ix on
Ġcl ust
ord net
ĠG ram
ov es
Ġsym met
C ost
Ġo k
Ġl ots
ĠC Y
ĠJ ess
Ġsk ill
____ __
ĠR C
ĠMatthe w
50 4
ĠC RO
Ġm ant
q q
ĠMic hel
ĠK on
ĠGree ce
ie v
ordin ary
ĠA wards
ĠB rief
c at
m ax
ĠTur ner
ĠOcc up
ĠTai wan
re b
ib us
Ġprot est
5 20
Ġ ig
Ġw ird
F ort
Ġman ip
Ġsl ope
ew ater
ĠR ac
ĠSal v
Ġr ivers
G ET
ues day
lar ation
ut er
J A
ad er
Ġsp r
anc ouver
50 9
Ġequ ations
Ġsatisf y
Ġm ont
ĠChe ck
Cap tain
Ġaccommod ate
Ġra ising
IN O
44 8
Ġalter ed
J r
R ET
4 60
OR LD
ĠRegister ed
Ġp ale
enc er
ĠMay or
Ġinput s
Ġ19 02
let ion
Ġanaly zed
ĠTreat ment
ĠOak land
" ),
Ġb ud
ĠR S
Ġhead s
ĠHisp anic
ac io
olog ically
Ġquant ities
id ity
4 30
Î Ķ
ĠBang ladesh
ro of
Ġfil ms
z n
ĠL it
U rban
Ġb le
ĠP osition
Ġb inding
L ow
E nt
3 29
Ġ................ ...
Ġs ick
ĠE ug
Ġw ars
ĠMethod s
oc ations
V R
pro duct
j en
5 01
OS E
Ġpreval ence
ĠCit iz
Ġdiffer ential
li ers
Ġmit ig
ĠProject s
ĠComm ander
yl er
Ġcons ensus
relim inary
Ġmag azine
UM AR
Ġengine er
und o
y les
ĠPOST AL
ĠA A
ĠK o
) ]
ĠK ir
st ead
Ġsupp osed
an im
4 12
hatt an
ĠMalays ia
ĠSt yle
M rs
UR S
u ct
od d
ĠAR M
19 54
4 11
opter a
ĠBen jamin
AM S
Ġimpair ment
Ġp el
Ġoper ates
Ġexc av
new s
0 30
Ġd ar
ĠCANDID ATES
ĠL IM
ednes day
Ġexp ensive
Ġlik elihood
Ġcalc ulations
um mer
ĠTrib unal
ĠH ILL
ĠProduct s
x ico
ĠReg iment
Ġacqu ire
Ġby tes
45 4
Ġc argo
ĠJon athan
un es
Ġhundred s
ĠK R
Ġmass ive
ĠL SU
Ġem pt
ĠR ico
J ust
CO UN
r il
Ġthe sis
An y
od ia
45 7
ĠB omb
Ġde ployment
rane an
ri or
Ġo verseas
Ġex haust
Ġp ending
ĠGe ological
Ġs elling
M a
Ġind igenous
Ġer osion
Ġsim ulation
ould er
Ġpun ishment
Ġflex ibility
j n
ĠM ig
Ġfac ade
ĠN ear
Ġelig ibility
ĠMos c
Ġl ui
ST ON
Ġproc urement
Ġprepar ing
A quatic
F lor
Ġc rowd
re ation
Ġt amb
Ch ina
ĠL iving
Ġless ons
Ġox ygen
ĠIsrael i
Ġequ ipped
Ġaut hent
Ġvol tage
ĠInd ic
it ely
ĠW atch
: -
Ġcho ices
CANDID ATE
Ġremain der
ĠN ATIONAL
inn ers
ffic ial
ĠWes ley
Ġcontract or
A ng
39 2
46 6
Ġ2 38
ynam ic
t l
ĠD eg
it ol
Ġ2 36
ĠTra vel
Pro vision
Ġdeclar ation
ĠMot or
ĠKen ya
ĠL ate
Ġbi as
ĠW aters
W eb
ĠC her
Ġsens itivity
ĠK il
IS A
ĠA mer
60 3
45 9
J ul
60 8
ĠIniti ative
ia e
m ount
Î º
Ġport ions
he ld
k ar
Ġdr ivers
Ġbul k
ĠM obile
Ġ18 98
ĠSupp ly
T erm
ul ui
Ġra pport
Ġobtain ing
@@@@@@@@@@@@@@@@ @@@@@@@@@@@@@@@@
ĠĠĠĠĠĠĠĠĠĠĠĠĠĠĠĠĠĠĠĠĠĠĠĠĠĠĠĠĠĠĠĠ ĠĠĠĠĠĠĠĠĠĠĠĠĠĠĠĠĠĠĠĠĠĠĠĠĠĠĠĠĠĠĠĠ
Ġpres erved
O hio
Ġact ors
lic he
Ġ2 37
ĠAdminist rator
Ġ18 99
Ġreal ized
80 3
ri el
ap ing
ĠM anchester
ĠDEP ARTMENT
W P
ib l
Ġconsider ably
ĠCarl os
leg iate
Ġre actions
ĠH in
Ġcol onial
Ġhy brid
Ġconf ront
at iva
G M
K Y
OW ER
Ġwait ing
O l
em ales
ĠMar ie
c ost
Ġg al
ĠM AC
ĠAr med
auk ee
ĠK it
Eng lish
i ors
ĠIN TRSECTN
Ġlic ence
Ġf ur
Ġf ue
ag le
Ġinters ection
V P
ĠAb b
45 2
ĠInf antry
Ġinh abit
P opulation
ĠCorpor ate
s chool
ĠL ink
ĠBar ry
W inner
ra mento
ĠMove ment
ĠC ow
19 53
Ġtim ely
Ġanc est
Ġrece iver
ip h
roduct ive
con f
^ ^
Ġspecific ations
Ġ24 1
ĠCour se
70 3
ĠOffic ers
ĠG ran
ĠPl ans
qu in
OR DS
Ġdef ines
iffer ent
ig in
ri que
Ġr u
ĠTre nd
0 25
Ġn ineteenth
19 40
Ġd ict
Ġcomp ounds
Ġdis advant
Ġa ug
et own
Ġpen alties
EL ECTORS
p ers
Ġsymb ols
Ġver b
W estern
Ġdistingu ish
b oth
Ġsh if
ĠJ a
___| ___|
n u
44 9
m un
ent on
ang ible
Ġmiss ile
O UT
et ric
Ġ -----
Ġpol ar
5 30
Ġexceed ing
Ġf ait
Ġp ounds
Ġf ond
ĠH udson
Ġover view
ĠU nt
Ġfail s
su pport
an ie
ache lor
Ġg irl
ab ol
am iento
D ER
Ġcoordin ate
ĠHung ary
av ier
Ġr it
G I
50 2
n om
u en
ĠIs a
Ġincid ence
ĠL ar
all ing
ĠCompet ition
ogen ic
ĠI MP
Ġ ...............
ir ts
pl ane
Ġcent uries
Ġca ught
ĠDen mark
su ccess
Ġcont rad
Ġra w
ac le
Ġmin ist
es a
ĠP CT
ĠState ments
ol ine
ĠV ic
og o
ip linary
id den
Ġatt ain
Ġli able
Ġ................ .............
Ġ................................ ....
ĠD ATE
ĠComp lex
ĠPark er
¿ ½
th od
er ic
Ġha ir
48 5
p ress
Ġp ub
Ġmob il
Ġto wer
Ġw arn
Ġs iding
Ġcomp ens
ĠNor man
d ate
ĠO THER
ell or
OV A
ĠL akes
ĠLeb anon
ĠJ erry
Ġ................ .....
ĠC hemistry
we ek
46 8
ĠCost a
ĠD AV
Ġthan ks
ĠO VER
ï ¿½
M any
ĠClass ic
c ond
un it
Ġdisc over
Ġab stract
ĠClass ification
Ġelimin ate
Ġ30 5
4 29
Ġac re
ĠD ennis
Ġfeed ing
ĠH ind
ĠSecond ary
and y
Ġz uge
Ġcomm ands
t or
port ion
ĠHun ter
Ġh an
ĠB ab
Ġ ).
ĠTh or
ĠUn its
L T
Ġste ep
Ġun employment
Ġad mission
ĠM IC
Ġcl im
ĠD as
39 1
ĠPerson nel
om al
Ġp aint
Ġcirc le
Ġf old
ĠPar am
39 3
ur us
tern oon
Ġval ley
Ġ................ ...............
Ġsequ ences
ĠIn stitution
Ġthe me
Ġdis aster
AY S
ĠCharl otte
ĠArt illery
Ġmed i
aus es
Ġmed ic
um ps
UR T
Ġ................ .........
Ġprem ises
w he
ro us
Ġfil ing
Ġ................ ...........
ĠĠĠĠĠĠĠĠĠĠĠĠ ĠĊ
ARD S
C U
" :
Ġs ash
Ġinsert ing
ĠP y
Ġ201 8
F rance
ĠJ e
sh ops
Ġpartic les
Ġpost ed
ÑĢ Ð°
ĠIn tern
ĠP i
pro t
F ree
ĠReport ing
Ġpregn ancy
c hers
ĠK az
enc ias
Ġenter prises
J D
ĠL oss
c ourse
um ar
ĠSP EC
ĠO NE
hib ition
44 6
Ġprodu cers
ĠRail way
45 1
ĠL P
Ä ±
ĠB ud
ĠEm b
AN Y
Ġst ood
ak o
roll er
g ie
ĠLaw s
Ġneigh bour
Ġexcept ions
ad t
Ġground water
Ġd ance
ĠS z
ĠMem phis
Ġvary ing
oid s
4 17
at u
Ġcirc ulation
Ġdom inated
W ood
ĠCh art
na issance
Ġsustain ability
Ġsurpr ising
ĠCol onel
70 8
B T
ĠColomb ia
ĠE sc
ĠLouis ville
Rec ord
Ġb acter
Ġf aster
ĠEv olution
Ġconv iction
ĠE hren
er ce
abit at
blic a
Ġpros ecution
ĠC urt
c os
Ġexclus ively
Ġsaf egu
d irect
ĠB og
Ġcre ates
ĠStan ley
ĠD ra
Ġin fer
ĠSt ruct
Ġpan els
ĠTw p
ĠApp lied
ĠP V
ĠInf rastructure
d ig
Ġrecre ational
Ġn odes
- /
Ġtim ber
K R
it ate
Ġper ception
Ġc ir
d t
Ġexist ed
ĠRes olution
ĠHar rison
Ġacc eler
Ġret urning
ĠE arl
Ġcam era
J im
ed ar
ĠRES ULTS
Ġpract ition
Ġsimult aneously
Ġ" [
Ġmon etary
Ġvirt ually
ĠAc qu
h im
Ġjour ney
Ã ¸
ĠTer ry
Ġobs erve
n ormal
Ġconf idential
6 19
LAR ATION
99 0
olit ical
4 90
Ġbre ast
B ur
Ġdial ogue
en ess
Ġphot o
Ġm apping
m ain
ĠMon th
eg en
Ġs ist
19 51
Ġaccompl ished
iv os
Ġsign ature
| |
Ġp ull
Ġum a
ĠN I
Off ice
Ġorganiz ational
Ġrare ly
ob il
Ġterrit orial
Ġopt imal
UN IC
arm ace
Ġd s
ment al
Ġlook s
ent a
M em
Ġ2 68
Ġy a
Ġvers ions
ĠAff ili
Ġun p
VEL OP
Ġf ellow
Ġ2 76
S y
Ġ................ .......
cul o
Ġan ch
ĠG onz
ĠG es
Ġcompris ed
Ġcl oud
oc o
Ġtra ce
NE Y
Ġre verse
ĠFell ows
Ġgradu ally
~ .
Ġsub stances
ĠR y
Ġhead ing
46 7
ado res
ĠGu inea
Ġdev oted
ĠS ig
Europe an
Ġnom inal
ĠT ow
ĠAn na
oun ced
P erson
69 7
M ur
urric ane
Ġcol leges
Ġd ich
av i
Ġ ___
in ite
Ġtru ly
Ġs z
S ystem
b ul
Ġs overe
epend ence
Calif ornia
mer cial
Con struction
w ould
Ġmov es
Ġdiv isions
S ECTION
ins ula
Ġrad ar
Ġn ombre
---------------- --------
Ġterm ination
p ed
ĠB es
Ġcommit ments
000 6
44 3
ĠCon duct
Ġcycl es
ĠB ound
Ġj ury
ric es
Le vel
Ġcl ay
Ġde pr
T op
Ð¾Ð ²
ĠUE FA
up t
ĠW AL
ĠSch olars
ĠT rial
ille t
CRIP TION
DRA WN
k al
Ġm ature
Ġadvant ages
Ġmeas uring
Ġesc ape
Ġ24 7
Ġprodu ces
ati os
ĠS outheast
Ġe mer
z es
ĠCl erk
ĠR AD
et ics
ĠSERV ICES
Ġalgorith ms
Ġsud den
ĠDEP OSIT
Ġ2 77
Ġinvestig ated
4 14
Ġconsist ently
ĠRog ers
T ur
Ġmagn etic
av ed
N AL
Ġv oor
ĠL uther
S outhern
Ġprec ise
ĠK ings
ĠCho ice
Ġir re
Ġh ors
Ġinsu fficient
Ġdoll ar
Ġsusp ended
w aukee
tain ing
VOT ERS
im ated
G RO
ĠE P
Ġs id
90 8
pl ant
Ġmand atory
ĠR ud
ĠImp lementation
ĠUn known
ĠTrans fer
Ġadjust ments
og raf
ĠIn stru
70 5
Ġsubsc ri
op ing
M ac
ĠB H
Ġax is
CO UNTING
Ġliter acy
Ġ18 95
Ġsh ut
ĠC F
ĠR ot
per ature
off s
st at
Ġcomput ers
Ġ18 50
Ġwrit er
Ġour s
ĠS ie
Ġtrans mit
ĠÐ ¸
Ġpre ference
Ġh am
46 9
Ġelect oral
em n
it ic
50 7
alt a
ĠB at
Ġm u
umin um
ij i
Ġconsist ed
Ġcomp lement
ĠHand book
ĠSU PP
48 8
Ġzuge ordnet
Ġ18 97
Ġdis order
ed ed
ren a
ĠAppro val
Ġcount s
E ach
ĠUn named
ET Y
ĠFac ilities
Ġsh arp
ĠA Z
ĠPer ry
48 6
ĠMont ana
form ing
46 2
45 3
Ġsc ript
m aster
4 16
Ġfor g
Ġn ou
J apan
Ġimm igration
c ode
G erm
ĠC i
Ġreal iz
arm a
ĠL en
ess a
ĠBR IDGE
s ome
R US
ilib rium
Ġform a
ĠR alph
ĠRet urn
Ġhapp y
ra is
Ġrecre ation
ĠDec ision
LE GE
ĠB ody
ĠC ou
Su pp
Ġph ases
M ED
Ġ18 60
V irginia
Ġrep rodu
Ġ18 96
ĠEst ate
Ġ2 78
E U
Ġundert ake
u is
Ġnort heast
cent ral
Ġor n
ĠHar old
19 48
ĠB eth
ĠM Y
FE ITED
Ġtalk ing
M ike
Ġtri ps
w all
Ġiss u
Ġcounter part
ĠPro b
Ġgen e
U LE
ĠY e
Ġin m
EN A
h aus
Ġserious ly
Ġmet res
Ġun t
ĠC art
Ġinter vals
ĠF IL
ĠAll iance
ĠCle mson
Î »
ĠV ern
Ġcare ful
čĠĠ Ġ
AR C
âĢ ĺ
com b
ĠL anc
ĠI CT
th ird
ibli ography
ĠN FL
ĠNot ice
Ġhydro gen
L P
44 1
Ġcert ified
at ar
Ġtransl ated
ĠV III
19 49
ĠDet erm
ĠUS D
55 6
Ġen rolled
Ġst ack
ĠDE VELOP
Ġspecial ized
Res earch
am ation
Ġse al
ec a
T IME
ect ing
5 25
utt le
. âĢĿ
Ġd ont
Ġplace ment
Direct or
duc er
46 4
Ġsy nd
Ġsatisf action
Ġmod er
ĠHouse hold
EP A
Ġad m
____ ___
ĠHe b
on ed
ull ivan
ĠIn vent
M ajor
ĠV essel
DEC LARATION
ĠSy racuse
Ġro ots
6 13
Ġsec ured
ivers ary
ĠDep art
c ient
Ġtw entieth
Ġ2 69
Ġcamp s
h in
pos al
Ġult imate
ĠFisher ies
ĠA y
tra ck
Ġ25 1
ĠSuperv is
FER ENCE
G ood
Ġdescri ptions
Ġpark s
Ġ24 3
Ġpe ut
ĠA viation
Ġv om
Ġnewsp apers
ĠG S
Ġb ands
4 35
ĠLie utenant
ĠEn s
ĠMain e
ĠPr iv
ad en
ĠRE VIEW
ĠLem ma
ĠP K
ĠSch w
ĠH em
Ġpurs ue
Ġindepend ently
ĠProv incial
ĠGu y
oy al
ĠS G
res no
fol k
u o
ĠDe b
Ġfre ight
Ġvis iting
Ġle ague
ĠCon vers
Ġp itch
In formation
Ġre habilitation
ĠN ik
b ia
P ark
ĠBor ough
Ġgener ations
Ġir regular
S er
l at
Ġmod ifications
AT URE
ĠHoll and
Ġre cept
M N
ĠC IA
Ġsh ock
Ġmanufact urers
ĠX V
Ġsuff ering
Ġb at
Ġthen ce
Ġen force
n ie
ew ise
Ġfif ty
n c
Ġabund ance
r v
55 5
ĠAn al
Ġengine ers
ĠQueens land
POLL ING
Ġread ers
ĠCom ment
4 23
IF A
Ġal gebra
af e
G G
f eld
Ġask ing
ĠSu ite
Ġrespond ed
end ants
Ġexhib it
Ġshare holders
asc ular
m us
ab ul
comp ass
Ġem otional
Ġ................................ .......
Ġto ut
ic her
Ġst ip
Ġnorth west
en es
Ġcar rier
it ory
Ġcust ody
ĠPortug al
5 80
Ġlim itation
Ġshall ow
/ (
EMENT S
Ġstr at
Ġterror ism
Ġor bit
B rown
Ġgradu ated
Ġcogn itive
ĠCarib bean
load ed
T em
l is
ed uc
ĠApplic ations
Ñģ ÑĤ
Ġpubl ish
ĠS ky
ĠV OL
Ġfocus es
S ac
armace utical
ĠF resh
19 47
N ET
ĠSte ven
ĠH alf
ĠSt ill
Ġ3 40
Ġemerg ed
ĠI ron
ĠOper a
44 2
5 60
EC K
l ink
ĠMar sh
Z A
Ġprob able
u art
Ġalb um
S ep
ĠA ld
s y
pr im
5 40
Ġpos it
ĠM atch
Ġres olved
f ire
Ġcompet ent
Ġproceed ing
att a
ĠB io
48 7
Ġhe ro
49 6
ĠOtt awa
anc a
4 99
Ġm ai
Ġ2 79
ĠMin ist
asg ow
Ġph osph
Ġphenomen on
Ġin adequate
ENC ES
Ġspec imen
Gr and
Ġdors al
OM EN
Ġconcent rated
M il
il ateral
ce pts
Ġen rollment
ĠB und
ĠBr as
um ption
Ġep is
V IS
x imate
ĠEngine ers
Ġad oles
iv als
Ġhistor ies
ĠCoordin ator
ĠK ap
Ġ5 12
St ep
Ñ ĭ
pl ate
j ar
ph al
Ġe pid
on ies
Ġovers ight
ild er
ĠU nd
ĠArab ia
ĠW ake
Ġproceed s
U F
Ġ30 3
ĠB RA
ĠM ol
Ġsh orter
onym ous
ĠM Hz
Ġbelief s
ces ter
Ġcomm ence
Ġdam ages
Ġt ube
ul g
ĠA J
P al
ĠG ate
ĠPri ze
Ġ................................ .....
ĠWork shop
Ġadapt ation
Ġrefuge es
Ġem power
Ġv aries
ISS ION
c ence
el i
er es
Ġaud io
AG LE
70 4
in en
ĠF S
Ġclass room
up s
Q J
W B
Ġbelong ing
ĠD h
ĠMosc ow
ĠO pport
ov an
ĠC ancer
bro ok
Ġ................................ ......
ch arge
Ġclos ing
Ġhelp ful
s ville
ĠLu is
ĠV enez
Ġ................................ .........
ĠT S
Ġcateg or
Ġearth qu
Ġe lder
Ġs ulf
ĠEx cept
C IL
Ġassist ed
Ġamong st
rad a
OM M
Ġm t
Ġinter ference
AV ERAGE
ĠC uba
ĠPolit ics
D EN
ins i
ĠAr men
Ġform ing
ut ely
4 38
ĠKenn eth
ĠPRO C
g on
ar roll
ĠW ing
70 6
Ġanal og
H ome
an ol
Ġappro xim
iter ranean
ce ae
Ġfin ish
Ġcult ures
ĠAR IA
en ne
Ġp ow
er ts
APP ENDIX
ĠM ull
, -
Ġbr ight
Ġoper and
49 8
ĠPers ons
Ġacknow ledge
Ġvolunte ers
ĠBi ological
Over all
EP H
46 3
ip er
Ġexpl os
P ers
Ġstrong er
OT H
Ġ28 7
Ġ................................ ...........
Ġbe am
Ġhot el
Ġnot ification
ge on
4 13
Ġf on
Ġabandon ed
ĠO PER
Ġresol ve
ĠO B
Ġ................................ ........
aw s
ĠL ex
ĠD welling
ĠM other
Ġmanufact urer
Ġsub stitute
ĠHop kins
ĠM ade
Ġdes irable
Ġwork force
ĠExp endit
Ġle v
D Y
he nd
Can ada
un ning
Ġoccas ions
65 2
t able
In s
st ell
Ġphys ician
Ġl ose
Ġturn s
Ġphys ics
AD O
Ġch ose
Ġen ables
ab s
uls a
reci ation
Ġvir us
Ġn j
Ġrel ates
Ġgener ic
Rich ard
Ġex it
Ġ18 93
* ,
Ġre actor
ĠApp oint
Ġc attle
Ġminim ize
Ġfac es
Ġ2 66
ĠL ater
48 9
Ġfem mes
Ġcon vert
E s
ĠVehic le
Ġb one
ĠM ut
Ġfall ing
AL A
ĠB asketball
Comm ission
ak ed
ĠLiber ty
Ġreg ulated
Ġd iver
ib ration
L ist
Ġalt itude
Ġd re
Educ ation
Ġaccompany ing
Ġsusp ension
Ġcontroll ing
Ġ24 2
Ġflex ible
78 9
ĠAct ive
ĠJ en
ĠPalest inian
ĠN S
Ġpe oples
Ġg ay
% %
Ġdam aged
6 18
b an
usal em
L INE
Ġsee ks
ĠU r
Ġb ath
Ġd ust
rie ved
ĠR osen
Ġformer ly
Ġch ap
ĠP ine
am os
47 1
Ġcor ridor
Ġparagraph s
Ġmat hematical
er d
47 4
bet ween
ĠApp eals
ĠB MI
Ġwel come
Â ·
id ney
Ġimp ose
ard i
ent ry
ĠGo al
ĠMAN AG
ĠC AS
ĠApp ropri
Ġrest aur
ĠMur phy
Ġt ub
Ġl t
ĠH EL
70 2
ĠOn line
Per centage
ĠDom estic
i q
Ġgener ating
Ġs ons
C ES
port ant
g io
Ġc el
ĠHO USE
Ġ2 99
Cont ributing
ber ger
Ġdet erior
Ġadv ances
ĠN P
ĠS AR
Ġprotect ing
ĠAb original
Ġe ase
EN SE
ul pt
Ġ25 7
rest rial
ĠAlex and
Ġempir ical
st yle
ĠElect ors
Ġhe ating
l io
GEN ERAL
4 33
Ġcert ific
Ġpre jud
F urther
ASH INGTON
ou te
Ġenact ed
Ġann ex
Ac adem
Ġme at
ĠRe ferences
70 7
keep er
ĠTh ough
Ġbask etball
Ġassoci ate
ĠL N
46 1
ft en
AT ING
Ġr uling
Ġaccount ability
eff ective
IFIC ATION
ĠP TS
in te
Ġ3 33
Ġaccommod ation
Ġtreat y
Ġen abling
47 2
ĠI TA
op ted
ĠR ain
h istory
ĠW I
Ġch amber
St r
ĠDE F
B oth
Ġl ights
ĠCH R
ĠC ell
ĠNorth west
ĠK rist
ib les
Ġsoph istic
Ġprof its
V S
Ġ25 3
ĠBehav ior
ĠAssoci ates
ĠAb u
ĠF ind
Ġn um
Ġansw ers
le br
ug oslav
Ġinteg er
Ġs ous
av an
D ie
Ch icago
Ġ................................ ............
Ġchalleng ing
OP E
ĠTr inity
Ġ4 01
ĠR UN
Ġpro pose
Ġm olecular
Ġpartnership s
St at
Ġmodel ing
Ġcas o
ĠI AS
est yle
Ġeng ines
ĠWITH DRAWN
65 5
ĠD ON
ĠC OLL
as ma
ĠSec urities
ror ism
ĠR oma
S pring
Ġscreen ing
Ġsouth west
ST AT
) ...
ĠMin eral
as m
Ġm arch
Ġacknowled ged
] :
ĠK irk
f ar
Ġ3 15
ĠP ad
Ġde ployed
IST R
Ġdep ression
Ex t
am o
S pe
49 7
ĠCan al
z one
ĠD ba
Ġf lying
Ġfar ms
U ES
ate m
ĠN urs
Ġattract ive
Ġcar ries
ro b
48 4
O s
H W
year s
Ġpe er
Ġatt ribute
p ath
IGH TS
OV ERN
ĠW ord
Ġaccompl ish
ĠC os
5 75
ĠN om
Ġs or
struct ions
Ġdemon stration
ĠNig eria
Ġt rim
ĠY ellow
Ġfle et
Ġ18 00
F und
ĠPro per
t ie
Ġproject ions
Ġsuper v
ĠF ra
Ġassess ing
Ġ25 2
49 1
ili ans
ĠHamp shire
Ġflu id
Ġcool ing
w idth
ass y
Ġ3 11
Ġqu oted
Ġdis abilities
g reen
ĠEconom y
Ġz um
ĠCon sequently
Ġgard en
Ġadv ised
z el
ĠM M
av ailable
Ġthere after
ĠP F
ĠL C
P oint
ic us
Ġen compass
Ġde alt
Ġin her
â Ī
ae ology
Ġsuff er
ĠGra duate
Ġent hus
p it
u its
ĠPL AN
Ġge ographical
ace ous
ĠF ork
ĠEstim ates
ĠMont gomery
Ġball ot
80 5
ann ah
Ġwork shop
Ġp ig
Ġimport s
ĠFOR FEITED
ac ular
TA IN
Ġra inf
ĠWat son
Ġg ets
Ġ25 9
is an
19 30
Ġeconom ics
Ġcomput ing
ĠEN G
Ġ18 94
amb ers
se a
Ġkn ows
U EL
19 46
SH IP
Ġw ants
m ans
ir ie
ĠCL ASS
UR AL
Ġsch olar
hol m
a ired
ĠCONT ESTED
ĠMc N
ĠR M
ge b
Ġmort gage
om ot
Ġ3 65
Provision al
Ġ3 12
OR GE
ĠSt orage
Ġre ef
ĠR R
ĠDec laration
Ġp ued
ann es
80 2
A ut
h on
................................ ..
Ġcap tain
w al
Ġc yl
f unction
de velop
Ġsub paragraph
ight on
ur ring
St ation
ĠG irls
Ġexpand ing
Ġche cks
Ġd well
Columb ia
ĠL ost
Ġ5 01
E qu
Ġpay ing
Ġthe ories
necess ary
ĠPol ic
Ġcut ting
if le
ĠAnt i
Ġwhen ever
ĠA IDS
w eg
* )
ĠEx cell
Ġfunction ing
ĠV ent
H am
70 9
ra pe
ĠVin cent
m el
Ġencounter ed
Ġ18 91
48 1
Ġs outheast
ĠI B
55 9
Ġ3 25
ĠCorn ell
Ġnatural ly
Ġsong s
ourn als
com mon
id ation
ĠCost s
Ġb ought
ĠUS E
Ġdis abled
Ġvalid ity
Ġparticip ant
Ch ild
Fin ancial
ĠN ap
Ġdisp ers
Ġfeas ible
Ġext ens
Ġwhe el
enn y
' :
A IDS
ĠN ight
f ri
ĠHe ights
ĠOther s
op ic
Ġexhib ition
19 20
urop a
Ġatt ending
Ġrec all
ra ham
ĠSh aw
oc ols
ĠA qu
ĠFor mer
ĠST UD
4 65
ĠProv ided
T er
ĠAccount ing
j ab
Ġy es
ĠQu ant
ie val
ĠJ O
I OR
ĠUN C
80 8
om ed
itud inal
Ġcommunic ate
Ġ30 2
It em
â Ķ
ĠSy ria
ĠP ub
ER O
ne apolis
Ġsm oke
Î¿ Ïħ
Ġ................................ ..........
Ġb a
Ġn ucle
Ġprec isely
U t
ĠN ob
a uthor
ĠC ort
Ġs ept
Ġfor ty
4 78
ĠS N
ĠB AL
ĠN SW
Ġrep utation
ver te
ĠRecommend ations
ĠK un
Ġdistribut ions
M embers
ĠPre c
Ġlegit imate
Ġbl ank
ĠN H
l if
Ġg athered
Ġra z
Ġr anks
Ġar c
ĠEn listed
ey ond
ĠB US
ĠSte el
Ġm d
Ġload ing
omm es
ĠL anka
Ġlicens ed
ĠW AY
B rit
ĠU g
Ġtrad itions
Ġrel atives
Ġg rades
ĠW rite
ĠF oster
ĠJ AN
ic os
ĠN ATO
ĠBuild ings
48 3
76 6
Ġinc om
ĠG ov
pos s
ĠDe bt
Ġgener a
ĠH us
ĠImprove ment
Ġsee ing
Ġm me
Ġsol ve
in os
H en
Ġcomput ed
Ġdescri pt
serv ice
ĠS ierra
J eff
S k
ĠS AM
land o
ĠBul g
HA EL
Ġyield s
ĠDo es
Ġ00 0000
Ġsuggest ing
ac re
Ġtax a
UR A
-_ -_
ĠNGO s
Ġexcess ive
Flor ida
ch ron
Ġspe akers
Ġredu ces
ĠS ide
ex pl
Ġexpl ains
e o
ĠSt age
od s
ĠR u
ĠK UMAR
80 9
Ġf an
ĠV ideo
Ġ28 5
l j
ĠWork ers
Ġb attery
Ġprocess ed
ĠBrad ley
Cont in
4 34
S ocial
f ix
EAR CH
ĠS ections
Ġcon gress
19 39
G RE
R ob
Ġcomp act
ar is
ens ed
Ġk an
ĠB irmingham
Ġchar ter
ar ity
Ġbenef icial
Ð ¿
Ġy ard
Ġ18 92
000 7
4 36
ĠRe lease
ĠN ext
M ER
um en
be en
ed ish
Ġaf ternoon
Ġnational ly
R ED
Ġ rib
um ed
Ġsix th
ik o
ĠGre ater
ĠPrincip les
ann o
ĠG et
ĠS OC
Ġr ice
ĠVer d
ĠCond itions
0 24
Ġo re
4 24
Ġpict ures
ol g
Ġcommission ed
ĠH orn
ĠV ancouver
ĠB ond
Ġdi et
65 9
Ġd ere
cl ose
R ural
rist ol
Ġinj ured
C r
Ġwrit es
Ġo mitted
Th ree
Ġ26 7
ce ased
P acific
Ġed ited
Ġregist ers
Ġcomp ound
4 18
ĠRun ner
J AN
ou b
ĠP ale
it ored
ĠN T
g ments
M us
eg o
ĠC EO
ĠE QU
Ass oci
aj e
er ated
ĠC amer
ĠH ave
ĠIn stitut
TR Y
Ġgl ac
ĠP red
Ġdef ining
ĠSym posium
8 75
' ;
4 26
Jack son
Z L
Ġb eds
ad h
IN U
Ġd he
19 42
Ġspecial ist
Ġmand ate
Ġvari ability
Ġt ies
du ce
ĠAud it
mark s
Ġen l
k j
47 3
Ġmix ture
Ġt anks
4 45
olid ay
or rect
ĠPro posed
ill es
ĠWe ather
Ġn ous
Ġwur de
K I
ĠCl aim
Ġdis par
65 6
ĠAr ticles
> >
ĠMex ican
ĠDet ails
Ġd ress
Ġkil omet
T om
Ġproduct ive
b ow
Ġf asc
UM B
H B
................................ .
Ġround ed
art en
Ġlist en
itro gen
Ġ25 8
Ġmod est
ĠLiter ature
ard ed
az e
ĠB B
ĠFre qu
âĢ Ĳ
ĠS ources
on ian
68 9
A ccess
Ġ18 88
v ote
ing e
66 6
75 7
Ġconvers ation
Ġincent ive
Ġg ift
8 56
Ġdistinct ive
6 30
ĠM all
19 36
ĠNew ton
ĠQu estion
ĠCh i
ĠLead er
form ed
ĠChrist ians
Ġimmig rants
ĠR out
ĠP urch
Ġco pper
B ecause
Ġdet ain
Ġex clusion
5 90
Ġdescrib ing
B al
ĠCoast al
Ġwor st
F EMALE
] )
Ġl ane
Ġnom ination
ANC IAL
Ġprov inces
D ON
Ġed ges
Ġliv estock
ĠTra il
4 79
Ġput ting
ĠMed ium
Ġc umulative
Ġfarm ing
Ġrep roduction
Ġal ien
ĠL Q
Ġ2 73
ĠSud an
rad o
iz acin
ot ted
Ġt issue
Ġpress ures
ĠT EX
68 8
vious ly
Ġplatform s
Ġ18 89
Ġcas ual
crib e
ĠKnow ledge
ĠB S
ĠIn novation
om eter
Ġident ifies
y g
in vest
Ġrainf all
C amp
Ġb att
ĠNep al
any on
Ġreve al
ĠW ang
Ġentre prene
ĠMan hattan
ĠF BI
ĠFr ances
80 6
Ġmo ist
ĠBo ys
pos ure
ah an
Ġinter act
Ġnecess ity
ĠN B
ĠPot ential
ĠCast le
ĠLiber al
j ek
Ġen orm
Ġse vent
ĠF ur
Ġt ant
Ġdispl ays
ir al
ĠF al
anc ies
Ġtra b
Ġremark able
F ull
Ġfrequ encies
Ġd ass
ul er
48 2
Ġ25 4
ro ve
Ġm ere
vi ations
Ġ26 3
J o
Ġ2 74
hes es
END ERED
uss i
E r
thod ox
6 40
Ġr ats
ĠLeon ard
T otals
ĠG BR
4 76
our g
'' ''
Y ES
ym met
55 8
W IN
Ġp ap
Ġaffect s
5 70
Ġg aps
Ġgovern or
ĠPer cent
4 27
49 2
ĠD ipl
Ġpath s
6 12
ut z
Ġterrit ories
S ite
Ġpros pective
V IR
ĠDou g
h or
Ġp ione
ĠM xico
ri j
ij k
19 44
ĠD EM
iz io
ĠT yp
Ġb read
ĠB attle
Ġp ose
Ġre aches
Ġben e
Ġflo ating
ĠG ay
Ġconserv ative
ĠR ic
Ġr atios
Char les
Turn out
ĠI an
AN O
ER Y
d n
ĠMo on
ind ust
Ġ18 85
Ġret ention
iv ia
ĠP UR
Ġb iodiversity
ĠSe lected
ull a
B ase
Ġnot able
ĠComm ittees
ĠRec ent
Ġenjoy ed
Ġrad ius
Care er
ĠEm pire
ĠColumb us
ris k
ĠA BC
i ert
Ġlight ing
i em
Ġend e
ĠP ent
Ġsm oking
Ġcontact s
19 41
us a
Ġfisher ies
Ġdeep ly
Ġur anium
g ame
Ġover come
ĠTY PE
ĠK ay
Ġdiagn osis
Ġs ect
fram e
ys ical
ĠApp eal
Ġ26 4
ĠÐ ²
Ġs we
ĠA ircraft
Ġmeaning ful
5 45
an za
Ġtrib al
Ġh unting
ĠD S
Ġcompet e
ĠP RE
4 32
at isf
Ġgra ve
5 11
Ġobvious ly
ient es
Ġcomm erce
ON T
ĠF itz
q a
Ġconv icted
Ġste am
ĠAgain st
G N
Ġempt y
Ġinf ring
ph alt
Ġfu els
Ġcount ed
Ġb ag
IC IAL
Ġadequ ately
Ġf el
Ġint ake
76 8
ĠA u
Ġhere in
ĠInteg rated
ari um
Ġpros per
ĠN os
ic ts
app ropriate
Ġd ign
aw i
ific ance
ĠAc ad
ĠWy oming
4 22
Final ly
Ġbr ings
Ġmob ility
Ġ15 00
n ih
Ġir rigation
77 7
M ale
Ġse gu
U A
ĠSt ore
ĠK ra
ĠTod d
_ .
Ġconcept ual
Ġrece iv
F emale
Ġre ception
Sc ore
ĠREC ORD
Ġbrother s
ici encies
ĠT her
ĠAss ets
Ġt ie
ĠOver view
ĠS ens
Ġpros pect
b ital
Ġchampions hip
Ġ29 5
ĠBay lor
out heastern
S em
4 28
Ġcomm enced
................................ ...
ĠRon ald
ĠL EG
k om
ĠJ UL
ost i
Ġ28 8
RO P
ĠProced ure
Ġ26 1
Ġt ribut
19 38
Ġweak ness
omet imes
Ġquant itative
Ġwood en
Ġs oul
Ġ2 71
ĠFif th
49 4
Ġw ie
ry s
ĠIn struction
0 23
ĠRe ed
po ints
Ġn m
7 20
ĠEth iop
ĠB anks
reat ment
ĠTe levision
ograph s
Un ivers
Ann ex
AC ES
58 5
ere quis
ĠP AL
ist ance
ĠMad rid
Ġt ent
EN UE
O wn
Ġwalk ing
Ġcoe fficient
78 8
ĠNOMIN ATED
Ġpres erv
Ġcan al
ĠHer bert
LE G
Ġc ui
4 37
ĠM ann
Ġdisc ipl
em ia
Ġinterview ed
ĠU m
ĠB ert
Ġcoordin ated
Ġ26 2
mark et
A lex
ke it
st ed
Ġreg ards
Ġm ol
ET E
6 80
Ġ................................ ..............
ON ES
ĠS AT
Germ any
Ġo w
v t
Ġm yst
ac ia
Ġ30 4
d imensional
Ġlay ers
ĠBenef its
at ics
Ġhon ors
Ġin duced
58 7
Ġchemical s
ĠC ov
Ġapplic ants
ĠT IM
ass ador
Ġs itting
Ġfl ank
i ens
ep s
ĠRec overy
cont rol
Ġp ine
ern ess
OM AS
Ġbox es
an as
ĠJ ama
ĠL ady
Ex ecutive
M AT
ĠT ab
Ġperson ality
ĠProv idence
Ġt ap
ĠR ather
ĠB ir
Ġapp ar
ĠLett ers
XX X
Ġaff irm
ro ducing
r m
ac les
J U
ĠUp on
ra de
Ġen f
5 71
Ġrank ing
ĠH it
ĠA US
r f
ĠLl oyd
ĠMon te
M EN
SP ORT
Ġdown stream
ĠB uch
Ġ30 7
ĠM n
igu ous
Ġun o
ux emb
ĠVOT ED
Ġt urning
Ġwell s
56 7
ĠM AD
ĠMel bourne
est o
Ġ28 9
ĠT ul
ĠM US
................................ ....
Ġp ush
ili ary
65 8
ĠK ur
ĠEx amples
ifi able
H istory
AG ES
J E
ĠPar ish
g ood
Ġlim estone
c ott
Ġhe lic
Ġ iv
Ġrec ycl
Ġstead y
Ġfood s
occ up
il is
th al
yn om
Ġf ed
lu ence
ĠTok yo
T W
Ġ3 35
Pl ayer
Ġc oc
Ġcompl icated
58 6
Ġass ists
comm ittee
49 3
ĠA ra
4 19
d ays
g el
ĠG B
Ġhold er
Ġcon greg
AG O
ĠSer ge
Ġcompar ative
Ġm old
Ġinter ven
4 39
Ġre act
Ġdram atic
ook s
Ġsimilar ly
Ġgra in
M ult
ham mad
Ġa viation
ĠLim it
OG RAPH
Ġelim inated
M ean
ĠC U
Ġcle ared
âĶ Ģ
ĠL eft
ER A
lev ard
Ġsl a
Ġunder ground
sh aped
ut ton
Sc ott
ĠB P
B et
ogn ition
opp ing
Ġ( #
E t
6 75
Ġslow ly
P ur
Ġn it
reg ation
ĠC old
ĠT IME
st ock
Lou is
Ġadvis ory
6 17
ĠSur face
ĠP P
ĠMin isters
Ġtru ck
Ro ad
ĠHISTOR IC
ĠD ates
Ġover w
H uman
ash i
Ġprecip itation
per t
ĠHol ly
und a
Ġresid ual
Ġphr ase
55 7
ial e
ĠMult iple
t est
Ġc ort
Ġcont r
Ġqu arters
Ġfact ory
ĠC over
ad u
form er
Ġde com
Ġmatch ing
Ġ3 13
ĠM ari
C ong
ĠWall ace
Ġenact ment
ĠInspect or
end um
Ġutil ized
ij n
ĠAth letic
Ġk om
Ġ30 9
bu ild
59 5
Ġcorn ice
Ġevalu ating
Ġsubd ivision
re v
F our
ĠCle an
ĠV ander
Ġcont re
Ġt l
Ġrecruit ment
ĠD OD
19 37
ĠT ables
Ġspons ored
Ġcl othing
c it
Ġincorpor ate
4 21
Ġf ru
ĠD atabase
Ġ3 27
ĠD ub
ĠF uel
ĠS IM
ĠPh oenix
ĠG am
Ġs ending
ag ne
58 3
ĠRe yn
c ill
65 7
p ot
qu ality
ĠMark eting
Add ress
inc re
ap or
Constituency Summary
rpt ConstituencySummary
ĠCont ents
90 5
Ġwithdraw al
ĠRE QU
P os
Ġh ip
ĠL AB
ĠSub s
ĠTurk ish
D own
Ġre lev
Ġen closed
56 3
6 60
u um
at ia
55 4
orient ed
S EN
Ġm os
Ġph on
Ġlim iting
ĠSl ov
ĠTe lephone
Ġ3 14
ĠT ex
Ġsurv ive
Ġrecip ient
app lication
Ġpar ish
D u
J os
ĠF B
ĠDEVELOP MENT
Ġval uation
Ġrestrict ion
" (
5 15
Ġbur ied
ĠC AM
h ot
in teg
in qu
I AS
ĠDe leg
4 31
gen eral
Ġinequ ality
IF IED
eg as
ĠBO ARD
ĠH ost
M ah
ĠV ote
5 16
em or
R ead
R ock
Ġpubl ishing
7 10
Americ a
ist as
ĠG raph
Ġk illing
ĠC ertain
Ġform ally
R ON
Ġadap ted
Ġcritic ism
Ġob sc
ĠRay mond
ĠGall ery
ĠD if
Ġt s
ribut ions
Ġstudy ing
count ry
Ð ·
Ġtransp arency
Ġpers u
f old
ĠKh an
ion ed
Ġre ward
15 00
AT I
L ER
M ass
uk a
Ġg ang
Ġpart ition
ex pected
ĠUnivers al
hold ing
0 60
ia ison
Ġconc urrent
ĠP el
F air
ig t
P s
Ġrepresent ations
ĠCert ificate
op en
Add itional
Ġ3 28
Ġ3 23
ĠPier re
Ġshel ter
Ġass urance
ĠMount ains
Ġver ify
Ġtre m
Ġwor se
Ġencourag ing
Ġcust oms
Ġleg ally
O p
ob i
Ġbar rier
ĠBal ance
ĠTerrit ory
Ġinter rupt
Ġ00 00
ĠW elfare
Ġ30 6
Ġtourn ament
vironment al
Ġ7 50
anc o
Ġrat ings
ĠCap acity
IV ES
ynam ics
R B
ĠM uch
Ġdos es
z h
ens chaft
so ft
0 80
at ivo
ĠCo x
ĠHE ALTH
Re ference
ĠCons umer
19 43
m u
ĠHend erson
ĠT it
ĠLegisl ature
ĠI de
Ġas ide
Ġcor rection
ĠEnter prise
ĠSh ri
Ġbl ind
ĠK Y
App ro
Ġcirc ular
ac ion
Ġsus cept
5 33
p an
Ġadd s
Ġp iano
Ġrecon struction
Ġwind s
requ ency
ĠPer u
90 9
te am
S un
t ar
Ġc hemistry
ĠASC AP
Ġc rown
ĠR IVER
Ġs oy
Q ue
Ġh ill
EM P
i ov
olog ia
Ġcorrect ly
76 7
Ġbas al
ĠE AGLE
Ġin ev
Ġopt ical
RO DUCTION
5 14
ĠP ul
ĠB illy
Ġcomp iled
Ġb ass
Ġ2 72
ĠJer usalem
ĠL afayette
ĠFund ing
book s
Ġte eth
ĠLead ership
Ġgradu ates
ĠJ ah
ĠEx hibit
ĠPh oto
ĠT ake
Ġp seud
Ġcollect ing
7 60
ĠHel en
Ġm ines
58 8
Ġant ib
K N
0 26
Profess or
S a
6 11
ĠO ber
ing en
ĠA aron
ĠEhren zeichen
ĠAg ent
C AL
88 8
Ġor g
j s
Ġappropri ated
os exual
ĠS ER
ut i
ĠSt ory
ur rence
per ial
ĠP ict
m und
Ġ3 17
m ap
ĠBr and
ov al
B ob
Ġgl ob
Ġvol at
Ġp es
ĠSh ah
Ġsu a
Ġhuman itarian
ĠHug hes
Ġcon cess
ig raph
IC LE
ĠâĢ ¢
Ġs ear
ĠCP U
Ġacc el
D W
ĠV el
es ign
Ġprec ision
ĠA uf
Ġcooper ative
Ġshort ly
Ġacc idents
ĠGRO UP
P AR
ass ment
ign e
Ġcorrespond s
Ġp ace
Ġthick ness
ĠD irection
ĠElect ronic
Ġun ter
ĠRichard son
h urst
Ġw aves
ĠGroup s
Ġe at
ier a
Ġsur plus
ĠRen ew
Ġfem in
P enn
ĠSche me
ethe less
ĠW ORK
IN I
cont ract
f inal
? )
ĠCOL LEGE
ĠTh reat
6 14
ĠSu ccess
ffic ients
ĠG un
ĠP in
ĠB UR
ĠMA IL
ĠD ir
T RA
Ġ3 16
ĠBr andon
Ġdef icit
Ġmaintain s
Ġarbit rary
D OT
Ġst ick
Ġelement ary
Ġb ridges
val u
76 9
Ġmon itored
: .
ĠHar bor
ut ic
ex cept
A UT
ĠPL AY
Ġinter im
Ġbe ars
ist ration
Ġa pr
0 33
pir ation
J ud
U se
l ocal
M H
f ast
iv as
ĠSign al
Ġth read
ĠViol ence
90 3
Ġdepart ure
Ġint ensive
Ġcap s
ĠCar roll
K K
ĠProced ures
M aterial
ĠCom ments
M el
ĠH ER
Ġ3 80
EN E
Ġsubsidi ary
ĠIS O
Ex ample
Ġarg ues
abet es
Ġ18 86
ĠW ag
N W
Ġsatisf actory
struct ed
ĠCamp us
m os
Ġex cluding
erman ent
56 2
it ted
ĠCo hen
w ords
Ġa thletes
ĠMAR GIN
Ġjoint ly
Ġsubject ed
Ġb atter
Ġcorpor ations
Ġprodu cer
ĠW IL
ale ment
Ġillust rates
ic les
Ġlie u
Ġchim ney
ĠBl vd
Ġl b
wh ite
Ġhead ed
Ġarch aeological
ĠS UN
75 5
ĠBall ots
Ġnar rative
ak ia
ĠAct ivity
ĠS ay
ug a
n cia
V OL
ĠFl ore
ĠQuarter ly
g ets
de v
Res ult
end ance
In vest
Ġas h
an an
56 4
Ġst ars
Ġv ide
ĠC anyon
ra ul
Ġimm un
mid t
Ġdon or
th ouse
Ġp ou
Ġwork shops
ĠEc ology
0000 0000
ĠUN IVERSITY
Ġreg ression
................................ .....
Ġp illar
Ġhapp ens
Ġclos ure
cri ptions
ĠT uesday
ud ad
Ġl akes
Ġpl astic
Ġprevent ing
Ġtrack ing
Ġwas n
ĠComp anies
Ġbroad ly
5 27
78 6
58 9
he alth
ĠOl iver
ic able
Ġ28 1
Ġ28 6
Ġgr up
Mich igan
Ġan throp
ĠNich olas
ĠCru z
P U
Ġcont amination
55 1
ĠTour ism
Y N
ĠH ist
w aters
78 5
Ġfl ower
al g
Ġe igh
N orthern
Ġde ferred
78 7
Ġbi ology
eg an
b ers
ĠT ENDERED
Ġdet er
Ġmarg ins
ĠWell s
Ġh ung
Ġn ue
Ġwin ner
ĠRep l
Ġcomple ting
ĠMed iterranean
Ġcalcul ate
ple x
ĠEn forcement
99 5
________ __
ĠB urn
ric ia
ĠAn imal
ou rable
Ġaccording ly
ĠProcess ing
ij ing
Ġreflect ing
ES P
Ġnav igation
Ġast ron
ig ious
Ġcrit erion
rol ogy
Ġp in
75 8
ĠDise ase
J R
Ġ30 8
andid ate
0 27
k ind
ĠED UC
5 24
ĠSw edish
ordin ate
ĠS EN
Ġelect ro
Ġb ills
Ġconc ert
ĠF CC
Ġ29 7
at el
Ġmat urity
Ġse eds
ĠS ask
em in
ĠGaz ette
Ġeth ical
C K
V V
ĠS ize
Ġfocus ing
com pl
um ble
Ġx x
y ll
Ġsal mon
ĠBrig ade
ĠP T
0 28
Ġmanufact ure
59 6
v et
st a
Ġart ificial
ĠTib et
Ph oto
ĠExt ension
ĠReg ular
Ġund erm
Ġt ag
Ġ3 21
Ġsp in
os i
M ARK
det erm
................................ ........
ĠH P
Ġb ars
od o
Ġgl i
Ġbre ach
S ever
ĠPhilos ophy
ĠJ ar
Ġstrict ly
Ġw at
âĶĢ âĶĢ
Ġ3 19
T itle
Ðµ Ð½
ĠElect ions
ass en
Ġcon stitutes
government al
ĠNash ville
Ġm ater
Ġb ron
ĠTh ank
Ġc ada
Ob ject
Ġin ch
ĠD iss
Ġc otton
Ġaqu atic
ol en
Ġbu ff
re ason
Ġ4 05
w r
Ġrep roductive
5 13
Ġ29 4
ĠSac ramento
ĠEst ado
ĠOwn er
ĠJ oy
rim ination
56 1
k inson
ĠChap el
ET TER
Ġne arest
Ġpro ud
Ġby te
ĠO ption
Ġsp an
80 7
Ġscholars hip
Ġaut o
ĠSouth west
Ġro d
Ġz e
Ġconf usion
UC K
pro ject
55 2
ĠArn old
Ġjust ified
Ġl ang
Ġdem ographic
ĠCour ts
Ġf ro
Ġnomin ated
---------------------------------------------------------------- ----------------------------------------------------------------
ĠCOUN CIL
ĠCh and
t rue
Ġm eth
Ġflu ctu
! .
Ġmother s
lin ear
Ġcl imb
Ġcompat ible
Ġgar age
ae us
V ari
ĠH Q
Ġlif etime
ĠAm ount
0 21
M X
Ġf ores
4 77
it ary
Ġher b
Ġeduc ated
sc ill
ĠCar bon
Ġun w
Ind ia
Ġtro uble
Ġproject ion
C s
Ġest ud
ĠBrook s
ĠL ands
Ch ief
ĠTh ursday
65 1
Ġwh ilst
ĠSur ve
ĠMethod ist
Ġp ent
Ġmunicipal ities
Ġ ik
C ITY
Ġh ist
Ġalleg ations
5 26
ĠAct ual
Ġst ating
IST ICS
Ġal ignment
Ġt ion
ail ure
en berg
Ad minist
B OR
7 14
ĠThe orem
Ġbase ment
n ers
Ġhighlight ed
s ic
AD U
Ġcampaign s
ill on
le en
UTH OR
59 3
Ġexcept ional
ĠP ick
m etic
:: ::
ĠL ud
ĠComp lete
D AY
Ġcompet ing
L i
C oll
75 9
IF E
Ġs ans
Ġgather ing
Ġprotect ive
ĠP ET
it iveness
h istoric
Ġport s
Ġhazard ous
Ġp ec
................................ ......
In f
ĠM ET
ĠRec reation
C a
og g
Ġequ ilibrium
ĠCount ries
uck er
ĠCh ad
Ġre pr
________ _
en ergy
P ORT
ĠCENT ER
65 4
air y
Ġer ected
r ank
D er
Ġ................................ ...............
ol ished
Ġhealth care
ĠCurrent ly
Ġg eb
COM M
ĠP owell
ĠIn cludes
Ġk i
ue b
m itting
ĠDirect ive
oc ent
cri pts
ell ant
6 90
Ġdist ances
ĠTh om
or ic
og le
Av g
l ain
0 35
Ġdeleg ation
R AM
Ġliter ary
Ġ ____________
Ġisol ation
Ñ Į
Ġphot os
Ġver ification
re z
................................ .......
ĠY ORK
I ss
Ġdoct ors
55 3
Ġinval id
č Ċ
b ai
69 5
Ġposs ibilities
Ġoff ences
em ployed
Ġdo i
Ġdepos ited
Ġinhabit ants
ĠOr chestra
Ġsc rut
Ġqual ifications
ric ks
ĠTR AN
Q L
Ġsl opes
ĠC el
ĠUN ESCO
an us
Ġsav ed
ĠH erm
Ġrest ra
ĠV ery
Ġflow ers
A uthor
ĠSe an
B a
( $
ff ee
ĠTrend s
Ġto w
Ġsuggest ions
. &
B usiness
Ġ4 10
Ġqual ify
Ġin clusive
ĠT ECHN
Ġvirt ue
Ġmod ules
m ill
n ames
M inn
Ġprom ise
ĠB rew
r ington
Ġjournal ists
Ġaccur ately
Ġbenef ici
E H
ĠJ A
Ġauthor ization
ĠJohn s
Ġchild hood
8 33
ot ions
ĠInvest igation
Ġ" "
SP EC
Ġegg s
C V
U I
on er
ote chn
Ġl ibraries
ĠRh ode
Ġins ight
Ġseason al
ĠF AA
Q R
St art
Ġ28 3
6 01
Ð° Ð½
Ġdel ayed
ĠRe fer
H el
Ġf f
Ġ3 29
an j
ĠFI ELD
ĠPolic ies
Ġint ra
ĠSur v
59 8
ĠN orm
d f
t z
Ġ ÌĦ
by ter
ĠIn itial
C amb
ĠPoll ed
anc ia
ĠRes pond
F ac
Ġth rust
f ax
Ġv eter
ĠM ong
ad ig
OR TS
EST ER
ĠFig ures
69 1
ĠF u
ĠEqu ity
amm als
Ġspe aker
ĠS ed
ĠDem ocrat
Ġten ure
ĠSustain able
Ġun ions
Ġinter rog
O klahoma
ĠGl asgow
Ġ29 8
N OTES
ĠFl ood
COM P
it os
Ġev ac
ĠNY C
ĠJenn ifer
anc ellor
at io
ĠC ut
yl um
Ġsus pected
ĠGh ana
79 5
ig ible
ĠPal mer
ster dam
Ġph ylogen
ĠBl oom
h h
Ġ29 3
Ġclear ance
c ity
Ġreview ing
rup ted
Ġatmosp heric
ĠChrist mas
Ġrend ered
n j
Ġcitizens hip
Ġm ud
ĠP I
Ġutil ization
Ġfif teen
Ġb icy
Ġbe ach
áħ ¡
Ġprivile ge
ĠSt ories
Ġguarant eed
79 8
h uman
Ġmanus cript
0 90
le man
ĠAr ctic
im it
~ ,
80 4
ĠT ak
Ġgra vel
ĠSC I
ion ale
Ġattribut able
Ġwrit ers
l age
Ġperiod ic
ĠA UT
ĠL W
75 6
ur u
Ġ18 87
Ġfavor able
Ġb inary
0 22
5 17
A US
b eh
ĠStev ens
pp e
re as
Ġoccas ionally
Ġn ella
T or
0 29
Ġ................................ .............
Ġsurv iv
Ġillust rate
Ġf ost
Ġindirect ly
ĠAd just
- $
5 28
ĠL INE
ĠMedic are
m d
Ġvolunte er
K ing
Ġcon ferences
Ġsett lements
c irc
Ġf oster
Pr incip
ĠS pect
Ġl ift
ment ed
ra h
Ġdisturb ance
ave ment
OT A
ious ly
ĠMe asures
Ġ3 18
ĠUs er
ĠM ID
Ñ ı
Ġign ored
Ġimpl icit
69 6
ĠVi enna
Ġconven ient
P ower
ĠN y
ĠJust in
ĠBenn ett
un ci
Ġlicens ing
Ġbig gest
Ġinf ra
Ġspace craft
Ġmin istry
ess o
6 33
66 2
ĠL ag
Ġhe ct
ĠH I
Ġw ishes
Ġtun nel
Ġd it
Ġ................................ ................
ĠRo le
ĠH off
Ġbrief ly
59 7
Ġsyn chron
ĠN ancy
Val ue
N a
Ġ3 24
68 6
ĠM iles
Part y
68 5
er en
Ġassum ing
ĠM ode
ĠTe ams
Ġ29 1
am en
Ġun ity
ĠY ds
c ies
o es
ru ce
P en
ĠWe ight
ĠCrit eria
Ġhistor ically
Ġrecomm ends
68 7
Ad v
ĠGreg ory
b us
Ġ29 6
ĠV ill
Ġexceed ed
s up
Ġw orship
le ft
Ġpl acing
5 38
f ly
Ġload s
Th us
ĠEx ample
Ġflu or
ĠG erald
Ġph armac
ian e
Ġbroadcast ing
ĠSh ould
Ġst ocks
Ġpric ing
69 8
St atus
ĠM ILL
ĠWood s
IT TE
ĠRelig ion
ort ed
ĠF ab
Ġ18 81
oc co
g raph
om o
ĠC ad
ĠL ad
0 39
Ġcompar isons
Ġstru ck
Ġorgan isms
58 2
ĠL ith
ĠFri ends
Ġn est
ne ys
EM A
ĠW B
N ES
if iers
ĠL amp
Ġincom plete
ĠL ik
f ac
Ġtheore m
7 17
Ġcontract ors
Ġst atic
K ansas
Ġsupp liers
ĠMet ro
P UR
ĠTE AM
ĠH ack
ic z
Ġl y
atern ity
Ġours elves
76 2
oll o
ĠGl enn
sh are
ĠW ars
ĠM U
ĠD ere
ĠST ART
59 1
ĠR OM
Ġderiv atives
ond o
58 4
Ġmo ins
ĠB urg
ĠBa iley
ĠD ow
Ġ3 26
ĠComm unities
Ġbirth s
AN CH
ĠBer g
ĠLind a
Ġtend ency
em porary
Ġst ops
Ġj ed
od i
Ġto uc
ĠAst ron
90 2
REE K
in u
ĠAnd y
ĠAr lington
Ġch apters
Ġanaly ze
pro b
19 35
Ġimp ression
S UB
z ie
ĠT roy
p g
ĠV AN
99 8
ĠR F
ĠB ald
ĠT ot
Ġestim ation
ĠM ak
ĠS earch
rec ord
ĠG M
spec ies
ĠMax imum
69 2
ĠH ope
ĠSte in
74 2
Ġf ans
ok a
Ġjo ining
Å Ĥ
Ġflood ing
ĠF AR
Ġhand led
Ġstrengthen ing
keep ing
ĠAppro ach
ĠPublic ation
T a
ograp her
ĠTechn ologies
ot ypes
ĠUn fortunately
8 10
ĠL is
. );
ĠCons olidated
Ġra pe
5 23
ĠJ AMES
Ġstat istically
ĠHar vey
ira cy
IT OR
Ġra c
Ġtreat ments
Ġth row
H a
Ġf ires
ĠS ullivan
ĠR ICH
ĠSqu adron
ot yp
ĠW IN
Ġcont exts
ĠMu hammad
ant ed
child ren
Ġcon stituted
Ġelev ated
Ġr ushing
Ġt um
ol ition
Ġc ache
on te
ĠTe achers
Ġhard ly
ĠM ind
5 37
5 35
Ġv oted
ĠL ey
Ġentertain ment
cel and
ĠB ird
Ġdes de
ĠAccording ly
Ġciv ilians
Ġre struct
Ġoff enders
Ġoff shore
P et
ĠAb stract
Ġ18 84
ĠG C
ĠCo operation
Rec ommend
6 70
b ilt
ĠT ool
Ġlaw yer
Ġdr ink
Ġst yles
Ġlit igation
ĠJ ACK
Ġb orders
ve x
RO W
F amily
Q W
ien ne
h ung
Ġp H
ĠPet ition
Sec ret
Ġsubsidi aries
Ġ3 34
ĠL oc
ĠX IX
bre ak
Ġint ense
ĠE mer
cil iation
spe ed
op l
ĠD iam
ar ag
P rior
ĠSt orm
work s
Ġvi able
Ġreal ize
Ġundert aking
e urs
ers et
Ġdel ays
H o
an alysis
Ġint act
om at
Ġex ecute
I owa
Ġ3 75
int ed
ations hip
Ġcon se
Ì ¨
Ġhors es
Ġhold ers
ERIC AN
Austral ia
) "
Ġw ins
ĠMe et
ĠK S
AL T
ĠSw iss
Ġdeb ris
Ġfail ures
ĠL aura
65 3
ĠG ren
Ġconf ined
Atl antic
ert iary
T ax
Ġ28 4
Ġweight ed
IZ ATION
ĠSol ar
yst s
for ward
ĠR ah
ĠSh an
99 4
Ġ3 70
ĠO ri
ST E
h art
Ġce lebr
ĠF o
Ġcatal og
ĠWind ows
Ġsu gar
Ġt t
Ġd owntown
P UBLIC
a que
qu ette
ĠK ol
Ġresp ir
ĠHe at
................................ .........
ĠF ace
... ]
ym ph
ĠW ednesday
ĠSpr inger
ĠEnt om
ĠC ub
5 29
Ġh ind
redit ation
ar am
Ġinflu ences
el ly
port ation
Ġsent ences
Ġpoor ly
Ġc ov
Ï ī
Ġextra ction
ĠCy cl
T own
ĠMem ory
Ġde ck
Ġ3 22
ĠAct s
Ġter rain
Ġm unicipality
' (
MAR IN
Ġh ub
Ġpri est
ra ch
ĠB it
ob ject
Ġallow ance
Č Ċ
7 80
un eration
ĠCl ara
Ġspec ifies
Ġal uminum
Ġsucceed ed
ĠBroadcast ing
Ġimport ed
Ġden omin
Ġmon ument
Ġde als
LE MENT
ĠBou levard
Ġ29 2
Ġqu ad
ch anged
k w
y i
Pr ivate
Ġrefer ring
Ġn aval
am inated
c ur
i ere
Ġgen u
ĠWar ner
Ġansw ered
M IL
V is
, (
B oston
edd ing
Ġ____ _
0 70
ĠG AME
Ġpe u
Ġal g
Ġcur ves
5 18
Ġev olved
ĠOrgan isation
ĠF resno
G AR
ĠM ART
lim ited
ug s
Ġbiom ass
ĠVari ous
Ġexpress ions
Ġan che
59 4
ĠMin neapolis
Ġshoot ing
85 7
Rep ublic
Ind ian
Pro of
5 21
Ġcerem ony
pro ve
ĠH arm
ab an
5 66
ĠW on
Ġam en
Ġvari ance
Ġdisput es
min ster
Ġtack le
ĠAss oc
ĠAb raham
Ġtrib es
Ġinject ion
ĠOrd in
ĠS ECTION
ĠRequ est
90 4
t ake
Ġsh ale
ip ur
Ġdemonstr ates
Ġm ask
ĠPer haps
Ġofficial ly
ost a
ĠW ORLD
Ġ18 40
Ġmount ed
Ġd t
Ġres ign
Ġl iqu
Ġexerc ises
Ġ3 38
7 40
ĠD OC
Ġh ole
Ch ange
En ter
ĠSupp lement
ĠY ard
ass oci
Ġdepend ence
R G
Ġund ers
Ġth y
Ġemb edded
ĠO G
US S
Ġsp oken
ĠCorrespond ence
im burse
Ġopen ings
P F
W I
Ġexceed s
Ġinc orrect
ic ia
Ġunder graduate
Ġprint ing
raf ted
ĠAl ice
og an
Pro t
Ġassum es
74 1
Ġrep ly
str ate
M iami
ol ve
5 22
l le
Ġarr ive
Ġinf ant
ĠRelig ious
7 25
St ar
ĠC ounter
vi i
Ġ20 30
Ġadvert ise
R UN
9 60
ang an
OL E
iox ide
Ġv in
5 65
ĠGil bert
Ġdefend ants
Ġfert ility
ĠMARK ER
ĠCong o
Ġperform ances
Ġdegrad ation
P eter
st re
v ae
Ġfa una
ĠLo an
oz o
6 21
68 2
Ġsurvey ed
ĠUk rain
Ġcompet itors
Ġ28 2
L t
ATE G
Ġconsist ency
ĠCitiz ens
ĠD D
Ġappro ve
000 8
Ġwe ights
Ġlegisl ature
ĠStand ing
et ed
ser ver
i ol
Ġped estrian
ch os
ĠCon se
ai ro
Ġcompris es
ati ents
Ġgreen house
Ġtu ber
7 30
L ess
O pen
ĠA thletics
ĠIsa ac
8 60
ĠA I
iz ar
ĠT ree
Ġextra ordinary
ĠD EN
Ġtal ent
amb ia
Ġ5 50
ĠCENT RE
ĠSt ef
Ġd ip
Ġact ed
11 00
b ase
ĠN ON
Ġfriend ly
in as
Ġcom un
68 1
Ġv est
ess ment
anz ania
s ky
79 7
B efore
5 36
9 25
ul ates
ĠM ust
ĠN ET
Ġch ron
Ġorgan ised
79 2
Ġrest ore
iss enschaft
ĠAM S
ĠH ob
ĠL iv
Ġneigh b
ĠN i
Ð ³
orpor ated
ĠIn g
ĠB EG
ĠPol ish
ETH OD
umber land
ob ier
ĠL ength
Ġ3 32
ro id
ert ation
ĠP att
Ġc ig
ĠK aren
ops is
ĠT arget
F ar
Ġd ogs
ĠComp ensation
Ġpain ted
75 2
e ven
ĠCap t
ĠSt uart
IN ES
Ġut ilities
D EM
J ones
c ents
Ġreve als
66 1
ĠA rena
sp ection
ari ans
ĠBrother s
E very
ĠR uth
M usic
Ġcomp aring
................................ ..........
ĠGRE EN
Ġ3 55
ern el
Ġavoid ed
C ul
FIG URE
ĠDou ble
or ie
6 29
ĠM ine
ĠClark e
Ġbur ning
ĠP rison
ĠB EN
ĠM ake
V a
ĠT ulsa
ĠT M
ĠHe avy
Ġvent ure
ers ch
Ġecosystem s
ĠN athan
Ġprior it
Ġm un
ĠSuper intendent
Ġit al
RA Y
Ġgre y
i ological
Ġ3 36
c ion
5 41
Ġsummar ized
59 2
ĠD aw
De velopment
Ġher self
y on
Ġbro ke
ĠH ugh
onn age
Ġ3 45
T L
ĠCond ition
Ġmount ains
ĠGard ner
Ġe cc
M ap
ĠS ample
W X
Ġleg acy
he lp
ĠS ter
Ġknow ing
ĠGr ants
Ġn at
UG H
Ġ ub
ĠHe in
os o
ĠM is
y th
Ġp unt
ĠF IFA
ĠV eterans
Ġrele ases
ĠAd ult
am y
Ġqual ifying
99 6
k ers
5 76
Ġold est
5 49
v ic
Ġ3 31
St an
Ġjust ify
Ġb ol
ĠAccount s
Ġfl ux
at che
ĠN HS
Ġnot ably
Ġcontain er
Ġh idden
Ġin hib
Ġen velop
Ġprot ocols
i ya
Ġperson ally
Ġtransp arent
ph oto
b h
ĠH D
ĠCommun ist
ill ary
ĠW or
B AR
ĠB ass
Ġpregn ant
part y
hed ral
ĠF inn
ught ers
O A
Ġg uns
Ġn acional
Ġf uer
Ġl g
and ed
J ournal
ĠR oth
C re
l it
Ġlect ure
Ġnumer ical
ĠMil waukee
Ġad vent
E astern
ĠW et
ĠCl ause
Ġ18 82
Ġju venile
Ġv eterans
Ġdeg li
ĠK OR
ĠAn aly
g ang
Ġexpos ures
MARIN ETTE
Av ailable
Ġo ught
Ġb ot
0 36
Ġabund ant
in ion
ex per
Ġa k
ĠW Y
Ġlaw yers
ĠCamer on
Ġn s
ĠExper ience
Ġrepe at
Ġw ard
ĠX I
74 3
Ġphys ically
Ġsw it
Ġj ur
Ġm olec
Ġnot ified
5 44
c v
ĠD ance
Ġ3 37
M ex
Ġsp ite
quir ies
Ġoverw hel
oun cill
Man agement
le ading
ĠB ag
ĠH im
Ġsh ield
Wh y
Ġpol ynom
8 80
L OR
ment ation
ĠChe ster
Ġexerc ised
P ot
oph ical
ĠInvent ory
ĠD F
Ġca ution
Ġg a
R s
Ġmach inery
ĠC BS
9 20
vel t
ĠN OV
ĠÐ ½
EL S
Ġb are
ĠM ICH
the se
75 3
Ġremov ing
Ġ0 20
78 1
ĠEx tra
ĠS ame
ter a
Ch ris
uls ory
u cl
ĠD ry
ec n
ĠB ear
ĠPR INC
erc ise
ĠC iv
90 7
78 2
Ġpip eline
Ġt et
L ET
ĠIraq i
ĠG I
b ons
Ġcheck ed
ĠCongress ional
Th ird
ĠGovern ance
ĠS IGN
ON Y
ĠReg ulatory
Ġdecre ases
12 00
ann i
Ġcoe fficients
al ks
Ġanaly tical
n icht
ĠRef uge
m ma
Ġthem es
ĠB ristol
IK E
ĠAch ieve
ĠH M
hy th
ĠA ber
75 1
ĠG or
ĠJud icial
all ah
Ġra ces
ins ki
um ing
Ġmod ify
ĠC DP
( -
ĠI van
Ġbene ath
u ve
b is
ĠRet urns
n atural
John son
ĠM ining
D ev
ĠSpe ed
enn ium
ĠRedu ction
ĠDavid son
Ġup stream
ĠBob by
l ook
ar ly
Ġaltern ate
8 70
ik k
Ġminor ities
ĠVerm ont
ĠHeb rew
ĠAb s
Ġw are
Ġbal ances
9 70
0 34
e ast
Ġvot er
ĠS ul
Ġper o
ĠT ig
Academ ic
Ġtempor al
an os
Ġr ated
Ġ12 00
D EL
ov ich
Ġpun ish
D eb
90 6
Ġqu iet
19 33
k ie
Ġcontinu ously
Ġd ern
E ven
ĠF ine
ĠD ial
ĠE ight
Ġrenew al
b in
Ġa an
n os
................................ ...........
Ġ4 08
cid ent
H ere
orne ys
Ġrit ual
ĠL D
Ġrect angular
M id
ĠS exual
Ġ4 03
ĠK in
ĠPl ate
77 3
ĠIn stitutions
Ġ18 75
ĠOper ational
Ġc hem
Ġsh rub
Ġret ro
8 20
Ġcoordin ates
Ġguarant ees
t ax
ĠV e
ĠFl oor
ĠEX P
C le
Ġ Ã
ĠProf ile
Ġsan ctions
Ġdiv or
nd e
ĠREG ISTER
ĠNe uro
f ather
ĠR OW
Ġpartic le
ĠPART Y
ĠP av
Ġ4 17
ĠMont real
Ġsh ipping
69 3
ĠC f
Ġacc ru
ĠV as
Ġappreci ation
Ġl ag
M ID
ĠEth ics
Ġl ung
eg al
Ġcompris ing
68 4
ĠFIN ANCIAL
am t
ĠSup erior
ĠB ak
Ġrem arks
ĠGovern ments
19 34
Comm unity
Ġre organ
ur ate
ĠA x
az i
success ful
ĠCharl eston
Ġw ounded
S che
az ar
here nce
Ġdiagn ostic
R est
M ember
ĠU M
Ġse u
ĠN g
Ġ4 09
O x
Ġf ranch
77 2
Ġtot ally
ĠC atherine
Ġtr s
Ġde ploy
ive au
Dan iel
l os
Ġne ut
Ġstructure d
Ġ- .
ĠMach ine
ung al
Ġf ran
ĠM ental
8 40
mar ine
ĠO g
H IST
ĠP reliminary
Ġl ip
IN K
Ġ4 20
ĠProt est
Ġprohib ition
ĠD H
D OC
ĠEug ene
ĠMult i
Ġbal anced
79 6
ĠRe ich
Gl obal
ĠV ik
ĠCH URCH
Ġf atal
Ġcou pled
def ined
ĠC ul
AA AA
Ġbus es
Ġ................................ .................
ĠAd vent
ĠD y
ĠREC ORDS
Ġd ating
Ġm art
19 10
sw er
77 1
Ġquant um
ĠY ugoslav
ĠL iver
ĠPre par
own ers
6 36
Ġg y
Ġpl ural
ĠHIGH WAY
ĠS old
Ġa insi
u u
Ġr idge
ĠEll is
) ................................................................
Ġc up
Ġkit chen
im eter
66 4
William s
Ġst air
n m
76 3
ĠSp encer
nt y
back s
Che ck
9 12
WH ERE
Ġconstant ly
ph ib
d eg
W ard
ĠW ald
6 26
Ġscatter ed
Ġnot ify
ĠSecret ariat
or io
69 4
OL A
Ġenorm ous
ĠP ool
ĠD ale
Ġm ad
osp el
ier ung
Ġk in
Ġval ued
eng es
me an
ĠD AY
Ġge ometry
Ġrelev ance
uc a
UR R
ĠR ates
Des pite
ĠParliament ary
ĠBroad way
ĠCurt is
Ġexem pl
t urn
Ġal ph
Ġlit eral
ĠTe aching
ber y
Ġ' '
ĠEff ective
h all
ĠProv ide
Ġneg lig
ĠV ir
68 3
G BR
Ġadd itions
ĠF AC
ĠHin du
is me
ĠFl ow
K n
Ġpret ty
IVER Y
7 75
ĠCrit ical
Ġland sc
ĠRe b
ment ioned
ĠDur ham
7 70
Ġinf ections
Ġ18 79
ĠTest ing
G reat
ud es
enn es
Ġprevent ed
os ity
Ġrec urs
Ġwet lands
Ġfulf ill
Ġ5 03
ĠD ol
Ġf est
Ã Ł
ĠASS OCI
Ġhaz ards
Ġtamb in
od er
Ġpsych ology
st art
5 34
IS ON
T el
Ġg ear
Ġdisch arged
ĠA U
w i
zer bai
Re view
Ġproxim ity
Al so
Comm on
ĠWhe ther
Ġ3 39
76 4
f lu
Id ent
88 9
ĠW er
Ġload ed
ĠL ay
Ð ±
G ar
5 73
ĠD P
N ORTH
ĠPal m
Ġun law
ĠDo ctor
Ġspons or
Ġc av
Col lege
ĠBO X
ĠEn h
................................ ............
Ġvari eties
Ġ4 25
ĠC G
Ġthe ater
ĠKn ight
ĠArab ic
Ġ18 83
ĠAn a
L ength
Ġp ipe
ĠHIST ORY
ĠDun can
ens ing
ĠMar ion
Ġattack ed
Ġs pp
ĠS igned
Ġless er
he it
oun ce
ĠVerd ienst
am mal
ĠTrust ees
em ption
ĠS or
ĠIn quiry
ĠN V
Ġmet abol
en ary
Ġein em
V ict
AS K
Ġs ew
Ġnor ms
Reg ister
Ġcut s
ĠAl a
Ġrent al
9 80
Ġoccup ational
Ġpoll ut
Ġm aternal
oh l
Georg ia
access ed
Ġc ant
ĠCh ronic
Ab stract
ĠW L
Ġemphas ized
ĠM ans
Ind ust
Ġissu ance
D IR
ĠDef inition
id y
ou stic
ĠRut gers
Mart in
il or
Ġfound ations
Ġn ic
Ġfl our
ĠS eb
Ġis ot
r ice
m ember
al ter
0 38
Ġd ense
raw ford
ĠT yler
ĠW aste
ĠQu est
ĠS epar
Ġsubsid ies
he res
Ġl n
Ġrest ored
ĠBry an
Ġrot ation
Ġdispos ition
Ġapp eals
Ġhttp s
ra ys
group s
78 3
Ġmet er
ĠRes ult
ĠL ynn
Ġcour s
7 13
au ge
ĠÐ ¾
Ġs aving
IS L
Ġan te
iz i
ĠMem orandum
al ach
5 68
Ġa ber
Ġopt ional
Ġexam ining
ud s
0 32
Ġafford able
p is
ĠCre ated
ĠVenez uela
Ġprogress ive
ul ator
n as
ĠA PR
S ME
Ġfe at
19 29
Ġ4 04
ĠI g
7 01
f lo
Ġart istic
Ġeng aging
ĠW orth
C am
onom ous
od ore
ĠSalv ador
" -
Ġf older
Ġv ie
ull ah
Ġtax ation
ĠT EL
ĠIS BN
75 4
ĠTw enty
ĠEnt ry
ĠM ul
Ġopp onent
Ġd orm
clos ures
Ind ex
. ~
N CAA
ĠVerdienst zeichen
re ctions
N OR
UM AN
ĠEd ge
ĠS EL
Ġinsert ed
5 19
ĠK or
ĠPen insula
Ġfrag ments
l ings
ĠS ites
Ġap ex
uz z
rib e
pe ople
ĠF D
ĠS ent
Ġexem ption
ĠC ant
8 01
per iod
v r
T F
ĠF ast
ĠKos ovo
Ġm ism
ĠH ur
Ġbel t
Ġgra y
Ġ4 02
ĠR us
Ġattempt ing
re ne
Ġest able
Ġrespond ent
ST A
UM E
ĠAng el
ĠThe ater
ind ed
Ġsan ct
ĠL oy
Ġref lection
ĠVol unte
ĠM AG
enz ie
ott om
ĠUg anda
ond a
ĠNor folk
Č Č
le af
l oc
Ġbo ats
ĠM EX
ch urch
P lease
ĠBack ground
ĠSpring field
Ġi ii
cycl op
ĠAssoci ated
Ġorig ins
Ġjurisd ictions
R ule
UN ITY
5 31
Ġ3 49
h ydro
Ġconnect ing
Ġde viation
s qu
red ited
M ill
ĠSc hed
ĠDe ep
Ġcommod ity
ĠG H
Ġne uro
ĠM ER
W ell
ne um
ĠP AS
ĠRoc hester
Ġfeature d
Ġphenomen a
6 65
Ġdif er
Ġdes arroll
ĠKe ep
19 25
ĠC V
Ġcontroll er
al ities
Â Ń
Ġd l
S G
ĠSign ificance
Ġl u
Ġpro long
ĠChar lie
Ġsever ely
Ġn erv
ĠV P
d al
Ġr im
oles ale
0 37
byter ian
B rien
Ġpred iction
M er
m ons
ĠSign ificant
ath am
Q B
ĠSim p
7 12
conn ected
ĠV or
Ġto ll
6 24
5 99
Ġprem ier
ĠGra ce
6 27
ĠS now
ic iones
ÑĢ Ðµ
6 23
ient os
ĠP B
Ġton nes
ĠH i
Ġt one
Ġ18 66
T N
Ġl ig
ĠIn v
LQ J
Ġbrack ets
77 4
ĠH aving
ind e
OP ER
Ġ9 99
xi ety
ĠReyn olds
Ġequ ip
Ġce iling
Ġwh olly
ĠArm strong
78 4
Ġqu el
W ind
Ġch ampion
tic o
8 30
Ġbut ton
$ %
Ġindividual ly
ĠB RE
Ġpurch ases
66 3
p arent
ĠV ac
ĠSt ations
ĠJim my
sh ould
Ġproject ing
Con f
Ġpl ates
es y
Techn ical
Ġsu icide
Ġ4 15
ĠF ly
ron ics
Ġconsolid ation
L ake
ot or
ied er
Ġdiss ent
Ġ4 40
p y
Ġf iber
ass er
ĠMANAG EMENT
ĠE A
Ġcry pt
ev al
Ġcertific ates
i ated
Ġe ld
cont rolled
ĠD QG
ĠK E
ow ment
Ġoff ender
Ġd j
8 46
9 73
uxemb ourg
R M
rit t
ĠAndrew s
ĠPet erson
76 1
Ġn ost
ĠĠĠĠĠĠĠĠĠĠĠĠ ĠĠĊ
5 48
ĠSpec ific
ĠSh a
Ġgr ate
ĠEL ECT
Ġstat utes
un ata
ĠRev ised
P ay
5 39
5 43
Ġreason ing
ĠCH AMP
79 1
ĠAm az
ĠFOR M
ĠCab inet
f eed
Â »
ĠO h
Ġb ure
Ġ3 85
ribut ed
ĠĠĠĠĠĠĠĠĠĠĠĠ ĠĠ
art e
Ġex clude
r ill
Ġqu asi
es c
Ġnurs ing
ĠT i
Ġw ings
Th rough
19 32
Ġtoxic ity
oper ative
................................ .............
m ile
5 42
en f
irt ual
ll i
Ġ4 13
mun ition
ĠL IST
ĠCar r
AM B
Ġstud io
ram a
ĠT ed
Ġ18 78
Ġinst ant
Ġ ________________________________
H is
C Y
C F
k on
Ġst a
ĠTe acher
Ġform ulation
CH R
ĠV T
5 46
ĠHon ors
IC I
ĠComm ons
oc he
s z
am ents
bu ilt
ĠY O
Ġappro ximate
wh at
Ġphys icians
Ġgra vity
Ġrepeated ly
Ġfin anc
Ġn em
ĠM AL
Ġtre as
ĠManufact uring
as o
Cont rol
Ġg ly
Ġpers pectives
7 65
is ia
9 10
J S
Ġ18 68
Ġpp m
ĠPl ayed
un ter
Ġor th
g ins
iv el
Ġobject ion
Ġf ired
Ġread s
Econom ic
Ġc ord
Ġ18 74
Ġcomb inations
Ġ3 90
5 77
Ġt an
ck now
H aw
ĠS PR
19 28
Ġinstall ations
ĠSc en
Ġr h
IN TS
b ecause
Ġn eces
D ivision
Ġsl ave
y y
STRU CTION
8 25
ĠWel sh
Ġdevelopment al
7 27
W G
Ġinv ari
add le
ĠM L
v ine
Ġpre ferences
eff ect
Ġnut rition
ĠN ames
St reet
h ra
Ġres emb
Ġal arm
ĠRev ision
vi ol
Ġel le
ĠP orter
if olia
UR Y
es i
Ġappropri ately
ĠIndian apolis
ĠH il
rim in
Ġh ills
ĠO ral
Ġst ones
Ġun con
D i
stit uc
6 35
ich te
iz ione
7 11
Ġ18 69
ĠP ac
Ġ4 80
S et
be k
r ift
qual ified
ĠMISS ING
D M
Ġover head
Ġlab els
uw ait
rais al
ĠApp le
Ġt ens
79 3
Ġinsp ired
ĠD raw
Ġ................................ ..................
bl ock
W HO
Ġh i
V an
w en
Ġk ar
L ine
5 32
Ġ5 10
Ġsusp ic
ĠBuddh ist
Bu ilding
PL AY
ĠH yd
Ġs ounds
ĠL ak
Ġlingu istic
Ġver d
v n
aps ed
Ġsan itation
ĠB UD
ĠStr ong
Ġclust ers
Ġt res
Ġlack ing
ĠL isa
Ġprof iles
arc ia
ĠIn n
Ġmiss ed
, ''
Ġdeleg ate
6 37
Ġv ocal
ĠIn ner
ĠCont ributing
Ġmanufact ured
Ġconscious ness
ĠD est
6 45
ars et
ĠCompar ison
ĠSW E
Ġinc omp
ĠS ET
Ġtoler ance
ĠD oc
Ġ( '
hr er
ĠP OP
n ell
IN ESS
Ġsk illed
he id
Ġd ic
Ġse in
Ġa ussi
Ġ4 30
eg er
Ġm l
Ġeconom ically
Ġadminist rator
Ġ3 47
ĠAlb any
l ength
M AY
ĠSt ream
ag ain
Ġ: =
79 4
d in
ĠM oney
ĠStre ng
stand ard
ĠD RA
ip es
ich ita
ber nes
ĠD re
Ġcoll apse
Ġv ow
ĠWe ap
Ġpri ze
Ġconsum ed
Ġt ension
ĠF ED
Ġl anes
ry pt
ĠBarn es
ĠH UN
Ġgr ande
t n
ew ay
W ORK
Ġincons istent
Ġn itrogen
99 7
Ġesp ec
Ġsc ulpt
ĠDEL IVERY
Ch arl
Ġto us
ĠD oll
0 31
atem ala
ĠM eyer
Ġrep ay
Ġsus pect
Ġp blic
Ġcomput ation
Ġcon fer
Ġbehavi ors
Ġp ad
Ġab ortion
f n
Ġn ull
ĠS aw
ĠC ec
ĠSt eph
writ ten
ot er
ĠProper ties
5 74
.. .,
7 35
ĠDisc ussion
IG AN
Reg ional
Ġsc ar
ier i
ĠBi ol
ĠC REEK
ib il
Ġabsol utely
B RA
R V
Ġdon ors
ol ith
ĠAnth rop
Ġpro ces
Ġbo ost
8 18
Ġh asta
st ar
ĠCh amp
Ġ( `
ab ilit
ĠCamp aign
ident ified
ĠK umar
Ġbre ath
or er
M Y
Ġme g
Ġh ired
Ġharm on
c ultural
Ġsal v
0 55
ĠK er
ind ividual
7 33
ĠT OR
Ġcomp rise
B re
UL AR
ba um
ll er
COUN TY
ĠD iet
agn etic
V EY
9 40
Ġappar atus
Ġ ic
IV ID
ĠUpd ate
201 8
ĠT ampa
ĠB JP
Ġev il
ĠPed ro
Ġrel ied
Res p
ĠRe in
Ġi h
ĠJ azz
erg us
ul ent
Ġgu est
Ġoff s
Ġb ore
ĠCh in
ĠHar per
ogene ous
Ġcollabor ative
r and
Ġsurg ery
Ġl ad
Ġimp ly
ĠF ul
Ġple asure
ah alli
ad al
ĠG ust
omm y
Ġaver aged
Ġpredomin antly
Ġfeel ings
ĠParticip ation
Ġj an
áĦ ĭ
Ġquestion naire
Ġp ag
0 45
ĠH at
Qu estion
ĠG ap
ĠTrans actions
Ġmer it
Ġfl ash
load s
ĠMod els
t ures
ĠAN G
ou x
uk i
ĠA hm
................................ ..............
ĠO C
ĠKn ox
v ens
7 90
________ ___
T w
ĠAd vert
Ġl ying
GR ESS
Ġcar riers
Ġhom eless
Ġtort ure
,, ,
Ġ18 76
sw ick
ĠMan uel
& &
Ġn an
put er
Ġsubs et
ia go
Ġtod os
Ġtell s
ĠFO OT
5 78
ĠF F
Ġper ipher
ing les
ĠRES EARCH
Ġalong side
Un ion
Ġdup lic
pat ient
es ian
ĠGen eration
Ġj et
ĠPar a
L ittle
Ġr uled
P resent
ĠAnt ar
ĠANN UAL
g ary
Ġwarm ing
ĠAcqu isition
5 47
h ome
Ġunc lear
d l
ĠL OVE
E UR
Ġterm inated
ang o
Ph ot
ĠY emen
J ew
Y ards
Ġpray er
Ġver te
ĠD ies
f g
Ġ18 67
0 75
W AL
d h
ĠP ts
Ġ3 41
oc y
ĠBe ijing
ose velt
Ġg ases
Ġqual ities
ĠDep os
19 14
Ġwar fare
ĠT on
Ġn t
ĠA UTHOR
Ġt ends
og l
Ġ6 50
0 44
ĠV egas
ich i
ĠGen e
p op
Ġout reach
ĠR ol
ĠDirect ory
Ġun necessary
ĠJ P
s ize
s outh
ĠT ropical
Ġrel ax
ĠEx ternal
Ġw orn
F N
Ġal ive
Ġflo ors
cont ributing
Ġeffic acy
5 69
z u
p c
ĠIndust ries
Ġinternational ly
99 2
ou rage
C ross
ĠComp rehensive
Ġ3 44
ĠPro ducer
Ġke ys
F all
\ \
ĠP ermanent
su pp
ier en
ĠW ASHINGTON
ĠFun ctions
uss els
oint ed
DU CT
6 32
ĠFle et
Ġ3 51
7 18
Ġ Ù
ĠAm sterdam
R ay
ĠGeorg etown
Ġliber ty
Ġdep uty
ĠG olf
ov ic
Ġ9 08
Arch itect
9 01
Ġachieve ments
Ġcomp osite
ards hip
ight ing
Ġ4 11
in ely
Ġg el
Mat r
Ġevolution ary
ĠS ou
et ition
Ġcou ples
Ġb arn
Ġdat as
Ġ Å
Ġav ant
Ġsu iv
n k
FER ENCES
0 42
Ġproport ional
7 39
ĠProble m
19 19
ĠIncre ase
ĠS olid
M ethod
ĠZ ion
Ġsuggest ion
B rad
en os
Ph one
Ġso it
J K
rac in
VAL ID
Ġpre y
ĠCent ers
Ġs odium
.. ,
ott age
Ġ3 43
Ġter ra
Ġle urs
Ag ric
vit ational
ĠMan aging
Ġgen es
Ġco aches
ost o
ĠC ities
Ġv ous
Ġbl ess
In cre
ĠR anch
Ġun like
ĠV ision
ĠH OL
ott a
5 79
en en
ĠTH AT
Ġsp ots
Ġdeep er
Ġ18 77
ĠProp ulsion
ĠTreas urer
Ġ18 73
Ġearthqu ake
Ġspeed s
Ġanten na
Ġam ort
Ġ ug
Ġupd ates
sch aft
Ġchalleng ed
Ġsophistic ated
ism ic
K h
ĠC N
ĠTo xic
d ependent
Ġdiscrim in
Ġelder ly
OM A
Ġpart ir
7 32
om ore
Comm ittee
ĠIran ian
ĠB attery
Ġu pp
ĠP ond
Ġbil ateral
18 00
Ġmar itime
Ġd alla
Ġ# :
ĠP OR
Ġsurround ed
Ġjust ification
ĠSc ript
Ġlos ing
ĠL AND
ĠWeb site
!!!! !!!!
ĠK AR
pl ain
ĠSh ore
Ġ9 78
Ġyour self
Ġaccum ulated
Ġce ase
Ġm aj
ut ter
Ġpl asma
ĠMin imum
Ġcl erk
hem atic
ĠL OS
ĠW iley
ĠTH IS
ĠD ocuments
ĠLOC AL
M ount
Ġter restrial
ĠSy nt
T est
ari us
ĠV ER
ĠEr ror
P B
vel opp
Ġdraw ings
Ġvent ral
Ġmon op
Ġabsor ption
ow e
Ġpurch asing
ential ly
IT I
ĠCH AND
ĠRod rig
" ,"
C rit
ator ial
ĠPract ices
D H
Ġto do
Ġqu ery
Ġsens or
ud er
Ġe fect
man agement
7 15
ĠT OWN
Ste ve
ite ment
d an
Ġfail ing
ress ions
The n
Ġk t
Con ference
Ġple ased
7 38
at is
ĠProfess ion
Ġ3 42
Ġdisc ourse
C ategory
u ments
Ġqual ification
o il
Ġexpl ored
ĠMarc us
Ġrepl acing
at an
ĠV irgin
ĠP ension
am ar
Ġm ice
p ub
h ma
ĠS ah
ĠL EV
Ġcomb ine
Ġsynt hesis
rel s
ĠS OL
Ġdist ant
ĠAbd ul
Ġent ers
ĠG rad
D ead
Ġis n
Ġnever theless
Ġfert il
Ġann iversary
ĠCon stitutional
P it
mont on
ĠW AS
Ġen erg
Ġleg s
Ġc ave
5 72
ĠT ower
Ġhigh lights
with in
Vol ume
ath s
ĠIN STIT
r k
Ġres cue
ĠL U
ĠF ol
8 90
Ġacqu is
W F
9 30
Ġbe ings
ĠElect rical
ĠG esch
Ġpractition ers
9 11
ĠS it
ĠF ahr
Ġattract ed
person al
Ġexp ir
Ġfre ely
Ġcr ude
Ġf inger
Ġ5 05
Ġsan ction
J oe
Ġf iring
ĠRes idential
Ġshe ep
et erm
ru gu
19 24
Ġsm art
Ġdevelop ers
Ġdefe at
Ġh its
Ġup grad
ival ent
Ġend angered
FOR E
j er
ĠP am
E ds
0 48
Ġo ak
Ġderiv ative
p ec
an ian
ĠR ica
Ġfeas ibility
Ġw ine
Ġappropri ation
et i
Ġelim ination
s d
Ġdif fers
Ġr ush
ĠO le
ind ers
T B
Ġsh aped
ale igh
ĠK yle
Ġp ier
ab ases
ĠC ODE
Stand ard
Ġcl ot
ĠS oph
ura ble
Ġsh ifts
ĠSh ar
Ġguid ed
ĠM EN
Ġa pl
ĠMonth ly
PR ES
Ġpass ive
y ar
Ġdis closed
uc ed
Ġ3 46
ĠL ANE
Ġ................................ ...................
Ġpain ting
L U
ĠOpp onent
ĠCharacter istics
obier no
l ass
? -
Ġd rag
F ollowing
II II
R h
Ġdirect ory
ĠW ATER
cont in
ĠGuid ance
ĠSo il
Ġbound ed
ib id
ĠO CT
J H
Ġ................................ ....................
pret ation
LE X
H istor
ĠBre ak
Ġmineral s
AT R
Ġe u
ĠT UR
ĠPun jab
w ig
ĠLic ense
rape utic
am ic
ĠD ays
Ġregul ate
with out
6 43
I RA
ĠVictor ian
ĠCONTR OL
ĠY ang
ĠExperiment al
Ġev id
ĠGr ass
ĠL inn
Ġlay out
ĠL R
Su pport
Ġint ellig
Ġ18 71
Ġc rack
pr us
sp ecial
V K
19 31
des ign
99 1
ĠNe igh
Ġp ens
ĠL ive
6 38
19 12
6 28
Ġwhere by
Ġclear ing
ĠP U
Ġinvest ed
Ġinteg rate
Ġreceip ts
ĠCAR E
85 2
s n
Ġas phalt
Ġ18 72
ĠC hel
Ġcomb ust
p rom
H ol
00 10
ĠH eld
ĠRoman ia
ĠDe ad
Ġrequest ing
ĠL ynch
ul in
EA ST
Ġ3 59
ĠRO Y
Ġ3 52
ĠL M
Ġ3 48
On ly
Ġtrad em
Ġven ue
ĠW C
Ġap artment
ĠS ons
rad io
ro cess
z ial
c ope
In come
im er
Ġden ote
B AN
ĠT ut
ine ment
ĠL ac
ĠSimp son
c ie
ĠH ait
ĠNov a
Ġ18 55
7 45
ĠAppropri ations
ĠN BC
Ġ4 16
Ġreb ounds
ĠGe ophys
Ġpil ots
Ġal c
Ġtact ical
Ġmet als
M iddle
ĠI celand
Ġsol ic
ĠCO URT
Ġbehavior al
spec ified
19 05
Ġtrem end
ĠProble ms
Ġing red
Ġinf o
Ġl ending
Ġgovern ed
ĠL OG
Ġsal aries
19 15
Ġg ast
oy le
Ġ3 77
ĠSym ph
ĠP f
................................ ...............
ĠBeng al
ĠM eh
Ġo scill
Ġ3 53
19 18
K en
Ġbre aking
Ġtick et
Ġblock ed
ĠT as
Ġemerg ence
mer o
el n
WHERE AS
s ocial
R a
ĠCont ent
p ara
ĠWe ber
AR IO
ĠRivers ide
im ir
Ġsk y
Ġre print
ĠL an
Ġre nder
8 66
ĠCHR IST
Ġmot ivation
Ġs ab
Ġextens ively
Ġimp ressive
9 78
r ific
ĠMat hematical
Ġsent enced
Ġr t
} ,
raul ic
ig ung
Ġmark ing
6 99
ĠConserv ative
ĠJeff rey
Ġst o
Ġfund ament
ĠH ab
Ġsupport ers
F red
ĠMIC HAEL
88 2
Ġefficient ly
Ġdiv ide
ĠUkrain ian
ide a
Ġref use
ĠC hes
Ġout line
ĠB ark
ch ing
el ia
Ġp ond
A ctions
en burg
Ġd ioxide
ĠRoberts on
6 76
Ġ9 73
ĠPalest ine
Ġgener ator
as hes
SK I
Ġprejud ice
Ġper taining
s ource
Ġl iver
B H
Ġ ich
ik es
Ġinvas ion
C LE
ĠW itness
Ġmig rants
ĠF IRST
tain ment
Ġj ournals
ĠPRO V
c over
ian i
ĠIm perial
ĠPlay ers
cl amation
Ġpass ion
Ġf ilt
ĠĠĠĠĠĠĠĠĠĠĠĠĠĠĠĠĠĠĠĠĠĠĠĠĠĠĠĠĠĠĠĠ ĠĠĠĠĠĠĠĠĠĠĠĠĠĠĠĠ
86 4
Ġse es
un ate
IT ER
M ET
ĠT L
ART ER
R EL
Ġdeliver ing
ĠO E
Ġth ou
ĠCl if
New s
6 48
ĠP AC
Ġh oles
ĠBe at
ĠĠĠĠĠĠĠĠĠĠĠĠ Ġ
G ro
89 8
ĠIN S
ĠP ere
ĠG OVERN
Ġhier archy
ĠMy ers
olog a
Ġcompet ence
ĠCh ampion
Ð° Ñ
MO ST
#### ####
ĠJama ica
ĠG y
ĠGr ande
ĠPe ak
re ts
ĠDirector ate
Ġpers istent
Ġfram es
Ġre ass
ol er
7 78
g ender
ĠM aking
ans k
ĠM EM
Ġtest ified
Ġ3 95
ĠMo z
orn o
DR ESS
z w
W ID
ĠMon roe
Ġlas er
l b
Ġser ial
19 16
Ġproblem atic
86 1
p ine
Ġsever ity
Ġclean ing
can ic
Ġaggress ive
ĠB od
Ġ3 56
Ġvulner ability
Ġsp ouse
ri ages
89 5
Ġimpl ied
Ġh ay
Ġy d
7 37
u ity
Ġpo ison
000 9
ĠD in
t ions
0 46
ra cks
OT S
Ġmain stream
! (
Ġster e
ĠV ar
Ġsp here
Ġaffili ation
mir al
ĠC HE
ĠPat ricia
ĠT anzania
7 22
Ġd rew
L iber
Ġcontem pl
Ġg es
ĠB il
Ġcontin ental
ĠC row
leg raph
ĠV ert
ĠP oor
ĠNeg ro
d ivision
ah u
ĠP EN
Ġe g
ĠPat ri
Ġroll ing
Ġass ure
ĠS OCI
Ġro ws
Ġdisc rete
ree ments
Ġst adium
at ore
ĠPl ains
CH A
roph y
ĠD um
UL ATION
ad ows
ues e
ber to
ĠR ena
B RO
Ġar ises
H isp
B ank
Ġeth ics
Ġbus y
ĠIdent ification
L arge
Ġ3 57
ĠW alt
Ġsuccess or
0 66
ĠPL ACES
Ġun anim
Ġed itors
ĠB IR
ĠCP I
6 39
ut on
ĠCount ies
ĠCl are
Ġfa ade
ĠBO OK
Ġrepl ied
Ġprof ound
ur it
ĠCar p
ob acter
C all
ĠN AR
Ġbr ig
M AL
med ia
art s
ĠI ce
Ġli bert
Ġ3 54
19 23
0 41
iss ues
Ġconsult ant
19 17
Ġsqu ad
Ġot ros
Ġdur ante
c ock
ĠBl ood
ĠMar x
sc ar
Ġj unction
ĠP ic
af ety
MIN ISTR
> .
Ġsurv iving
ĠScholars hip
or row
ĠR ing
Ġopp onents
ĠSum mit
7 24
ĠF ors
ab we
Ġper f
Ġfound er
Ġdram atically
om ers
IT IONS
Ñģ Ðº
ĠLu ke
Ġinstrument al
ĠK end
20 20
Ass istant
um i
ot ten
ĠS urg
Ġcompl ain
L ee
m and
Ġc ere
ĠE FF
19 27
Cap ital
ĠSe lection
Bu ilder
H ill
6 22
ist le
Ġser a
AN TS
resp ons
Ġthough ts
Ġsel on
................................ ................
Ġ................................ ......................
K ER
AD D
ĠL amb
man y
n al
ĠF RE
ĠV ers
Ġf are
Ġ4 06
Ġ4 70
Ġ3 79
inf o
un ion
Ġrecogn izes
Ġeditor ial
Ġst ayed
ĠSHE ET
Ġrespect s
h om
Ġ4 12
ĠN AS
ari as
iff e
ĠM OH
ĠImm igration
at ri
Ġpl ots
88 5
OUR NAL
ĠSett lement
7 16
Ġdes ert
CH N
6 44
Ġelev ations
ĠP ERSON
ĠR af
19 04
art a
Ġmed al
Ġs ow
Ġl obby
qu et
ĠO PP
ĠFrequ ency
Jos eph
áĦĭ áħ
99 3
roll ing
ĠJohn ny
ag ency
not es
ĠW V
othe rapy
m ult
C omb
6 47
ĠSe ven
M CA
86 2
ĠK H
ch ant
Ġfall en
Ġretain s
ĠSTAT US
J UN
Ġag rees
Ġreal istic
D EP
Ġp obl
Ġre pos
ell ites
onn ie
ĠK ING
ĠSol omon
ĠArch aeology
st reet
Ġany where
Ġb aby
Ġtransform ed
B h
Ġinf l
Ġins ects
8 13
ĠVal ues
C ast
rib u
Ġbor ne
Ġcirc a
Ġ4 07
a es
ĠTRAN SPORT
ĠP ASS
ĠH Y
ĠWH ITE
ĠIll ust
Un it
ã ĥ
ĠIt ems
ars ity
OS P
E th
ĠVander bilt
ITTE E
ĠF iles
r ina
m il
Ġfa ire
AN TA
ĠAffili ation
on io
Ġse q
Ġs weet
Ġgr at
ĠM ines
Æ Ĵ
Ġread iness
Ġdefe ated
ad minist
Ġ3 58
C ouncil
u ated
ĠK ash
Ġcont amin
Ġlect ures
Ġ* **
ĠTr in
Ġunivers e
Ġsurv ived
ĠNurs ing
ĠErn est
Ġfor um
V EST
F X
Ġcomp ute
ar us
6 46
Pro perty
Ġv oid
Ġtra ils
S at
ĠNe il
ib ia
le z
ear ly
ĠStock holm
ĠRO UTE
L ife
7 19
x t
ĠP LA
ĠUnder standing
ith metic
ĠC otton
od ay
ĠPartn ers
ĠM ile
ĠN amed
Ġsynd rome
Ġclass ic
ia ceae
ĠEthiop ia
e fficient
ist on
9 75
Î ĳ
ĠBound ary
el ed
ĠA way
Ġ ------
he e
Ġsu ite
Ġaud itor
u ador
ĠCompl iance
sm all
ong ue
oss ary
ĠSc ale
ĠE arn
ĠW ien
Ġliquid ity
T enn
w atch
ĠConf lict
Ġd ental
Ġ................................ .....................
ĠOrgan izations
aj i
Ġgra ce
89 2
ĠCon cept
in ced
ĠAdd s
ĠDay ton
at ro
Ġl od
ALL Y
ĠW K
ous ing
Sh ort
Ġfru its
p rop
re ck
ĠCole man
Or iginal
Rad io
Ġpat ri
Ġens ures
ĠArchitect ural
H y
ĠL V
CL US
claim ed
0 47
Ġse venth
i est
ĠPres byterian
ĠN AV
Ġbeaut y
ĠAh med
ĠINTER NATIONAL
Al b
ĠD rew
ĠComb ined
ĠC IR
ĠH amb
Ġpet roleum
OU GH
6 78
Ġat omic
7 28
Reg istration
19 08
ĠAll ah
osp ace
Ġappro ached
Ġpros pects
h ig
ĠF actors
Ġcent ered
ĠLes lie
ĠAn im
ESS ION
ĠComb at
Ġround s
F ACE
S n
ure n
e ach
ĠG T
Ġhop ed
7 23
Ġobserv ers
Ġciv ic
Ġmem orandum
M W
isc opal
gr ass
p her
Ġsc al
Ġe ating
SO UR
ĠDev ice
6 34
Ġl ith
ĠM ik
Ġm oy
ut il
Ġthere in
ĠInd ependence
ĠBry ant
85 3
or p
N atural
Pers ons
Ġplant ing
Ġproport ions
ĠL or
le ys
ort ium
ĠP ont
UT IVE
ĠB ACK
Ġadv ise
Ġl ac
05 1
s ince
K OR
che ck
Ġcontribut es
Ġrock et
s in
ĠM idd
ĠC edar
Ġb h
Bo ard
Ġform ul
Ġfire arms
un o
ĠQue bec
X Y
Ġs yst
Ġinter active
IS M
Ġod d
Ġbud gets
Ġ3 67
89 6
Ġtal ks
B EL
ig nty
Ġs ad
Ġadv ocate
ĠWesley an
EE K
Rev ised
Ġfisher y
ĠNort heast
Ġrespond ing
d x
ĠC ord
ĠA zerbai
qu ist
ĠOR GAN
Ġneg lect
ag i
nt e
PP PP
ici os
Ġh orn
Ġ18 30
Ġmot iv
Ġqual itative
ĠL GT
6 42
Ġcub ic
Ġ5 20
Ġcor ps
86 3
Ġdies el
Ġ4 14
6 69
TE X
Ġappreci ate
ĠPl aint
Ġfore casts
ĠH abitat
Dist ribution
ot ics
is ure
05 2
Ġre imburse
ĠK M
second ary
Bl ue
rif ice
ĠS ad
Ġurg ent
ĠÐ º
19 13
ĠMil ton
Ġapp endix
Ġnav ig
ĠMin utes
ĠACT IV
Ġs q
ĠB order
Ġart illery
C y
ĠAr r
S eries
Ġres on
Ġenhance ment
- |
c ore
Ġfl ights
Ġint im
ĠFa ith
az ines
ĠCont emporary
Ġspecial ists
ĠAl ger
ĠDo ct
) '
Ġpun ct
us er
Ġ4 60
Ġwe igh
ĠGE ORGE
cy cle
98 1
You ng
Ġcould n
b usiness
Hen ry
ĠT rent
09 3
Ġpresent ing
Ġtick ets
/ ,
Ġlong itudinal
Ġamb ient
Ġcoal ition
8 12
ON A
Ġtempor arily
Ġt elling
19 26
Ġpar adig
19 21
ĠSl oven
ĠF DA
ĠRe id
rict ion
Ġplan et
et us
ĠL AL
Ġdes cent
08 1
Sc ience
Ġgra zing
ĠEll en
Ġdr ives
st age
Ġquarter ly
Ġm ammals
rit o
Ġme al
ons ored
Ġec ology
ĠWag ner
ĠDO E
Ġwonder ful
Ġconstra int
Ġ[ ...]
6 77
M u
f igure
ic ul
ĠA ST
ĠVis ual
ĠRel ief
09 5
85 1
Ġcontinu ity
ĠS IG
l oy
9 16
res earch
ĠJackson ville
m ica
Ġdismiss ed
c amp
E arly
ĠTol edo
h ouses
ER ING
Ġannounce ment
Ġdecl ining
Ġst rain
Ġpropos ition
6 79
establ ished
Q V
ĠEDUC ATION
phas is
re view
ĠH od
ĠN G
98 7
ĠF ocus
ĠRO BERT
ĠP G
Ġf olk
05 7
J ac
ĠB ILL
Ġs ep
leg al
P rop
UM ENT
06 1
ĠHe ath
86 7
Ġdom ains
Ġcommand ers
ig s
09 1
d atabase
Ġauthor ised
ĠEl m
un to
P ubl
ĠP AGE
Sever al
Chair man
Ġharm ful
N U
6 31
Ġout door
ĠB ec
ch s
F ellow
OT O
IAN A
Ġwhe at
Ġde ceased
ĠReserv oir
P K
Ġa est
ĠJ ur
Ġcoin cid
Ġ00 01
Ġfr ust
Ġsimilar ity
Ġsuccess ive
Ġtarget ing
Ġsold ier
08 4
Ġbase ball
Ġdeleg ates
ĠA part
ors o
J C
ĠR EM
Ġem p
ingu ished
ĠIn stitutional
Ġbenefici aries
act ic
ĠPRO JECT
ĠH ass
Ġint roducing
d uring
Ġpure ly
atche wan
ĠD V
Ġ3 69
ĠA Y
sc ri
ĠS ey
con c
ĠW r
ĠPA UL
h aw
R iver
the m
Ġmet ropolitan
K EN
ĠC es
19 01
ĠBulg aria
Ġnot ing
08 5
Ġutil ize
I UM
Ġdiss olved
ĠK L
Ġ7 32
ĠTurn out
ĠN IL
Ġ ud
E ED
ĠB our
IP ORT
on ge
ian ces
cl er
ĠGreen e
car bon
, âĢĿ
O t
Ġmiss iles
ĠInt el
ĠElect oral
ĠGib son
writ ing
S ar
7 47
08 3
8 11
Ġman eu
ĠX avier
Pro duct
al er
Ġcongress ional
ĠW als
ĠHol mes
rop y
Ġemer ge
ann ers
Ġve z
Ġp s
ĠGe ology
ĠAm y
Ġpresent e
ĠSch midt
ch in
L at
06 4
all ow
Ġman a
Ġ3 73
ĠPrem ier
N OV
ĠCirc le
Ġtra ject
ĠHay es
Ġasc ertain
Ġcult ivation
ĠU H
Ġdifferent ly
ĠJ unction
ĠE fficiency
05 3
Ġm ars
am as
7 26
G reg
ĠMA IN
Ġs ke
ĠK lein
it ance
Ġen rol
Ġbor ough
Ġappear ing
ĠG AR
ĠAppro ved
akh stan
Ġiniti ate
Ġdet ained
ĠJ OS
Ġaer ial
ĠPan ama
8 65
ĠG ent
Ġestabl ishes
ast ics
ĠTra in
imb abwe
Ġaut res
st s
Ġproced ural
7 34
ĠK re
ĠR is
Ġmoist ure
j es
Ġpr sent
Ġc raft
ĠK om
f ull
ĠN UM
Ġst amp
Ġm ari
Ġdig it
Ġhar assment
Ġun changed
Ġwork place
qu ier
in itions
Ġexch anges
ĠC AT
ort on
Ġ$ $
vers ion
ĠRoad s
Ġinflu ential
per cent
Ġden y
ĠNut rition
ach i
Ġmet eor
Ġ4 36
cept ive
Ġdecor ative
an al
Ġ3 61
ĠJ UD
Ġenh ancing
ĠGard ens
Ġnational ity
Ġ3 88
ĠO st
7 44
Ġcond itional
ĠLe o
UL ES
d ing
ri eb
Ġcapac ities
v ir
Brit ish
ĠK u
Ġfell ows
ĠCon stant
Ġparliament ary
Ġc ens
ĠK w
Ġb und
Ġbroad band
Ġfresh water
ĠS IL
ĠC rist
Ġgradu ation
Ġpick ed
V ERS
Ġwas t
Ġpresum ably
Ġrem edy
Ġl ing
Ġun successful
ĠMc Donald
ĠL AN
85 4
ett es
h arm
Ġ3 89
Ġv ern
Ġsed iments
Ġto ile
8 16
Ġtouchdown s
Ġcir cles
Ġmot ivated
Ġfound ing
ass ic
6 68
Ġm uy
Ġplaint iff
and al
ĠIm pl
Ġaut onomy
Ġp estic
Ġsur prise
act ivity
Ġr anged
Ġ18 57
ĠEx isting
U ARY
ra ising
ĠMaur ice
Ġpo inter
Ġet t
Ġ3 99
ĠL ack
Ġdec ay
Ġsh ots
Ġwe aken
ch ard
ĠK O
ĠRES P
Ġtro is
J T
8 15
Ġform ats
6 49
ĠSM ITH
G re
Ġdiscipl ines
ĠF erry
Ġcon ventions
ĠN F
Ġdwell ings
Ġinter medi
Ġpurs ued
H UN
Ġb old
Ġiss uing
h ost
ĠPet roleum
Ġ3 71
OR G
oub ted
ĠEN T
T ri
Ġdecl are
0 43
Ġein en
Ġpat ron
ĠW end
Ġpar ap
ĠStre ets
ĠG W
OP P
Ġdecre asing
ĠTerm s
Ġ. "
ĠH L
ĠPh armac
ĠD G
Ġoutput s
Ab out
ÏĦ Î±
B IN
ĠT I
iat ry
ĠGl ass
7 48
Ġ( %
ere es
ell ers
f ill
ĠR AMP
C ond
V O
Ġpat rol
S ah
b efore
IT Z
05 4
ĠS EP
Ġevalu ations
andid ates
06 2
ĠTerm inal
L ED
Ġmitig ate
ra k
ĠInd igenous
ĠCH N
Ġbench mark
B s
Ġhuman ity
ĠW S
ĠRA J
ĠFOOT BALL
Bas ic
Ġmov ie
cept ed
ĠX II
Ġ00 1
Ġtem ple
âĢ¢ âĢ¢
-------- --
Ġconv inced
ĠN ormal
ĠZe it
E nergy
Ġun to
ĠSpec ifically
( '
ax is
ĠFl u
Ġgu ess
p ace
PRO D
Ġassign ments
Ġsaf ely
i ott
Ġrecip ients
9 33
B G
Ġtro ut
Ġcirc uits
Ġt anto
ĠAl gebra
ĠAud itor
Ġimp art
Ġpack et
ĠRob in
7 46
z ig
ĠV ILL
ĠAhm ad
ĠD Q
Ġf en
ĠImp acts
Ġsem ester
ble m
l r
Cl ark
Ġ Ø
ĠH earing
ĠSt rat
Ġpolit icians
ĠBrun swick
Ġtra its
Ġmo is
E vent
Ġaffili ated
Ġm akers
uel le
Ġcon vex
ã Ģ
Ġvis itor
fri end
ric o
ĠInter face
H IGH
ĠOper ated
Ġ____ __
Ġqu int
ĠP owers
ast y
Ġ% )
Ġende av
th irds
Ġalter ations
En vironmental
ĠB rent
ĠMet eor
at om
ĠTC U
Ġda ughters
Ġbreak down
ĠARE A
! '
p ack
Ġplant ed
ĠCh ase
Ġlic enses
Ġpos ed
Ġcomprom ise
Ġext ensions
ĠL ep
Ġsub stitution
ĠRo osevelt
Ġdiscip linary
is dom
ĠCamb odia
ĠGre ens
ĠJo an
ĠL ook
ĠRob b
ĠProgram ming
CON S
Ġam munition
f am
ĠPat tern
Ġd ream
Ġtradition ally
Ġk ids
IS O
S us
Ġreported ly
ĠOut put
W M
T ITLE
Ġoverl ap
ĠComput ing
C arl
09 6
Ġsuccess ion
Ġadvers ely
Pl ay
Rel ationship
am n
Ġal ert
H and
Ġassert ed
Ġpa ired
Ġcor related
ĠFor ward
Ġsh ar
ĠPl at
Ġsing ular
Ġ3 66
sc ience
Am ong
88 7
Ġrep airs
Ġle ak
ĠForest ry
ĠL G
ĠMaur it
cons ider
ĠFil ed
ĠK uwait
Ġsol ving
Ġcong estion
A ud
Ġ................................ .........................
Ġob jet
Ġun expected
P AT
Ġnumber ed
Q D
Ġb ull
Ġrespir atory
06 3
ĠRand y
whe ther
z ero
C HE
Ġfit ted
ied ad
ĠFl ag
Ġ: :
H ig
0 49
L IC
6 73
ot ers
ne a
ĠSal em
Ġver bal
IST S
ĠC rawford
Ġ3 68
Ġdipl omatic
Ġal igned
Ġs s
Ġpo etry
Ġorient ed
Ġg ifts
ik ip
Ġhear ings
p end
ĠB ever
Ġins ights
lu ent
iz on
Ġcost ly
Ġlegit im
7 29
+ ,
ia g
Ġmin isters
Ġdedu ct
ĠU TC
F IRST
3 000
ĠSpec ification
ĠN BA
Ġesp ecial
ĠInst all
per m
ad just
Ġconsequ ently
Ġa j
A p
ard e
ĠT P
Hisp anic
t rad
Ġdiscuss ing
Ġt in
Ġu k
ĠField s
6 41
Ġtrib e
Ġcommence ment
Ġfurn ished
Ġdist ress
c op
w adi
ar ound
Ġib id
Ġlar vae
Second ary
ĠF act
ord en
Ġinc omes
Ġvis ibility
Ġref eree
Ġmer ger
ĠOr thodox
ĠTown s
8 17
88 1
th ose
I bid
b at
Ġp t
ĠS ale
Ġ3 000
BER G
Ġe con
f d
19 22
ĠR OCK
P ress
ĠOr lando
Ġdispl aced
ĠUND ER
Ġv id
b eg
Ġch ains
Ġlist ening
Ġsupp ose
Ġsh ops
Ġbelong s
ĠL GB
ĠN iger
ĠAchieve ment
Ġj ail
Ġreg iment
SO UTH
U J
Ġrec alled
Ġshould er
Ġcheck ing
ĠCh an
w alk
ry ption
Ġcol ony
ĠHer b
ren ces
ier on
Ġc emetery
ins ic
ĠC LE
ĠE agle
Ġf ont
for cing
v id
class ified
???? ????
ĠLex ington
Ġ3 81
o qu
čĠĠčĠĠčĠĠčĠĠčĠĠčĠĠčĠĠčĠĠ čĠĠčĠĠčĠĠčĠĠčĠĠčĠĠčĠĠčĠĠ
Ġqu adr
f act
ran o
Cent er
CH AR
Ġ4 24
u q
Ġ18 59
ĠDAV ID
ĠD ip
ICE F
ĠG PS
ell ation
Person al
C OR
Ġper ce
ĠEnd e
Ġ8 02
Ġv oy
ĠAV G
Ġwithd rawn
H all
Camb ridge
c ro
89 4
ia o
Ġd onde
08 9
ĠCert ification
ĠBur ke
ĠR ib
Ġrun off
up on
Ġdiscuss es
Ġc et
roof ed
rugu ay
ĠCl a
ou ds
0 65
ĠAg encies
ĠGerm ans
19 11
Ġv iv
Ġ0 11
ĠO ptions
Ġwire less
Ġf ought
8 55
ĠSom alia
ĠChap man
ĠJer emy
Ġ9 90
Ġ3 64
Ġ5 000
X I
ĠC risis
Ġcon cludes
Ġunlaw ful
ĠBar cel
Ġele ven
ĠAut om
Ġprim itive
Ġlabor atories
it as
ĠBL ACK
ID AE
n ah
ĠNetwork s
ĠWaters hed
Ġcoh ort
Ġexcell ence
st ore
Ġup ward
ĠOw en
ig i
C ODE
Ġ( (
ĠL odge
Ġviol ated
Ġassemb led
Ġserv ants
ĠDeut sch
Gold enes
otechn ology
S AT
Ġe k
Ġperform s
Ġof the
Ġprison er
Ġres ort
ĠConf ed
Ġpres idential
ga on
ĠMembers hips
ĠE g
Ġcod ing
ad ier
F ile
ll ll
C at
On ce
Ġf ence
Ġ3 72
ĠPresident ial
k el
m embers
8 48
ĠEx c
part icular
Ġmay be
Ġgen ital
7 36
ĠS tern
Ġselect ing
rupt cy
Ġ3 78
Opp onent
Ġtalk ed
N ASA
k ill
ĠPs N
UL D
Ġe leg
09 2
Ġfor cing
ĠBenef it
ĠMig uel
Ġ4 35
Ġburn ed
Ġsol icit
, )
Ġmem orial
ĠRef eree
ĠMin n
Ġadvoc acy
ath lete
ĠG and
8 35
W rite
88 6
Ġp ix
e ight
ĠPeters burg
omen cl
ĠTH OMAS
F rench
ĠF ixed
ĠD ictionary
88 3
ĠSu ff
ĠTim othy
* .
ĠMos es
Ġg amb
Ġcontrovers y
A rizona
disc iplinary
he a
O cc
ph p
ETA IL
ĠV lad
o ons
06 7
AL D
ĠBer gen
erequis ite
ĠT OP
Year s
ĠBron ze
ĠF ame
8 28
OH NS
JP N
enc in
c ard
C irc
ĠAl umni
Ġconf ident
T s
Ġhost ed
0 56
rest ricted
ĠK as
ĠUs ed
ĠFre eman
b eck
7 21
ĠC ret
08 8
ĠJohn ston
Ġt el
Ġmem or
Ġrel iance
h yd
Ġpresent ly
Ġd f
ĠA UST
tt ar
7 99
Ġ3 76
Ġcomb ining
Ġo wing
ur ia
Ġass im
Wh o
Ġperman ently
Ġpeace ful
08 6
M ag
ĠS id
ĠMar itime
ĠN U
Ġn iveau
ĠTrib al
h ang
6 74
ar in
und e
Ġg ew
ĠM otion
it ated
R oute
end ments
L F
Ã ¦
ĠAC M
ĠAlexand ria
Ġ11 00
ato on
GA O
Ġcu ando
AD EM
Ġinstruct or
Ġn ons
Ġd ys
ĠBl ake
ĠW inn
ĠChall enge
K C
US H
cl ock
Ġan xiety
Ġcolon ies
9 15
ĠChristian ity
ĠC ult
Ġsu pre
Ġhon our
ĠP ars
8 45
Ġpat ch
b ad
enn ess
ĠGu atemala
Ġm ath
ĠH OME
Ġath letic
C ur
Col orado
8 14
IF F
8 78
n ant
ĠSupervis or
t ri
Ġb ir
Ġh ire
B ow
Ġfr anc
Ġt ait
UT HER
ĠN atal
ĠAN AL
Ġst ressed
. _
ĠAmb assador
if inals
K ent
Ġper ceptions
j j
ĠL uxembourg
ĠJ PN
ĠUnivers idad
SE X
ĠAb sent
Ġappropri ations
Ġcomp ulsory
N ick
ĠM olecular
09 4
Ġb arg
Ġ3 63
ĠK A
Ġ3 84
9 66
R eal
ĠPl ain
T i
ĠL ines
D ocument
vo ir
Ġin te
Ġn y
ai i
Ġsched ules
ĠC ases
ĠP u
Ġexhib its
89 1
Ġmy th
S ir
Ġa h
ĠFe at
uc ks
ĠDem ocracy
7 31
ĠFlore nce
ĠPaul o
les h
Ġend ors
M it
ri ents
ĠLuc as
ĠâĢ Ļ
88 4
ĠPet e
ĠCap itol
Ġang les
al in
ĠN agar
ĠN ak
................................ .................
ĠLiver pool
G a
Ġmet a
VIR ON
Ġc her
ĠR ams
H istoric
ĠMah ar
bl ack
in duced
ĠE H
ig ue
on na
port ed
ĠAt hens
qu i
ĠP ant
ĠB eyond
Ġcomput ational
Ġsub missions
Ġimpact ed
B est
ay n
ĠPros ecut
Ġroy al
Ġ5 30
l ate
ash a
Ġt urt
ĠSt op
Ġab bre
ĠUn like
08 2
e lection
L im
Y Y
Ġsett le
Ġdist ribute
6 71
ĠP ain
DQ G
ĠDevelop ing
Ġ4 18
____________ __
Ġn eck
Ġe i
re nder
ĠC od
Ġperson as
Reg ion
9 17
ĠR BI
J OHN
ĠL ed
ob s
Ġdeb ut
ir ates
ĠT ypes
Ġ................................ ..........................
Ġmorph ology
89 3
oll en
Ġrenew ed
I H
Ġsim ulations
LA W
Ġel ite
| -
ĠF ergus
R oman
A sh
ox y
Ġm ul
ĠP ip
Ġpart ie
98 4
Ġprohib it
Ġd or
ub ec
Ġpropos es
Ġtru cks
Ġo h
Ġr ings
Po ints
0 59
av ia
Ġgrate ful
ĠP overty
ĠD rag
ott est
ĠCompar ative
ĠL TD
R AD
as ia
Phil adelphia
7 76
ĠPat ent
stitut ing
Ġstri p
9 48
8 21
Ġprocess ors
Ġs igu
ĠR OS
ĠRet rieved
he y
L OC
98 2
Re qu
Ġ3 62
Ġwrit ings
ĠEd win
6 72
SE E
at l
ĠPubl ishers
Ġgenu ine
Ġd h
Ġ6 01
ĠR P
ĠLect ure
ĠBro s
ĠR ush
Ġ3 86
Ġdat abases
ĠOrdin ance
ed ition
Ġvoc ational
8 38
w rite
Ġsp ir
elect ric
Ġ................................ ........................
ĠPil ot
Ġ3 83
le wood
ĠT RE
Ar my
ĠTam il
Ġcross ed
Ġ4 23
Al tern
Ġk w
ance ment
Ġcompet itions
W alk
Pl an
Ġhold ings
B udget
oc hemical
Ġ4 21
Mex ico
ĠH yp
Ġatt ach
report ed
Ġpen al
ĠAll ied
ic ates
................................ ..................
Ġpack ages
il us
ĠGi ants
Ġprivile ges
ĠP itt
Ġel ong
ĠSTAT ISTICS
Ġbure auc
ĠCy prus
S om
ĠR H
ĠR CA
Ġorgan ize
ĠD w
Ġcr ash
Ġobst acles
ol utions
Ġsist ema
oubted ly
ĠF ailure
ĠRE AD
Ġshif ted
8 24
im os
Ġsubstant ive
Ġd rought
it et
FIN AL
id ency
89 7
ĠGe off
ĠB in
8 77
th y
W ay
Ġg olf
nt on
Ill inois
Ġexplo it
Ġsid ew
ĠMed aille
Ġmerch ant
ch arset
Ġair plane
ĠEgypt ian
09 7
Ġaccum ulation
ĠCal gary
L ead
Ġliv elihood
D IVISION
. âĢĶ
ĠW oman
Ġk ann
Ġdispl acement
Ġmar sh
w ald
am med
Ġ3 93
Ġimp ed
l m
ong s
ĠN ach
Ġsign ing
Ġadj o
CH ER
os lov
Ġprom ised
Ġ5 25
Ġpar c
ĠN AT
ĠM end
ĠJ D
ĠP seud
Ġhoriz on
Ġst roke
ic ultural
0 58
Ġart if
09 8
ĠD art
ĠEnter tainment
ri ans
ĠL S
Ġ3 74
19 06
ĠPost al
ĠDes ert
O I
g mail
work ing
l ung
Ġtremend ous
er ra
Oper ated
Ġa thletics
ĠO M
al am
ĠSh ares
____________ _
ĠEd monton
omorph ism
op o
% -
Ġsix ty
ou rag
ĠAccess ed
Y ork
is ations
Ġprom ising
ÏĦ Î·
Ġr ival
pro portion
ĠB ath
ir an
R X
Ġm uj
ale y
is ka
AM I
< /
Ġselect ive
Ġroad way
Ġsec ular
ĠK i
O pt
Ġh opes
Ġinvestig ating
ĠRh odes
ĠInteg ration
ĠP t
alach ian
ĠFe atures
ĠV IR
UN ITED
int a
Ġleg end
ica id
ĠExp enses
icon duct
Ġ18 58
ĠWest minster
ĠS hen
ch lor
8 29
ĠS UP
Ġ4 27
gen er
ĠM th
p ract
re cht
ĠMaj esty
Ġpract icable
ist en
Ġcan on
Gra de
8 58
Ġcount ing
ect ious
Ġup grade
D a
Ġop ens
pdf plus
ĠMc Cl
t ail
ne ider
ĠN umer
tt a
K AR
Ġentreprene urs
7 49
ĠBase ball
ĠL ap
BR IDGE
Ġdu ly
Ġvol unt
w t
ick ed
Ġgrant ing
Ġ4 32
ott i
Ġappoint ments
Ġder ive
uck land
accept TC
Sen ior
Ġas ymmet
ous ands
ĠL anguages
V T
AC S
Ġexpect ation
ĠRecommend ation
Ġra ises
n h
im an
Ġ18 54
Ġ4 51
Ġreprodu ced
Ġt orn
ob serv
Ġval ve
Ġcol ors
ou cester
Ġend orse
Ital y
v v
che ster
"""" """"
ight ed
ĠPatt erson
ros se
Us ing
Ġlabel ed
ĠV ass
v on
Ġmind s
Ġorganiz ing
Ġcho osing
Ġz o
Ġsupervis or
ĠAr ms
Ġver ified
W T
00 11
D om
Ġdep ths
V H
ĠM ales
gi ene
f if
ĠR aw
Ġal umni
ĠC in
................................ .....................
ĠUS SR
ĠJ CT
l arge
ĠEstim ated
9 14
9 24
pe z
Ġactiv ists
as hed
Ġ3 96
Ġgraph s
ĠP AP
ch air
qu arter
Ġbut ter
Ġh ij
Ġneighborhood s
ĠDE V
ĠBer ry
Ġinter f
ĠEmploy ees
Ġl ors
y ah
ĠAM ER
IP P
ar b
UC N
Ġprev ailing
ĠSom erset
Ġloc ate
vi ii
j ed
US D
Ġl ob
Ġco ffee
lect ions
isse ment
Ġco aching
ĠWh ich
Med ia
ell ate
Ġdepos ition
Ġexc iting
8 26
ĠMar quette
Ġd inner
Ġf ever
Ġtele communications
ia k
ĠM ons
ĠSe qu
Ġimportant ly
oc ese
Ġscrut iny
AC Y
ĠH T
ĠB IG
b c
Ġcorrect ed
Ġdefin ite
Ġ3 97
quer que
Ġpul se
Ġdissem ination
ĠN eb
L AB
ĠBos nia
Ġrel uct
Ġjud gments
ĠMA H
Ġr d
c ross
B road
čĠĠ čĠ
ela ide
S ingle
Ġresol utions
ĠElectric ity
Ġob server
ouver nement
ĠM F
B ay
Ġsl aves
Ġunf air
Ġen em
Ġcycl one
m illion
ri le
ĠTW O
col m
ĠB un
c io
abul ary
ĠSeg ment
Ġatt achment
om ent
ĠH erald
Ġind ices
F re
l ined
Ġres igned
ĠImp lement
ĠH av
ĠAr bit
ERS H
RIB UTION
ĠC able
Ġfar mer
Ġpron ounced
ĠN L
s ame
ĠMark ets
ĠOp inion
Ġ4 90
ĠD ire
isto ire
ĠMc D
Ġoverwhel ming
'' .
c ertain
0 78
ĠM ang
Ġte en
Ġperm iss
ĠGriff in
ĠPRO F
ĠAl leg
Ġcouncil s
MAN N
Ġc ow
ĠBund es
ut ics
Ġde er
Ġal ign
ros ion
le igh
Ġmass es
V ED
Ġins ect
IV ING
m akers
Ġsupp lier
Eng ine
Ġ4 75
Ġ3 87
Ġin appropriate
Ġcomm issions
Ġcomp an
Ġred und
app a
Ġrespect ed
J J
Ġgu ests
Ġcoll ateral
Ġautom ated
om ination
u ram
ĠVern on
ĠST AND
erv ille
Ġst uff
AR S
Ġadminist rators
ib i
OS H
Ġinspect ions
aren ce
u ate
Ġmat ched
ĠSk ills
Ġ ________________________________________________________________
n ance
t itle
ĠON LY
19 09
ĠCom pos
Ġad mit
08 7
ĠSw imming
p al
Ġy ang
ynch ron
ateg ories
Ġ18 48
ok o
ĠN an
ĠW O
Ġt ended
ĠFr aser
Ġthorough ly
0 79
P an
ol ation
ĠM oss
ter min
Ġpresent ations
y k
Ġtransport ed
Ġin aug
Ġrestruct uring
Ġatt ained
aw an
9 55
M OD
Ð¾ Ñ
ikip edia
develop ed
D IS
Ġsupport ive
ben ef
m ag
Ġ4 33
ĠSPEC IAL
A x
Ġell ip
ĠEll iott
Ġt ram
ĠC rew
ĠOR D
Ġplace bo
N AT
d ou
in j
ĠM ARY
Ġcomfort able
ĠCa uc
9 45
Ġk ernel
Ġr hyth
ĠS ID
Ġ18 56
ĠBarcel ona
Ġchart s
ĠBank ing
Ġconfirm ation
p ayer
Ġ................................ .......................
ĠFl at
l f
ĠR i
ĠT T
ĠI RS
ĠIn put
ĠL AT
m is
Ġa rose
ĠHam pton
Tra ffic
Ġreg imes
Ġ4 22
Ġpat ents
Ġmis conduct
amer ican
D ig
j k
98 3
ib a
ĠJ ak
Ġm b
ĠD IVISION
Ġdown load
ĠT ru
ĠPrior ity
ĠSh uttle
pdf acceptTC
osp here
el en
TE AM
Ġ18 53
Y ds
ĠAir lines
Fore ign
Ġcontract ual
V ery
ĠB rick
ĠPrep ared
Ġlo ose
ĠH AL
16 00
ĠLoy ola
vel ength
are z
ĠDis p
Ġam bit
Ġref und
ish a
ĠK N
ra il
ĠTh ai
ĠMess age
Comp any
struct ure
Ġbro ker
Ġmoment um
Ġrein forced
B all
ĠAn ch
H N
Ġp ushed
ĠRock y
cont ent
L ight
O ffic
ĠW ool
ns ic
9 29
ĠSe venth
we b
equ al
ĠG ast
AK ER
Ġtravel ing
Sm all
Ġsp awn
ĠP oss
am pton
iling ual
b earing
ĠJo el
id an
oc hemistry
19 07
A ction
ĠCOMP ANY
ab olic
T aylor
Ġstrengthen ed
ĠW P
Ġris es
ot iation
5 000
bu querque
Ġ6 09
ĠP od
ĠDeg ree
Ġtext ure
Ġexpress ly
ĠCh a
Ġuncertain ties
CH I
Ġadapt ive
RIC H
9 13
Ġinter fer
Ġwars hip
ĠHart ford
Ġb ureau
iz ers
ĠLo ad
ĠJen kins
id n
Ġindic ations
ĠEc uador
Ġlength s
R W
ĠOrd ers
ol ulu
Ġess ence
B rian
ĠEd die
IB LE
Ġpro xy
ĠBrown sville
Ġth ir
ĠV essels
Ġexam inations
TY PE
in ks
IM ARY
ĠCon cer
ĠJ ava
Ġview ing
Ġto oth
ĠCl oud
Ġdiv ine
9 19
ĠB urns
Ġcoordin ator
Ġpre fix
ur ations
ject ion
Ġc ris
B AS
Ġdis rupt
ĠRac hel
ĠSy rian
ĠCom it
ĠColl abor
ĠY OUR
weg ian
Ġt abl
Ġl unar
asc ar
Ġz w
ophy ll
ĠTrad itional
te ch
Ġconsult ing
C ard
ic as
n ar
Ġspecial ty
- "
ĠNew port
ï¿½ ï¿½
Ġsy ll
Ġan omal
az ing
Ġaud iences
s ens
Ġfor fe
ĠCON C
0 76
Ġ4 44
ĠP RA
ĠCh uck
Ġhect ares
Ġ3 91
b one
9 23
Ġafter wards
Ġrep ublic
P UT
Ġ5 60
pre ced
9 18
ĠU lt
ĠCol in
Ġvers e
ĠI gn
at ura
ĠM AP
M arc
um ann
ĠConc ord
ĠB ren
ĠLe h
W ILL
ĠD ios
19 03
Ġbacter ia
ĠGab riel
ĠUS DA
Ġclar ify
ph one
ĠMar a
y ect
ĠW ire
af ts
Ġm ismo
ĠIm age
ĠEmploy ee
ag in
ĠB yr
ĠL ingu
ĠO U
Ġvalid ation
Ġinterpret ations
ĠE b
Ġdec is
ĠDist ricts
ĠArt ist
ong a
Ġpar cel
uc son
he w
app y
ient ific
Ġcou p
Ġimpro per
und i
ĠRegist rar
9 65
H OL
Ġ5 04
ĠCh ambers
ĠPRINC IPAL
O rd
Ġapproach ing
7 79
op ath
Ar thur
F GA
b its
Ġc ents
og ical
ĠCoal ition
Ġ4 45
Ġcl ad
8 36
ĠSil va
ĠEm ily
ine es
Ġtri ple
Ġc amer
us k
Ġprepar ations
Ġ5 41
ĠJACK SON
st ep
ĠG ot
ĠFin ancing
esp ecially
m ajor
l c
Bro ok
ĠG HG
Ġsens ors
Par am
Ġactiv ation
ĠLand scape
ĠBar on
C e
Ġ4 55
O m
( "
Ġnut rient
ĠMor rison
Ġemphas ize
Ġgrad ient
ĠHolly wood
rop ic
9 47
Ġe ighth
Ġcr ust
0 71
8 44
Ġ5 40
Ġsac red
ĠM UR
heim er
Ġimag ine
Pol icy
_| _|
ro at
Ġ18 51
__| __|
Ġs ido
ĠMA X
ĠMembers hip
% ;
Ġdi abetes
Ġpredict ions
ĠPOL IC
ĠFA X
S ources
ĠWell ington
Ġen rich
g as
ĠGen er
Ġimper ial
Ġc amb
Ġg ates
ĠPar agraph
ĠSong s
Ġal gun
Ġsynt hetic
? ,
Ġfor bid
ĠP UB
Ġbu ying
S anta
Ð¾Ð ³
cul osis
Ġdis close
And rew
pr ivate
Ġe cho
ĠW it
ens ch
Ġtour ist
ĠG arcia
ibl ical
r ish
ĠG rey
ĠShe ll
p ura
Ġrem uneration
ĠI z
ĠRich ards
ĠB ach
or ate
Ġe y
ne z
val ence
Ġfin anz
Ġg erm
Sub ject
Ġtravel ed
Ġb ord
Ġm oon
ĠS weet
m ath
ep ing
ĠAn cient
ern s
Ġcommod ities
M ES
ĠIndic ators
8 22
Ġrel ay
ĠP ope
8 27
let cher
m ers
Ġ0 10
Ġd ol
Ġ6 10
9 44
Ġce ment
omm ended
) ),
ar f
ĠD il
ĠSask atchewan
PO ST
ĠB oyd
Ġw isdom
Ġeth n
L W
01 00
0 99
8 23
ĠE uropa
Ġ5 02
Ġnot iced
Ġwilling ness
Ġab ilities
ĠCL UB
Ġoccas ional
Ġenthus ias
ap est
ett lement
ĠN HL
ĠAll an
ĠWeek ly
Ġd B
ĠR an
0 74
Ġtar iff
9 35
F ire
9 38
d ens
id ian
Miss ouri
ĠUnt il
n at
ount s
/ *
op a
Ġelabor ate
A th
Ġorg ans
Ġf ung
Ġch i
ĠThe ore
ĠM orm
ĠF i
Ġj oy
U W
K EY
on ce
M t
ro sc
Ġput s
ĠM az
iv ial
Ġp are
Ġword en
Par is
ĠB end
Ġn ep
rop s
Ġd ock
ĠR av
G s
9 26
ĠIS LAND
ER R
Ġstandard ized
Ġperfect ly
d ad
Ġnot ation
Ġ" ,
ĠGA O
................................ ...................
Ġconting ent
ĠConf ig
S und
0 68
Ġoptim ization
Ġo st
ĠG eb
ĠCust oms
0 69
Ġm ild
ĠSant iago
st ers
Ġsec uring
ĠL av
ĠPl atform
Ġtem ps
L ew
ĠE q
Cont ents
dr iven
m ac
d k
Ġf ate
Ġ ia
ĠH ALL
et to
ĠProm otion
ĠSc out
ab o
ĠV eter
ri ke
Ġpop ul
Ġmus cle
. !
Ġf ant
Ġn ell
ĠLog an
Ġmicro sc
m or
ĠWrit ing
ĠLL P
at os
ĠMan it
Ġact ivid
Ġdiff usion
0 77
ĠQ ur
Ġpro stitution
M US
ĠParticip ants
AP E
n f
Ġg er
min ute
ĠB id
ĠW OOD
p ing
Ġph armaceutical
Ġmig rant
ĠV ital
op tion
ad ic
j as
ig ma
ie urs
Ġband width
Ġsubject ive
áĦ Ģ
Ġsovere ignty
Ġpartic ul
ĠW ichita
IN AL
ĠNew man
ĠCl ar
ĠLead ers
ĠD J
ĠEqu al
Ġwet land
N ext
j or
Ġ3 82
Ġs ap
Ġgard ens
ĠCor ridor
ud al
g re
ĠGo ogle
ĠEv angel
Ġhost s
Ġapproxim ation
Ġequival ents
Ġrefuge e
Ġsubsc rib
om i
ĠST A
Is lam
Ġden otes
Ex hibit
Ġrecon naissance
ĠGU IDE
ĠMicro soft
~ -
Ġ Ý
ĠB UT
Princip al
Ġorgan ism
8 19
Ġr up
to ok
eng u
ro ut
ĠCOMM ITTEE
st rom
B RE
G od
Ġhe aven
Go al
................................ ....................
ĠFellows hip
Ġstate wide
Q H
ĠV eget
igh am
ĠPl us
ĠPart ner
ine z
ĠLo ans
Ġsw imming
Ġvac ant
ĠZh ang
Ġac oustic
ĠWeb b
Ġdesign ing
OR A
Ġcontain ers
Ġthe atre
] ).
Ġattain ment
Ġtax able
Ġcont aminated
ĠCommission ers
OW A
Ġconcept ion
ĠMar riage
ĠN othing
Ġsem in
8 32
I Y
8 76
Ġ4 29
Ġextract ed
ak k
Ġtro ub
ĠPier ce
ĠIn j
P RE
Ġ5 15
ĠB achelor
G overn
we i
Ġ201 9
ĠPR OT
ĠSymph ony
ĠM CC
Ġ4 53
Ġ6 91
Ġay ant
ĠE RA
comm unity
ĠE du
9 85
ĠT ier
ah i
ĠIm port
ter bury
ic ol
Ġpo et
8 79
Ġa le
pdfacceptTC true
M aster
ĠB ibli
W he
VIRON MENT
ĠPubl ished
Ġci udad
Ġess ay
Ġs ewer
Ġin duction
rag ue
ĠExper t
Ġwast ewater
ĠL oren
RE AM
Ġdetain ees
Ġpolit ically
ĠE AR
u els
ĠBow ling
ĠIn spection
G iven
ĠBe ing
Ġim aging
Ġ3 92
Ġ................................ .............................
od on
Def inition
S N
ĠDES CRIPTION
L ING
ard en
8 47
Ġsmall est
Ġ4 79
e ing
... "
Is rael
ump ing
Ġconver gence
8 34
Ġc lick
ĠAnd ers
char acter
Ġlink ing
ĠAzerbai jan
ĠD ul
Ġsc an
hel m
ĠBet ter
form s
ĠFern ando
R eb
V C
Ġmin us
Ġh oly
ĠH wy
ow itz
ĠT ay
R CA
ins ky
Ġprim er
B EN
Ġvin yl
Ġown s
Ġqu o
Ġperm itting
unning ham
# $
u ent
Ġoff enses
ce phal
Ġfluctu ations
Ġ( =
ĠL ONG
ĠH AND
9 36
mar ried
Ġred esign
em er
Ġide ology
Ġinstruct ed
Ġexpl aining
ĠGeneral ly
Ġdign ity
ï Ļ
Ġdisapp ear
DIST RICT
rid ors
ĠRap id
Ġ18 52
ĠYork shire
Ġ5 09
ine e
O regon
Ġoccup y
roph ic
ze k
ĠPur pose
Ġen forced
9 72
ĠStrateg ies
ĠCONT INU
ju ana
ĠAD D
Ġhon est
Ġalter ation
Ġfeat uring
F unction
L ink
Ġb apt
ĠPay ment
Ġco herent
Ġadop ting
ĠH ours
A ff
ĠM ob
gl ass
Ġtot als
Ġconnect ivity
ĠD ans
ĠCh ang
V III
omorph ic
Ġas pir
Ġhous ed
ĠU L
Ġit er
m art
ĠAnd rea
ĠLou ise
ĠSix th
ĠE CON
ra id
rolog ical
Ġoper a
c ourt
8 37
Ġcl er
z eg
Ġa kt
ĠR w
ĠL n
Ġv ectors
and i
C orpor
Ġd ot
Ġsam pled
Ġ4 82
ud o
Ġf itness
Ġg j
ĠL EE
Ġ4 78
ĠBras il
R od
ĠD anny
Ġpow der
DE F
ĠHigh land
9 49
IZ E
ina fter
C ash
Ġv ida
ĠStat ute
ĠB T
Ġk u
Ġw earing
Ġr ug
ĠFam ilies
at ra
Bl ock
oot ing
ĠCOMM ISSION
K ar
Ġtrig ger
Ġf ines
Ġcar p
ĠCH A
Ġinf ected
Ġinvest or
AB C
ĠBeg inning
ĠMar io
Ġ................................ ............................
AP R
H ouston
xx x
ĠU z
ande z
B it
Ġpercent ages
ĠC ay
* (
Ġclot hes
ĠM iscellaneous
ath on
ĠI v
ĠN r
ĠSm art
Ġfresh man
pay ers
ĠT ort
uther ford
- ;
ff ield
p iracy
io res
Ġlaw ful
Ġsp ray
Ġmagn et
ract ed
Ġmet aph
Ġn ie
ĠI O
ER GY
ĠT ITLE
ash tra
eb ook
ĠS umm
iss on
Ġactiv ated
u ant
Ġqu ote
ĠK urt
Ġle ases
Ġes a
al b
ĠCro atia
ĠJ et
Ġbreak s
ĠRet ail
il ion
ĠEx posure
ĠAV ENUE
Ġt ak
Ġpolynom ial
Ġtra p
ĠÐ ´
Ġinnov ations
Ġass ured
ĠD ob
g able
er ie
us ive
ĠMor occo
ver ted
8 72
Ġconsult ed
STRU CT
Ġencourag es
ĠG aza
Ġlong est
Material s
l ater
ĠRap ids
Ġ0 12
8 31
l anguage
Ar k
gra v
Ġassoci ates
ĠDem on
Ġrig id
Ġpenet ration
Ġint end
Secret ary
Ġplan es
Ġh ur
9 68
ĠF EB
ath a
eck er
es ota
Ġend emic
XX XX
ĠMED IA
omot ive
0 72
Ġstreng ths
Ġesc al
ĠPl aza
Ġcomment ed
ĠSol utions
9 88
U Z
8 59
R on
Ġse iz
ĠAl gorith
AD T
S ing
ĠH C
ĠBur ma
ĠH OW
ĠCase y
Ġra pp
r ors
Ġre a
ĠHawai ian
ĠP RI
Christ ian
att ano
Ġ3 94
B P
Ġa ster
ric an
state ment
V W
Ġcoll ision
Ġchar ity
U l
w omen
ĠEs sex
Ġsuscept ible
ĠTh an
Ġc ess
Ġsat ellites
tic as
bo ards
Ġmer its
s ized
nd a
ĠOk la
Ġsu cc
8 68
Ġcontract ing
ĠUnivers it
- >
Ġurg ed
8 42
Ġt ender
ueb lo
Ġexped ition
ĠS ugar
ck er
R ound
ĠG ul
ick en
Ġs inc
Ġj ack
se par
Ġr ide
Ġretain ing
illan ova
8 49
Ġ umb
ĠP AY
ĠD UR
ĠP AN
ĠEp iscopal
9 79
Ġt ale
Ġlearn ers
law s
c ience
aval ry
Ġce ased
Ġfranch ise
Ġ................................................................ ..
Ġadj ud
ĠH K
nd ez
ĠD up
ra j
9 76
c ision
ĠNe ither
ĠDia gn
ĠY am
sec database
Ġvac ancy
p opulation
Ġimp aired
ĠOr igin
man uel
Ġsearch ing
Cons ider
Ġdef ic
ond uras
Ġc ri
Ġ" '
Ġs ir
IR D
: ;
per or
AD ESH
ĠA WARD
Ġdecl ines
8 99
Ġsett lers
9 28
R en
ĠJ UST
Ġrel ies
Ġterm inate
Ġwur den
Or der
ĠAer ona
ol an
ĠN umbers
ĠT ang
ĠAct a
Ġ4 37
Ġver tex
M th
F TA
F il
Ġwebs ites
9 37
ĠSM U
Ġallow ances
Ġparent al
Ġsum s
T ext
ĠExcell ence
Ġinf ants
ĠTig ers
Ġ5 11
ĠD W
ĠCy cle
EC UTIVE
Ġh r
Ġhe x
C ivil
Ġl bs
ado x
Ġin ability
lo o
iv amente
21 00
em at
b ial
Ġarch ives
Ġwood land
b rate
? '
Ġd y
Ġinvestig ators
(( ((
Ġthe ft
ĠMe as
Ġres il
ĠĠĠĠĠĠĠĠĠĠĠĠ ĠĠĠĊ
Ġcontrovers ial
Minn esota
Ġnation wide
Ġceleb rated
Ġe igen
Ġl leg
ĠJ h
St ates
ĠY ES
Ġl oved
ĠHEL IPORT
ĠTul ane
Ġpol tica
ĠD iversity
L em
Ġhapp ening
Ġins ign
Ġind ivid
bor hood
ĠT ogether
Ġcred ited
Ġsudden ly
ĠB AY
ĠE E
ge m
Ġsub stituted
ĠAd j
Ġpat rim
9 34
ĠCon v
Ġalph abet
ĠProv isions
ĠMil an
res cent
oll a
el man
Ġclos est
ĠSUPP ORT
ib ilit
w ort
Ġ3 98
f en
ĠW AT
communic ation
Ġon set
ip t
b ing
8 39
ĠW are
0 73
Ġcl oth
Ġ18 49
Ġpool s
ĠS ew
ĠR ig
ĠH of
b ird
ĠZ imbabwe
Late Yr
Earl Yr
Ġassist ing
Ġw ra
le ich
ĠT ag
ĠFor ms
ĠG ymn
Ġre ign
9 39
N eg
c ould
Ì ĩ
8 71
attano oga
Ġk r
Ġprompt ly
ie le
SW E
ĠJud ges
il io
9 46
OM IC
Ġdep icted
ĠMon etary
c oll
m em
Ġpubl isher
ĠSE ASON
Ġaccept ing
Ġor ange
Ġ4 26
Ġforest ry
Ġb ell
Ġ4 47
Ġevery day
and ro
ĠR osa
ĠP ORT
Ġrun way
d eb
ĠR EST
alth ough
Ġenf ants
Ġund ated
ĠL AKE
ĠK C
ĠR iv
Ġinter faces
Ġmark ers
ĠM use
Ð¾Ð ¼
Ġti ene
Ġbo ot
Ġdeb ates
ĠJul ie
Ġfig s
ou st
Ġdivid end
ĠC red
Ġbas ically
EX T
ĠDesign er
UD E
Ġf ir
ĠB rid
Ġgener ates
ĠASSOCI ATION
ĠT ommy
Ġsh opping
Ġf ron
ĠC IT
ĠSOCI ETY
AR G
ĠD j
ĠKaz akhstan
n orth
Ġopp osing
END RA
i able
ĠHen ri
ĠAll ow
Ġh ipped
................................ ......................
Ġneighbour hood
Ġdead line
Ġvacc ine
Ġj ew
Ġ5 06
R un
ĠL on
sub ject
velopp ement
Back ground
Ġ4 41
Ġcomp lementary
ï ĥ
ĠPresident e
OMM END
Ġvac uum
ĠCON N
ĠQuest ions
Ġrational e
O ak
Ġ urb
Ġres et
ĠU RS
fl ight
Ġfurn iture
Ġvari ant
ber n
inc ia
Ġf illing
amm ad
ĠP OS
c en
ĠP our
Ġpriv at
9 89
Ġ4 34
ĠH ook
Ġcap it
ĠR aleigh
Y R
k et
De velop
Ġchar itable
Ġdon ation
Ġcor al
Ġrequ is
Sc ot
Ġcalc ium
ĠFR ANC
an ical
Ġgu itar
ort e
Ġarr iving
25 00
gh ai
Ġmed ieval
Ġ5 14
ĠH undred
uth i
ĠClass ical
ĠF ond
In c
ĠY u
let es
ell schaft
Ġfunction ality
Ġv ibr
ĠCent ro
ĠDav ies
EA U
t le
ĠCont ributions
ĠCre ative
r ide
in ety
av it
Ġquestion ed
Ind iana
Ġpr ide
Ġinc ap
Ġâ Ī
Ġwhere ver
ĠCan ad
Ġb uck
ĠB yl
ne k
Ġdipl om
tt i
ĠS v
ĠH erman
ĠCon text
as ion
Oper ating
WH G
ential s
reason able
ĠGr und
Ġswitch ing
ĠP IT
Ġprote ins
Ġrig orous
ĠR U
8 69
Ġhab its
Ġpursu it
Ġhelic opter
ĠOt to
ĠA FR
Ġcomm emor
op ard
Ġ4 65
Ġhost ile
en eration
ĠCret aceous
ent re
Ġdef iciencies
L R
ag ascar
St aff
Q Q
Ġin land
ĠH ern
8 43
f alls
ĠM aced
Ġ4 76
ĠEst imate
uest o
In cludes
Ġt itled
arag ua
ĠAb use
Y AN
Ġsymb olic
ĠM alta
ĠLuther an
Ġuna uthor
c us
Ġremember ed
Ġmark er
Ġw ake
ĠPl ays
ĠBY U
Ġf ax
ĠInvest ments
Ð» Ð¸
ĠSc reen
Ġconcent rate
j t
B ook
Ġ4 28
r ale
8 41
ĠW ARD
Ġval or
ĠPL AT
Per formance
ĠGi ov
com mercial
Ġ ip
fin ancial
! )
ĠR ee
Per iod
Ġann ot
ES E
Com ment
ĠR id
ĠI OC
IL ITIES
oca ust
m ust
Ġdocument ary
ĠF eed
k ok
9 77
ĠM ix
9 27
el se
F emales
Ġf estival
O fficial
Ġautom obile
hab ited
umb ent
ĠR OD
l ab
ĠF emales
oll s
ĠMeasure ment
M att
ait ing
ĠP om
Ġno ch
Ġ8 50
Ġab normal
Ġmar ry
M i
Ġle ver
ĠFr anz
ĠPortug uese
Ġweek end
Z O
ĠA ur
h um
ĠD ew
Ġgn ral
ĠLat ino
G AME
Ġsub sp
W ATER
Ġl s
Ġovers ee
Ġ16 00
Ġram p
m ington
c as
ay e
ĠAr bor
Ġdon ated
Act ual
at ie
ud ed
orth y
ons ider
D N
if ax
ĠIs le
Ġsac rifice
ĠAl cohol
ĠAp ollo
ĠPer th
a ic
Ġsh aft
Ġrecycl ing
ĠAb ove
Ġin stitute
ĠAut o
w ana
cast le
8 73
ĠSer bia
ĠTRANSPORT ATION
C u
ace a
ĠB onds
Ġclar ity
ĠSpecial ist
S ex
18 90
IR ED
Fr anc
Ġadvoc ates
oc ide
Ġ| |
ĠG RA
names e
ĠCarol ine
Ġres umed
Ġpr ud
Ġmir ror
d raw
ĠMed icaid
Ġcare ers
ĠPRES IDENT
V M
ĠN as
Ġconstra ined
Ġall ies
Ġun cle
Ġspons ors
ĠC RA
ist rate
Ġ................................ ..............................
Ġche st
Ġalgebra ic
Ġport ray
Ġ8 01
ĠOm aha
Ġinf inite
ist i
Ġpract ically
ĠAD MINISTR
ocr ats
Cont act
ĠE is
Ġoccup ations
ec hes
Ġsupp lementary
ĠClaim s
ĠH ockey
Ġven ues
9 86
ĠCA ST
ĠP p
o ire
ĠBro ck
ĠG IR
Ġcon du
ĠP orts
ar itan
ĠSand ers
M ic
ĠR NA
Ġevery where
we ed
m ale
Ġge ometric
Ġs ant
Ġcar cin
ĠTra vis
ĠHold ings
fl ower
ĠPsych ological
ĠD unn
Ġen umer
ia z
und ers
Ġbron ze
Ġcert ify
w yn
IF ORN
f iles
Ġpl aus
ĠT IT
r icht
Ġrel ativ
ĠM G
Ġ4 99
ĠThom son
HE AD
Ġun published
Ġ18 20
19 02
â ģ
ĠS J
uar ial
Sim ilar
L as
Ġ4 31
Ġvol canic
00 000
ĠC AMP
ĠBen ed
Comm unic
Ġp iers
ĠQ UE
Ġunder way
de en
HO USE
Ġsol ved
A k
ĠO SU
9 56
oc occ
] -
p n
A J
Ġconven ience
ĠStruct ures
ĠHamb urg
Ġp ill
Ġneighb ors
em os
Ġn ose
Ġde ut
b les
ĠF actor
HA I
01 01
ĠL if
ĠPers ian
Ġcou rage
Ġstri kes
Â «
Ġille g
Ġc t
Ġcab in
âģ Ħ
Ġdemand ed
Ġpul led
in ating
ys ics
s g
Ġ4 38
ĠArch aeological
ĠL OU
Ġnur se
Ġcat ast
ĠPra irie
Ġsu ited
ĠCont inued
U pper
) ?
E ll
Ġlocal ities
AND ER
ĠBel t
ist es
F ax
Ġt idal
Stud y
ĠD im
ĠRet irement
am on
ĠPhilipp ine
ĠM ISC
OHNS ON
ĠAN Y
omm en
A bs
Ġtact ics
Ġgrow s
G erman
ans on
Ġr um
9 74
Ġcl auses
ĠP urs
Ġp g
áħ ©
ĠU W
Ġhand ed
Ġmag azines
Ġtrust ees
ECT ED
Ġordin ance
ĠB ates
ĠFed er
Ġd ams
Ġn ga
Ġan a
ĠU rb
it he
ob ic
Ġpursu ing
ĠPRO PER
ĠWill ie
ĠUR L
Ġs ang
F ootball
Ġt ile
a verage
ĠOpport unities
a ient
Ġth rown
ef ined
Ġs isters
ĠJ al
O X
Ġin duct
Ġsur ge
ĠMar tha
Ġinvas ive
Ġ18 46
Ġb ones
man ia
Ġb od
Ġout s
field s
Ġexperi encing
Ġorder ing
Ġsovere ign
ĠCo ordination
ĠEth nic
ĠHung arian
Ġex tern
reg ister
Ġtrad ed
f inals
IN ING
ĠTax es
ĠBol ivia
Ġdo zen
ION E
B us
Ġdi etary
ĠF t
ific a
Y our
Ġse ized
IVID UAL
ĠOut standing
ĠMichel le
ĠBr ussels
int ers
o ct
op us
Stud ent
Ġcomp elling
Ġpe ers
Ġr ul
Ġcustom ary
ĠN u
YS IS
sc hen
Ġind ef
Ġfor get
n ick
CA ST
G ross
Ġqu art
% *
ĠS ometimes
: ,
Ġinter change
pro duction
Ġ5 33
Ġ7 04
ĠM ilit
Ġaccount able
Ġz ijn
ĠM IS
ĠCON D
Ġqu ota
ĠB alk
Ġcontract ed
ĠHans en
est ers
ĠD ixon
V otes
n aires
ĠForm at
Ġmemb rane
9 67
ĠMar ian
ri eg
Sche dule
ĠPen alty
Ġg auge
Ġcomp ression
Ġpred ecess
à ¥
og ens
Ġworth y
Ġmix ing
Ġ4 57
ĠB ent
ĠV S
ĠT all
MA X
an aly
Ġsure ly
ĠPass ing
ĠExpendit ures
ap is
ae a
Ġpriv ately
am ing
Ġr ifle
Al bert
Ġsup ers
ogn itive
K T
Ġ18 45
ĠBudd ha
F ather
ĠN ico
ĠTem perature
Ġpued e
US C
Ġshel f
p u
ĠAtl as
v u
Ġwatch ing
ĠV it
dep th
Ġl ugar
ĠAn at
Ġfavor ite
p f
Ġacid s
Ġte a
Ġsk etch
J on
ĠK ind
ĠStruct ural
ĠBl air
Ġbound s
Ġy r
Ġglob ally
P rom
Ġden ial
educ ation
ĠFr anch
Stud ents
ny der
Ġclaim ing
V EN
Ġk l
ĠAn s
Ġten ants
Ġcounsel ing
fil m
ĠC av
ĠChrist ine
Ġsubsid y
Ġbe et
ie ux
Ġexp ended
Ġexpl osion
N ebraska
ĠCOR POR
Ġpar l
Ġthere to
Ġarbit ration
ĠJul ia
ag les
Ġsystem ic
Ġign or
ĠSt ro
Ġb ere
sh ot
ĠPl ants
Ġdecid ing
8 74
Ġpec uli
Ġau ction
ed es
ze ug
B eg
N OC
Ġ20 50
hen yl
Ġti em
Ġbl ow
Ġf ishes
Ġmist ake
Ġent r
EV ER
Com mercial
14 00
ĠOffic ials
m aterial
Am endment
ĠAd elaide
uer do
pl acement
Ġdiss ertation
Ġdeal er
ve ment
Ġun ified
Ġplaint iffs
Ġacceler ated
Ġdefin itely
S ix
@@@@@@@@@@@@@@@@@@@@@@@@@@@@@@@@ @@@@@@@@@@@@@@@@@@@@@@@@@@@@@@@@
Ġmoder ately
Ġorig inated
ĠS pl
ĠAd rian
ĠAt omic
Ġwitness ed
Ġdep reciation
Ġcertain ty
Ġ4 39
ĠWeb ster
Ġl oy
ĠLe af
Ġbicy cle
act ed
ĠS AB
ĠCl ose
ĠJosh ua
S EL
IFORN IA
Ġge ological
oc on
Ġinm ates
Ġg iant
ec u
W all
Ġfore going
Ġposit ively
Ġcounterpart s
ĠM old
Ġinf antry
ĠT ouch
9 69
ĠContract ing
Ġprim a
S on
ĠST E
Ġen vis
ound ing
Ġfire arm
ĠRel ay
ĠAppoint ments
ra e
ĠB OW
Ġtrig g
Ġ4 63
ĠRest oration
f re
ER ATION
AR IA
W AN
Ġsocial ly
ĠProtest ant
ĠSal mon
Ġ4 43
Ġform ations
VENT ORY
9 21
ĠH urricane
Ġtra ces
B JP
ĠQ ubec
rent e
ĠG ir
9 63
ĠD NP
IL A
Ġ18 44
ĠD ifferent
ĠSher iff
ĠJ AM
Ġlie utenant
Ġdevelop s
Ġserv ers
il and
Ġv ed
Ġ5 08
AS AD
R og
r itional
it ably
ih ar
R os
Ġradio active
Ġwh ales
Ġ4 19
ĠTrans mission
ĠAF TER
M arg
Ġsl ip
Ġdesign ate
9 41
ĠBRO WN
Ġn ice
Ġ4 48
ES A
Ġ4 58
br ates
ĠO scar
ĠEn viron
Ġ0 55
ou p
Ġwa iver
Ġsim ulated
cent er
ĠDel ivery
ĠH ear
ĠS abb
ĠI st
Min ister
Ġincorpor ating
res o
ĠG ur
~ '
Ġdens ities
ĠO bs
Ġpract iced
Max imum
ĠV M
Ġless on
Ġmom ents
Ġ18 37
9 58
ipp er
Ġgradu al
arm acy
Ġexhib ited
9 52
K ET
Ġref usal
Ġp ari
Ġv ag
ĠZ ur
accept able
ĠNOT E
Ġrestaur ant
z ym
OP S
H EL
Ġp neum
Ġforth coming
Ġdil ig
ult ur
Ġinv itation
9 71
o it
j on
at y
Ġmolec ules
Ġgran ite
Ġfl ora
Ġtr as
9 59
9 57
Ġrecord ings
Ġgas oline
$ /
ĠP OWER
Ġwh olesale
ess en
tain ed
Ġneighbor ing
ope z
Ġshort age
D ar
P osition
Ġyield ed
Ġbow l
at to
ĠDis play
Ġ18 47
Ġveget ables
Ġcomp ass
ĠN OTES
is le
ĠR ANK
Ġg aining
ress ing
ĠBUS INESS
Ġinvest ing
ĠAF B
do i
Ġ5 29
ĠDocument ation
Ġb attalion
ĠCl iff
Ġbr ill
ĠFull erton
ĠJ C
ĠH utch
olog ica
Ġcon ferred
ĠDem and
own er
i ast
ig rant
Ġ4 42
v ous
ĠDar win
Ġethnic ity
Ġexplan ations
ĠTun nel
Ġext ant
Ġschool ing
ch annel
ĠT rue
ĠB le
il ot
ĠSEC UR
IF Y
App lic
Ġmedic ines
Ġdivid ends
iz able
Ġri par
ĠH z
Ġprincip ally
Ġcontact ed
Ġcomp ilation
Ġexam ines
9 22
ĠGriff ith
Ġide ological
ĠAuthor ities
Ġpl ug
G ender
ĠCooper ative
Ġn uest
Est imated
Ġear ning
ley ball
Ġstat o
Ġas ylum
18 65
Ġapr s
m ut
I ng
Ġsub ordinate
Ġem plo
Ġl unch
L u
Ġtre ating
Ġther m
ĠG rid
++ ++
ozo ic
Conn or
Ġincorpor ation
Rel ated
Con c
9 62
un ctions
Ġle verage
ĠDef ensive
C RA
ï Ģ
vel le
ĠO D
erc izio
Ġbur ial
ĠT aj
ĠG ut
Cong ress
ĠHit ler
et en
m ant
ĠPro pos
Ġprosper ity
ĠW ide
ĠSeb ast
Ġund oubtedly
9 31
J OR
Ġthe e
Ġproceed ed
ĠNort on
ĠCo aches
rafts man
ĠFergus on
Ġhier arch
b oy
Ġin duce
us o
F ood
ĠP atients
Ġreceiv ables
ĠPass enger
Ġadoles cents
t ree
ĠDiam ond
13 00
Ġde ed
ĠB ANK
g rades
id ium
ĠRe habilitation
ĠExpendit ure
Ġcongreg ation
ĠHous es
ĠEmb assy
ĠT EST
Ġext inction
Ġrecip roc
ĠJess ica
Ġdet rim
Ġse gn
Ġthe rap
Ġrec her
bal ance
ĠM unicipality
Ġs ail
ĠJ T
ĠMon ument
ges ch
ĠVehic les
Ġe f
ĠLE AD
ĠA quatic
ĠYugoslav ia
Ġfin anced
Ġhyd raulic
Ġtrust ee
ĠF ischer
Ġpro d
AG AR
Ġdr ift
uk h
Tenn essee
ass a
ĠAr c
ru z
Ġborrow ing
Ġd all
Ġdo it
Ġappear ances
ĠH ed
Ġlo i
Ġh oc
Ch urch
Ġl iaison
ĠF RI
ze it
Ġmaxim ize
nd on
Ġ4 46
H ard
ucc o
Ġact or
S and
$ '
Ġnot withstanding
S ym
Ġspect ral
B ern
best os
Ġn aj
Ġfl ed
ĠG n
Ġret riev
Ġident ities
reg ional
Ġk am
F rid
ĠC ool
RO G
ip a
ac qu
Ġpath ways
Ġtub es
ĠM ate
Ġ4 59
s il
Ġdraw s
eb ted
Ġu it
Ġv ested
acer b
ult an
With in
Ġident ifier
ĠMUS IC
Child ren
ĠWals h
ans ing
W inter
Ġt ongue
ik an
Ġ4 54
ĠKenn y
ivid ed
ĠSand y
Ġ5 07
ĠHor se
ĠEN TER
f orth
ĠLi u
ĠRat io
Ġflag s
Ġmem ories
P t
ĠAl f
ĠSem inar
Ġcommission er
P rec
ĠZ ach
ĠH ollow
Ġar row
Ġaccess ibility
ĠNe u
Ġsand y
Mary land
Ġco hes
S aint
ĠU ruguay
G W
IM A
fore st
Ġdisc rep
ĠSc ar
Ġjud ged
ĠHistor ies
ĠEx amination
ĠSher man
w ent
OLOG ICAL
Ġnurs es
Ġv r
Ġsex ually
ĠNor wegian
- +
Ġt ier
S aturday
Ġpun ished
ĠUT F
Q ual
Ġn esting
w d
ĠK ill
Ġatt orneys
Pe ople
Ġ4 49
ĠB rain
Ġw ise
ĠH ON
L ost
Ġ4 52
Ġserv ant
av ir
Ġres c
Ġspread ing
Ġ6 20
9 64
ut an
Ġrevers ed
Ø ±
ĠT ank
Ġdon ations
O US
n ian
Ġb ibli
ĠMid west
ĠH AM
ens k
ĠWILLIAM S
ĠN Z
ĠL und
Ġ................................................................ ....
ĠVen ona
Ġat om
9 54
ific acin
Ġbatter ies
ĠBes ides
Ġevent ual
gen eration
ĠE rik
ĠL Y
S ize
ĠNe utral
Ġm ills
ĠI CC
ĠTob acco
ĠD ied
ĠApp alachian
Ġauthor ize
Ġcar riage
ab ove
Ġequ itable
ĠMal colm
R ail
Ġw inners
Ġtrib unal
ner g
s f
per formance
Ġdisag ree
h ole
en as
Ġsupp ression
Ġveter an
ak u
Ġconstru ed
Ġinv ention
Ù Ħ
& '
ĠNew sp
Ġpublic ity
ĠAng lo
Ġinfer ior
c am
ly de
Ġc ater
Ġpo le
ĠRa pport
F i
A IL
Ġaut re
ro k
C redit
ĠD ark
Ġmin i
Ġshif ting
H ay
j r
le ad
Ġp ic
ĠF TA
ĠJan et
Sp ace
ĠW u
ub ble
i embre
ĠAct ions
Ġcab inet
ĠCar son
ig keit
ĠE pid
h oe
Pro cess
Ġn ick
EL A
inter est
Ġemb ry
Ġd n
AT L
ĠC ER
ĠJoh annes
A cknow
ĠK EN
Ġcommun al
other mal
ĠTrans ition
IN N
tt es
Ġaccel eration
S ector
DES CRIPTION
Ġpropag anda
ib an
am ble
ĠRequ ired
ĠAss et
ĠM TA
cyclop edia
ĠE ra
S AL
ĠC ork
ĠM ORE
ĠSat ellite
ĠWeap ons
áĨ «
Ġrecogn ise
Ġdisapp eared
9 43
Ġcalcul ating
Ġoblig ed
J L
ĠLe one
Ġar ithmetic
ĠV L
ĠGovern ors
Ġlast ing
ĠW o
ĠInter im
Ġ5 70
Ġthe rapeutic
N ever
ĠC yr
Ġst yl
Ġpres cription
ĠT ucker
URR ENT
Ġcombust ion
ĠT alk
Ġ5 27
ih ad
ĠE ld
Ġrecru iting
Ġp est
Ġcy ber
ĠRou ge
ĠKr ish
Ġap ost
Ġout lets
Ġaver ages
W ars
sm ith
Ġm ason
res pect
ĠS OM
ĠE valu
Ġat oms
Ġtra ff
hard t
9 32
Ġdis asters
al it
Bel g
w end
AP S
Ġsubs ystem
ĠInstitut o
ĠJ ag
ĠVal ent
M IC
Ġenem ies
ost en
rit z
ram er
Ġut ter
ĠCol or
Ġcon stituency
Ġ6 30
ĠOw ens
ĠR t
ĠDo D
ÑĢ Ð¸
ĠCh ancellor
ĠNew ark
Ġf oi
Ġ4 56
Ġ6 25
St ock
J er
g rowth
arg er
ĠF UN
um ph
ĠPark way
ĠB att
ĠLGB T
ĠAd apt
Ġlat itude
ĠC W
ĠU til
Sah aran
Ġre nov
ĠPear l
ĠM OT
ĠNews letter
Ġj us
Ġcomment ary
omencl ature
reg ion
Ġapp l
Ġre vel
r era
ĠB AB
Ġb ij
air d
! ,
Ġdivor ce
Ġ5 23
Ġh ang
ĠH ir
AB ILITY
Ġestablish ments
Ġign ore
Sur vey
hen g
Ġ5 13
Ġmerch and
ĠIdent ity
ik t
ly mouth
L ear
ĠM asters
ĠSH AR
yst er
Ġcat ches
Ġ4 69
ĠB irds
Ġcor pus
n or
Ġinterf ere
Ġ66 01
Ġgener ous
d if
ĠK ate
Ġdist al
R F
ĠIn structions
ot to
Ġrevolution ary
Ġcre ws
b ane
ĠGu arant
ĠNaz i
ĠSocial ist
ge me
ĠP and
G h
Ġiniti ation
as is
Ġus o
Ġ5 24
ĠMeet ings
Î ³
ĠF P
d c
b ild
M F
ons o
com ed
ĠCry pt
ĠF oot
BO OK
avor able
ĠA ER
art on
Ġrefer enced
Ġsc arc
Ġinter course
Ġox ide
ĠM ixed
ĠCal vin
est inal
ĠF urn
Ġtra uma
Ġunder go
Ġun iqu
Z one
ĠContract or
ĠHaz ard
cul os
ĠJUN E
Ġadjo ining
ĠW F
Ġ18 41
Ð¾Ð »
M erc
Em ploy
Ġalleged ly
ĠVo ice
Ġpoll ing
ĠI G
ac ulture
ĠMar in
Ġdro it
uest a
in v
ĠP UBL
Ġare na
ĠEl se
ĠImprove ments
ĠCon st
ĠS ak
ĠA ires
9 51
RA O
Ġg egen
Al abama
ĠSus sex
ath lon
ĠBur lington
Ġking dom
ĠSpe ech
Ġinst ability
Ġvi ability
ĠDra ke
ll l
Ġstr ings
R P
+ )
ik en
ĠM igration
m eter
part icip
m other
rest ling
ĠMax well
u ania
Ġexpl oring
p red
Ġmerc ury
let te
Ġposition ed
ĠZ ag
at ible
ĠL ETTER
pl aced
Î¹ Îº
ĠDere k
9 53
Ġhed ge
w l
b ot
pur pose
Ġdet ector
Ġs ake
ex cluding
18 99
ress es
V s
Ġ5 16
Ġimportant e
Ġal i
................................ ........................
Ġstraight forward
l ot
ĠV irtual
vas ive
Ġ4 95
ĠEs q
in is
o ine
Ġmet all
ĠBur ton
ĠN il
ĠT F
Ġcur ved
ys on
ĠL IFE
ĠCOMM UNITY
L ower
i endo
ĠFair fax
Ġdig its
ĠENG INE
d ocument
gl ich
ours es
Ġturb ine
y re
Ġco oking
preced ented
ĠBl uff
ĠOther wise
Ġbas ins
O k
ate urs
IV ED
Ġmed ication
Ġmechan ics
Ġsl ide
ĠS lo
ĠBuddh ism
al one
ĠRec ognition
ord e
ĠREP RES
Spe ed
ink i
ĠAl ong
Ġsh adow
Ġl amp
el in
Ġ4 74
Ġanaly zing
ever y
Ġret ire
are l
Ġ6 15
Ġrs ult
Ġprom otes
P ack
================================ ================================
ĠStat utes
ĠComp onent
Ġh iring
9 42
Ġt aste
ĠD OWN
act yl
ĠN PS
Ġdef iciency
ĠW ould
Ġquest o
ĠR utherford
P UB
if lor
ĠCar neg
R isk
Ġceleb ration
isc hes
J UL
ĠAt mosp
Ġsp ont
M AD
Ġhe pat
pro fess
PL OY
Ad opted
ĠUn iform
ĠMy an
ĠMon ica
b il
Ġincre mental
amb ique
i ability
Ġ4 88
z ent
st aff
Ġme als
ĠS AC
Ġkn ock
ĠE lement
................................ .........................
Ġavoid ing
ĠS ind
Ġcamer as
Ġ................................ ...........................
ĠTerrit ories
ĠStud io
U U
N ar
Ġdel ine
Ġimm une
ĠH EN
oy a
Ġair ports
ogen ous
- ****
Ġav g
RI ES
Ġdemonstr ating
Ġred ist
Ġcatal ogue
ĠP erc
Ġst ems
ĠAct ing
00 12
ĠFind ings
Ġdr illing
Ġresearc her
is bury
ĠUn ter
ĠDrug s
Ġcontin ent
b st
L og
Ġ................................................................ ........
Ġpoint ing
Ġsand stone
ĠEx am
9 61
Ġ5 35
ED ULE
Ġco ok
ĠJ OURNAL
ĠM EL
ĠD rain
Ġcomplex es
ĠSO UR
ĠMet al
ent ure
ad ata
Ġt v
ĠF at
ĠTOTAL S
ĠT AMIL
amb a
ver n
Ġ, ,"
Ġaux iliary
ĠRe bec
Ġlog s
Ġfon ction
arg est
Ġhistor ian
ĠV il
ch ts
G al
rib le
Ġ________ __
Ġpre ca
Ġexpress ing
Ġwould n
ĠMatthe ws
ĠMechan ical
K evin
and ing
Ġra ys
ĠAtt endance
ouri er
IN CE
ĠSim mons
ĠCarneg ie
Ġco at
cl air
ĠEd mund
Ġpost er
et itive
ur ated
S ol
atch ing
ĠAmaz on
S AN
am men
Ġexplos ive
Ġcharacter ization
Ġfurn ish
ĠH ull
INT RODUCTION
Ġsynt ax
Ġimmig rant
- :
Ù Ĭ
ĠManit oba
m ethod
ĠHom eland
Ġemploy ing
ec d
ĠUn less
OD Y
Ind ependent
ĠXV III
Ġg riev
Ġmut ually
ĠConc rete
ĠSA F
ĠJul ian
Ġh unt
ec urity
serv ices
Ġh oliday
Ġacqu iring
Ġgroup ed
urisd iction
h istor
ĠK NOW
Ġdec ree
Ġepis ode
ENS US
eth nic
Ġnegoti ated
ĠExpl oration
ĠSch we
in form
S ET
" /
Ġnational s
Ġsing ing
Ġinfring ement
or ious
ĠA H
Î ´
Ġrandom ly
-**** ;
ĠTECHN OLOGY
B ACK
F a
Ġwas h
r z
s al
ry n
L OS
p ent
Ġav ait
Ġto ute
Ġanal ysts
Ġrein force
ĠP N
ĠO rient
Ġstead ily
Ġ6 40
rec ogn
Ġr n
Own er
B LE
ĠM OS
ul se
Ġenvelop e
up a
Ġ" .
ĠR iley
ĠList ed
Ġmorph ological
Ġas ks
18 80
ĠSch olar
C ARE
D ur
ĠAM ERICAN
p olit
ĠSh o
SH A
ĠSh i
Ġ7 20
Ġam phib
B ell
Ġbal ust
Ġmil ieu
ĠTD s
AMIL Y
Sup er
... )
eral a
AN IA
Ġcaus al
Ġre actors
ĠPers pectives
Ġfulf il
ĠOff ices
et ter
ĠObserv atory
Ġr ust
n em
ar ie
Ġtermin ology
ĠS aid
Ġelimin ating
Ġmod elling
Ġcontin ually
HER E
Ġbig ger
ĠMan ning
s om
abl o
Ġm ph
Ġrev isions
add y
Ġthin ks
ĠH els
Ġf ocal
N EL
Ġfaith ful
Ġ6 17
Ġm apped
Ġ5 17
Ġbut t
Ġag ing
Ġn ec
ĠSh annon
ĠS ME
Ġnon profit
M ales
miss ible
Ġdiscont inued
ĠEduc ator
Ġcon ced
Ġsear ches
Ġcon oc
sequ ent
Ġmean ings
ĠLi bert
ĠArt ists
ĠK arn
ĠCHAMP ION
ĠREPRES ENT
ĠS ic
ĠFIN AL
Ġprolong ed
ĠS AND
Ġs r
Ġlik ewise
ĠR ushing
fic ial
ĠW ak
P ak
Ġcod ed
et able
re fer
Ġann um
G rant
Ġo ath
hen y
ĠChall enges
ĠPR ADESH
Ġne ur
Ġgener ators
Ġcommercial ly
Ġpreserv ing
Frid ay
Ġded ication
ĠK och
Ġme hr
Int eg
Jew ish
ING ER
st ad
Ġadvis or
ĠV EN
Ġmis leading
Ġsched uling
ĠParent s
Ġpropag ation
ĠSupp ose
Ġd rafted
Ġ4 77
Ġcons id
Ġc itation
Ġ5 55
ĠPark ing
rodu ced
Ab d
Ġdisch arges
Ġsp ill
ĠSUR VEY
ĠConsult ing
pher d
Ġlog istics
ien en
ĠFil ip
ĠT et
Ġtreat ies
Ġripar ian
Ġs op
ECT IVE
Ġfe els
Eff ective
ĠBut ter
ĠHait i
ĠCont roller
im us
in z
Ġcal ibration
ĠE k
Rep resent
Ġ5 80
ĠSerge ant
Ġne u
ĠF letcher
Ġprot otype
Ġsatisf ies
old t
Ġsla very
que z
ĠTrib e
Ġtem po
Ġdef ects
Comp act
R ight
Ġcrit ics
Ġabsor bed
r ines
Ġne i
che l
Ġevery body
ĠNeed s
sh ort
Ġpopular ity
Ġ4 67
Ġdeb ts
ĠGov t
se ven
H ung
Ġcred ibility
X U
ĠM g
A O
Ġpl ed
st adt
fund ed
Ġw ors
ĠE lev
ĠC RE
Ġres ervation
ĠU V
Ġs her
ĠBed ford
ĠPH IL
LA H
Ġb ail
il in
Ġcor ridors
ĠB OR
erv es
Ġpert inent
in ternational
.) :
N ON
Ġshar ply
g rim
o ys
Ġex acerb
Ð¾Ð ´
ck en
Ġ5 22
n ings
itt el
Ġ4 64
ĠUN LV
ĠC ALL
Ġcollect ively
es o
Ġclin ic
M icro
ĠSh ir
ĠM eg
ĠG ates
Ġd ictionary
Ġn mero
Ġde central
D NA
Ġspecial ly
i ad
Ġde vi
Ġcourt esy
Ġconstruct ing
sw orth
Ġpremium s
Ġhead er
ov ina
Ġw ir
Ġesp a
ĠEnt re
Ġfacilit ated
ĠIM F
p ark
crib ing
ĠAD DRESS
Ġconfidential ity
Ġutil izing
Ġer ect
ĠD iffer
Ġcul min
S ha
ĠBUD GET
CLASS IFIED
Ġ5 21
Ġback up
L IST
Ġpost p
ĠQ atar
ĠSoc cer
Ġdies er
ĠF ee
Ġ4 71
Ġ6 75
ER G
Ġfacilit ating
Ġjournal ist
ĠB EST
Ġprob abilities
ĠCl aud
D OM
ĠF err
Ġquarter back
un que
ĠEx ercise
Ġenc oding
Ġassert ion
ĠO X
ĠO LD
ert a
ĠJac ques
Ġ6 24
ĠD VD
BO ARD
ĠFore cast
Ġdesarroll o
Ġmaneu ver
ĠB d
Ġtrav elling
ĠFresh man
ĠDec re
Min imum
acc ount
ĠEl im
Sil bernes
ĠViet namese
P ASS
Ġair space
ĠContin ental
ĠKash mir
Ġ6 06
M iller
ĠW M
ĠGra du
en ia
head ed
Ġtip o
ep er
Ġcoordin ating
s an
ĠJ as
Ġg an
ĠMoh amed
Ġdial ect
ĠC LA
her ty
Ġsem inar
Ġr iv
ĠD ET
Ġin qu
ĠJ esse
Ġgu ards
ĠUt ility
Ġpack ed
ĠEstabl ishment
ĠOpport unity
prov ided
ĠM ai
ĠU A
Ġpal m
Ġmetric s
ĠO vers
ĠChief s
ĠG OOD
ĠFace book
its ch
ĠLect urer
V illage
Ġestim ating
W ild
Z Y
t im
Ġt ide
gl obal
ĠCENT RAL
[...]
