{"version":"1.0","truncation":{"max_length":512,"strategy":"LongestFirst","stride":0},"padding":null,"added_tokens":[],"normalizer":null,"pre_tokenizer":{"type":"ByteLevel","add_prefix_space":false,"trim_offsets":true},"post_processor":{"type":"BertProcessing","sep":["</s>",2],"cls":["<s>",0]},"decoder":{"type":"ByteLevel","add_prefix_space":true,"trim_offsets":true},"model":{"type":"BPE","dropout":null,"unk_token":null,"continuing_subword_prefix":"","end_of_word_suffix":"","vocab":{"<s>":0,"<pad>":1,"</s>":2,"<unk>":3,"<mask>":4,"!":5,"\"":6,"#":7,"$":8,"%":9,"&":10,"'":11,"(":12,")":13,"*":14,"+":15,",":16,"-":17,".":18,"/":19,"0":20,"1":21,"2":22,"3":23,"4":24,"5":25,"6":26,"7":27,"8":28,"9":29,":":30,";":31,"<":32,"=":33,">":34,"?":35,"@":36,"A":37,"B":38,"C":39,"D":40,"E":41,"F":42,"G":43,"H":44,"I":45,"J":46,"K":47,"L":48,"M":49,"N":50,"O":51,"P":52,"Q":53,"R":54,"S":55,"T":56,"U":57,"V":58,"W":59,"X":60,"Y":61,"Z":62,"[":63,"\\":64,"]":65,"^":66,"_":67,"`":68,"a":69,"b":70,"c":71,"d":72,"e":73,"f":74,"g":75,"h":76,"i":77,"j":78,"k":79,"l":80,"m":81,"n":82,"o":83,"p":84,"q":85,"r":86,"s":87,"t":88,"u":89,"v":90,"w":91,"x":92,"y":93,"z":94,"{":95,"|":96,"}":97,"~":98,"¡":99,"¢":100,"£":101,"¤":102,"¥":103,"¦":104,"§":105,"¨":106,"©":107,"ª":108,"«":109,"¬":110,"®":111,"¯":112,"°":113,"±":114,"²":115,"³":116,"´":117,"µ":118,"¶":119,"·":120,"¸":121,"¹":122,"º":123,"»":124,"¼":125,"½":126,"¾":127,"¿":128,"À":129,"Á":130,"Â":131,"Ã":132,"Ä":133,"Å":134,"Æ":135,"Ç":136,"È":137,"É":138,"Ê":139,"Ë":140,"Ì":141,"Í":142,"Î":143,"Ï":144,"Ð":145,"Ñ":146,"Ò":147,"Ó":148,"Ô":149,"Õ":150,"Ö":151,"×":152,"Ø":153,"Ù":154,"Ú":155,"Û":156,"Ü":157,"Ý":158,"Þ":159,"ß":160,"à":161,"á":162,"â":163,"ã":164,"ä":165,"å":166,"æ":167,"ç":168,"è":169,"é":170,"ê":171,"ë":172,"ì":173,"í":174,"î":175,"ï":176,"ð":177,"ñ":178,"ò":179,"ó":180,"ô":181,"õ":182,"ö":183,"÷":184,"ø":185,"ù":186,"ú":187,"û":188,"ü":189,"ý":190,"þ":191,"ÿ":192,"Ā":193,"ā":194,"Ă":195,"ă":196,"Ą":197,"ą":198,"Ć":199,"ć":200,"Ĉ":201,"ĉ":202,"Ċ":203,"ċ":204,"Č":205,"č":206,"Ď":207,"ď":208,"Đ":209,"đ":210,"Ē":211,"ē":212,"Ĕ":213,"ĕ":214,"Ė":215,"ė":216,"Ę":217,"ę":218,"Ě":219,"ě":220,"Ĝ":221,"ĝ":222,"Ğ":223,"ğ":224,"Ġ":225,"ġ":226,"Ģ":227,"ģ":228,"Ĥ":229,"ĥ":230,"Ħ":231,"ħ":232,"Ĩ":233,"ĩ":234,"Ī":235,"ī":236,"Ĭ":237,"ĭ":238,"Į":239,"į":240,"İ":241,"ı":242,"Ĳ":243,"ĳ":244,"Ĵ":245,"ĵ":246,"Ķ":247,"ķ":248,"ĸ":249,"Ĺ":250,"ĺ":251,"Ļ":252,"ļ":253,"Ľ":254,"ľ":255,"Ŀ":256,"ŀ":257,"Ł":258,"ł":259,"Ń":260,"..":261,"Ġt":262,"Ġa":263,"in":264,"he":265,"on":266,"er":267,"re":268,"....":269,"en":270,"at":271,"Ġthe":272,"Ġo":273,"Ġs":274,"es":275,"an":276,"or":277,"al":278,"it":279,"is":280,"Ġc":281,"ed":282,"Ġp":283,"ar":284,"ion":285,"Ġof":286,"nd":287,"ic":288,"Ġw":289,"Ġf":290,"Ġin":291,"Ġ1":292,"Ġd":293,"Ġb":294,"ing":295,"ro":296,"........":297,"Ġand":298,"ent":299,"Ġm":300,"le":301,"as":302,"ĠS":303,"Ġto":304,"ĠC":305,"ou":306,"ct":307,"ĠA":308,"Ġ.":309,"il":310,"Ġ2":311,"ĠT":312,"Ġ(":313,"Ġre":314,"Ġe":315,"om":316,"st":317,"ation":318,"el":319,"00":320,"ĠM":321,"Ġh":322,"Ġn":323,"Ġl":324,"ĠP":325,"Ġth":326,"ol":327,"et":328,"id":329,"ĠI":330,"iv":331,"ra":332,"ce":333,"ur":334,"ĠĠ":335,"ch":336,"ĠR":337,"ĠB":338,"im":339,"ot":340,"................":341,"ĠD":342,"ig":343,"ut":344,"am":345,"us":346,"Ġfor":347,"ment":348,"ĠF":349,"Ġg":350,"ly":351,"ad":352,"Ġbe":353,"ĠN":354,"ers":355,"Ġis":356,"ĠL":357,"ĠH":358,"ĠE":359,"ul":360,"os":361,"un":362,"Ġon":363,"Ġde":364,"ir":365,"ĠĊ":366,"Ġcon":367,"Ġ3":368,"ow":369,"ter":370,"--":371,"ĠW":372,"Ġpro":373,"Ġ19":374,"ĠG":375,"ay":376,"Ġst":377,"ith":378,"ge":379,"Ġv":380,"ist":381,"Ġas":382,"__":383,"ate":384,"Ġthat":385,"ab":386,"if":387,"em":388,"qu":389,"and":390,"ĠO":391,"her":392,"est":393,"ect":394,"res":395,"ort":396,"ĠThe":397,"ity":398,"Ġwith":399,"ĠJ":400,"um":401,"Ġor":402,"Ġ4":403,"Ġan":404,"Ġ0":405,"ri":406,"pp":407,"ver":408,"ac":409,"od":410,"Ġal":411,"ve":412,"ec":413,"ess":414,"oc":415,"th":416,"ies":417,"Ġby":418,"Ġcom":419,"01":420,"ill":421,"Ġsu":422,"Ġex":423,"op":424,"se":425,"Ġat":426,"Ġ5":427,"ant":428,"Ġare":429,"ud":430,"ĠU":431,"Ġwh":432,"19":433,"Ġr":434,"art":435,"ĠSt":436,"ain":437,"rom":438,"nt":439,"ive":440,"ial":441,"ore":442,"Ġit":443,"ĠĠĠĠ":444,"ew":445,"Ġ6":446,"Ġy":447,"Ġwas":448,"Ġ-":449,"our":450,"ure":451,"all":452,"................................":453,"ĠK":454,"end":455,"ia":456,"ld":457,"ard":458,"igh":459,"ff":460,"Ġfrom":461,"ap":462,"ak":463,"ĠIn":464,"und":465,"Ġnot":466,"ber":467,"ĠV":468,"ions":469,"ich":470,"ip":471,"'s":472,"og":473,"Ġ7":474,"ep":475,"Ġsh":476,"Ġ200":477,"ated":478,"ear":479,"age":480,"ary":481,"ical":482,"Ġhe":483,"Ġle":484,"10":485,"ag":486,"ust":487,"ations":488,"____":489,"Ġ\"":490,"ire":491,"Ġ8":492,"ans":493,"up":494,"),":495,"ther":496,"Ġch":497,"ell":498,").":499,"Ġen":500,"ER":501,"iz":502,"Ġha":503,"ine":504,"Ġse":505,"ost":506,"Ġ9":507,"du":508,"11":509,"per":510,"able":511,"cc":512,"ence":513,"Ġsp":514,"for":515,"ub":516,"Ġthis":517,"are":518,"Ġres":519,"12":520,"ie":521,"pl":522,"ts":523,"ance":524,"cl":525,"Ġcont":526,"Ġad":527,"Ġus":528,"ction":529,"ice":530,"ru":531,"ast":532,"ON":533,"Ġk":534,"Ġun":535,"ould":536,"Ġper":537,"----":538,"ere":539,"ib":540,"ĠCh":541,"Ġim":542,"te":543,"Ġcomp":544,"Ġpl":545,"erv":546,"gh":547,"Ġhave":548,"Ġapp":549,"ork":550,"IN":551,"Ġ10":552,"pt":553,"ount":554,"ign":555,"vel":556,"act":557,"Ġ201":558,"ord":559,"ong":560,"ult":561,"Ġ18":562,"Ġwhich":563,"AN":564,"ous":565,"ue":566,"The":567,"ition":568,"fer":569,"ry":570,"ens":571,"AR":572,"15":573,"port":574,"Ġqu":575,"13":576,"ach":577,"ight":578,".,":579,"av":580,"lic":581,"18":582,"ric":583,"Ġall":584,"ass":585,"14":586,"000":587,"20":588,"ide":589,"ual":590,"Ġab":591,"Ġwere":592,"AT":593,"EN":594,"AL":595,"form":596,"ational":597,"ond":598,"ES":599,"ov":600,"ome":601,"ĠTh":602,"ĠCom":603,"Ġla":604,"Ġhas":605,"Ġpart":606,"ĠY":607,"iss":608,"Ġ199":609,"ail":610,"enc":611,"16":612,"ater":613,"Ġj":614,"ments":615,"ian":616,"Ġwe":617,"hen":618,"ase":619,"over":620,"Ġ12":621,"17":622,"ress":623,"OR":624,"Ġme":625,"ates":626,"ons":627,"anc":628,"eg":629,"tern":630,"Ġother":631,"out":632,"ree":633,"ll":634,"to":635,"ory":636,"ark":637,"ĠUn":638,"Ġcomm":639,"ang":640,"ram":641,"Ġdis":642,"ame":643,"ors":644,"ack":645,"ph":646,"Ġdes":647,"ex":648,"Ġcl":649,"ace":650,"30":651,"Ġrec":652,"ific":653,"Ġund":654,"ĠPro":655,"ely":656,"Ġpre":657,"Ġwill":658,"Ġtheir":659,"ime":660,"so":661,"ities":662,"25":663,"ish":664,"oll":665,"Ġar":666,"Ġman":667,"200":668,"ik":669,"ok":670,"ont":671,"erm":672,"ind":673,"Ġass":674,"...":675,"ents":676,"ood":677,"clud":678,"ose":679,"ite":680,"Ġind":681,"ob":682,"ss":683,"Ġag":684,"Ġprov":685,"Ġcons":686,"cid":687,"50":688,"ject":689,"ild":690,"Ġyear":691,"ne":692,"olog":693,"one":694,"mer":695,"24":696,"Ġcan":697,"Ġsub":698,"Ġpr":699,"Ġro":700,"Ġacc":701,"Ġits":702,"io":703,"ile":704,"rib":705,"rans":706,"Ġone":707,"Ġbeen":708,"Ġ15":709,"int":710,"ĠĠĠĠĠĠĠĠ":711,"Ġreg":712,"ied":713,"27":714,"lect":715,"Ġdo":716,"23":717,"Ġtra":718,"yst":719,"ST":720,"Ġ13":721,"Ġ14":722,"eral":723,"ings":724,"ection":725,"Ġinter":726,"Ġalso":727,"Ġhis":728,"Ġunder":729,"Ġ17":730,"Ġev":731,"________":732,"ugh":733,"Ġ16":734,"29":735,"Ġout":736,"IC":737,"Ġbut":738,"Ġmore":739,"26":740,"ys":741,"Ġrel":742,"Ġi":743,"own":744,"rit":745,"ef":746,"Ġany":747,"Ġhad":748,"pe":749,"old":750,"velop":751,"ative":752,"28":753,"Ġimp":754,"Ġ20":755,"Ġmay":756,"we":757,"ystem":758,"ound":759,"vi":760,"Ġsc":761,"Ġte":762,"IT":763,"Ġinc":764,"land":765,"amp":766,"uc":767,"Ġinclud":768,"Ġwork":769,"Ġthey":770,"Ġ&":771,"ility":772,"oy":773,"Ġgro":774,"hed":775,"ng":776,"Ġthan":777,"Ġ198":778,"Ġam":779,"ĠAr":780,"les":781,"40":782,"Ġact":783,"wo":784,"ivers":785,"Ġwho":786,"ert":787,")(":788,"ool":789,"Ġne":790,"ee":791,"ake":792,"Ġ11":793,"ublic":794,"201":795,"ata":796,"gram":797,"Ġ[":798,"ution":799,"Ġob":800,"ited":801,"Ġno":802,"Ġspec":803,"ION":804,"Ġthere":805,"wn":806,"Ġwould":807,"use":808,"22":809,"ident":810,"Ġsuch":811,"ah":812,"red":813,"irst":814,"33":815,"Ġover":816,"Ġra":817,"Ġet":818,"ĠComm":819,"ating":820,"Ġup":821,"Ġrequ":822,"Ġest":823,"pos":824,"inal":825,"ĠRe":826,"Ġoff":827,"here":828,"resent":829,"60":830,"--------":831,"Ġso":832,"Ġeff":833,"ale":834,"Ġyou":835,"aw":836,"ĠAl":837,"Ġstud":838,"ari":839,"pect":840,"rough":841,"ĠHe":842,"EC":843,"ning":844,"Ġbet":845,"Ġ,":846,"oci":847,"its":848,"âĢ":849,"ures":850,"man":851,"hip":852,"35":853,"ks":854,"Ġtime":855,"Ġ$":856,"oh":857,"45":858,"Ġtrans":859,"pport":860,"Ġthese":861,"Ġtwo":862,"Ġserv":863,"ise":864,"stit":865,"ade":866,"ĠAn":867,"ĠDe":868,"gan":869,"21":870,"Ġadd":871,"Ġem":872,"ange":873,"ased":874,"ract":875,"ĠThis":876,"In":877,"ax":878,"ED":879,"Ġgen":880,"iel":881,"Ġinv":882,"ient":883,"ics":884,"Ġpol":885,"ath":886,"70":887,"ted":888,"uring":889,"the":890,"oss":891,"AS":892,"overn":893,"chool":894,"umber":895,"ton":896,"Ġatt":897,"ĠIt":898,"Ġnew":899,"ren":900,"erson":901,"................................................................":902,"ty":903,"Ġent":904,"ĠState":905,"Ġdevelop":906,"ays":907,"AM":908,"ices":909,"36":910,"ĠMar":911,"ug":912,"ĠFor":913,"ĠCon":914,"34":915,"38":916,"ular":917,"75":918,"pr":919,"ft":920,"ision":921,"ĠNew":922,"ember":923,"Ġsystem":924,"ms":925,"formation":926,"ix":927,"99":928,"irect":929,"als":930,"Ġfl":931,"Ġbec":932,"Ġonly":933,"Ġdif":934,"stru":935,"Ġac":936,"ural":937,"ced":938,"EL":939,"oth":940,"Ġsec":941,"air":942,"ible":943,"ner":944,"Ġdet":945,"Ġloc":946,"ween":947,"IS":948,"con":949,"čĠ":950,"OL":951,"80":952,"cent":953,"Ġappro":954,"ough":955,"39":956,"arg":957,"reat":958,"Ġinto":959,"emb":960,"UR":961,"fter":962,"Ġpar":963,"son":964,"ery":965,"tt":966,"44":967,"ollow":968,"ank":969,"Ġabout":970,"Ġ30":971,"Ġ25":972,"Ġyears":973,"Ġmod":974,"ier":975,"Ġfirst":976,"Ġif":977,"37":978,"Ġprodu":979,"Ġ:":980,"ission":981,"ower":982,"ock":983,"ces":984,"oint":985,"Ġ=":986,"ral":987,"Ġdist":988,"cept":989,"ĠSc":990,"cess":991,"Ġwhen":992,"aj":993,"orth":994,"of":995,"ĠZ":996,"Ġsome":997,"Ġbetween":998,"Ġ`":999,"Ġpe":1000,"ick":1001,"AC":1002,"ĠQ":1003,"eth":1004,"Ġthrough":1005,"65":1006,".\"":1007,"OT":1008,"90":1009,"IL":1010,"uth":1011,"urn":1012,"Ġco":1013,"Ġoper":1014,"com":1015,"ĠInd":1016,"eb":1017,"ĠRes":1018,"iversity":1019,"Ġsur":1020,"ward":1021,"any":1022,"ND":1023,"ove":1024,"Ġdef":1025,"ĠPl":1026,"Ġshould":1027,"ING":1028,"Ġreport":1029,"Ġint":1030,"48":1031,"Ġuse":1032,"Ġrem":1033,"Ġval":1034,"ĠCl":1035,"78":1036,"Ġfollow":1037,"Ġprogram":1038,"Ġz":1039,"ĠAd":1040,"Ġ--":1041,"31":1042,"ield":1043,"chn":1044,"Ġshall":1045,"ook":1046,"ĠEx":1047,"der":1048,"ause":1049,"ues":1050,"ional":1051,"ash":1052,"ider":1053,"Ġed":1054,"ET":1055,"==":1056,"49":1057,"ever":1058,"de":1059,"55":1060,"ouse":1061,"RO":1062,"ĠNo":1063,"46":1064,"oun":1065,"76":1066,"Ġel":1067,"Ġused":1068,"ern":1069,"ins":1070,"ets":1071,"ology":1072,"Ġsign":1073,"ten":1074,"hes":1075,"ven":1076,"Ġform":1077,"Ġcol":1078,"Ġdel":1079,"ute":1080,"orn":1081,"Ġpartic":1082,"Ġcount":1083,"ined":1084,"32":1085,"ina":1086,"............":1087,"ines":1088,"Ġ/":1089,"79":1090,"ww":1091,"Ġrequire":1092,"alth":1093,"outh":1094,"II":1095,"Ġour":1096,"raph":1097,"isc":1098,"ey":1099,"ĠOF":1100,"overnment":1101,"Ġ24":1102,"Ġav":1103,"az":1104,"ĠCol":1105,"Ġbu":1106,"ives":1107,"199":1108,"ency":1109,"lement":1110,"Ġkn":1111,"Ġph":1112,"ck":1113,"68":1114,"ants":1115,"fore":1116,"Ġext":1117,"Ġsa":1118,"Ġmost":1119,"ĠPh":1120,"ict":1121,"Ġrep":1122,"Ġcap":1123,"Ġnumber":1124,"ID":1125,"uch":1126,"Ġprovid":1127,"inc":1128,"Ġexp":1129,"ble":1130,"77":1131,"69":1132,"ized":1133,"me":1134,"ily":1135,"Ġeach":1136,"Ġstate":1137,"Ġcent":1138,"Ġdata":1139,"HE":1140,"vent":1141,"ĠSh":1142,"Ġpublic":1143,"AD":1144,"au":1145,"uss":1146,"ENT":1147,"Ġdisc":1148,"Ġset":1149,"Ġwhere":1150,"Ġinformation":1151,"ohn":1152,"ĠRep":1153,"Ġincre":1154,"Ġeffect":1155,"66":1156,"ĠAs":1157,"Ġ28":1158,"58":1159,"Ġsupport":1160,"Ġ'":1161,"view":1162,"Ġfe":1163,"meric":1164,"min":1165,"ann":1166,"OM":1167,"Ġdiffer":1168,"tic":1169,"rol":1170,"ĠSp":1171,"ĠAss":1172,"Ġneed":1173,"ior":1174,"RE":1175,"ulation":1176,"Ġcommun":1177,"Ġmin":1178,"att":1179,"rent":1180,"ĠTe":1181,"ism":1182,"Ġcor":1183,"ified":1184,"iam":1185,"Ġwell":1186,"ety":1187,"47":1188,"Ġhigh":1189,"ĠCo":1190,"US":1191,"ration":1192,"ople":1193,"Ġafter":1194,"Ġresp":1195,"Ġthem":1196,"ret":1197,"enn":1198,"ung":1199,"59":1200,"ĠST":1201,"led":1202,"Ġ21":1203,"tain":1204,"Ġ+":1205,"08":1206,"ved":1207,"Ġperson":1208,"ĠUniversity":1209,"ature":1210,"Ġdec":1211,"St":1212,"iqu":1213,"Ġduring":1214,"ivid":1215,"Ġmade":1216,"ley":1217,"uthor":1218,"ĠFr":1219,"ital":1220,"gy":1221,"ĠLe":1222,"iver":1223,"ploy":1224,"Ġequ":1225,"Ġhow":1226,"Ġcur":1227,"Ġmust":1228,"Ġmon":1229,"orld":1230,"74":1231,"sh":1232,"ike":1233,"ished":1234,"iod":1235,"Ġvi":1236,"LE":1237,"ason":1238,"56":1239,"UN":1240,"čĠĠ":1241,"Ġgroup":1242,"conom":1243,"Ġ29":1244,"Ġcar":1245,"Ġpur":1246,"Ġbl":1247,"Ġprocess":1248,"Ġ22":1249,"Ġend":1250,"otal":1251,"ull":1252,"Ġthose":1253,"ĠX":1254,"88":1255,"Ġ26":1256,"ĠComp":1257,"CH":1258,"Ġcould":1259,"ron":1260,"ĠReg":1261,"lection":1262,"ases":1263,"05":1264,"ĠWe":1265,"ife":1266,"41":1267,"arge":1268,"ability":1269,"Ġthree":1270,",\"":1271,"itt":1272,"ĠCent":1273,"Ġlevel":1274,"ext":1275,"ATION":1276,"73":1277,"ences":1278,"Ġmain":1279,"Ġear":1280,"ĠIN":1281,"rict":1282,"ization":1283,"Ġsim":1284,"ĠDep":1285,"Ġstr":1286,"Ġvari":1287,"itions":1288,"eng":1289,"Ġ23":1290,"ister":1291,"ink":1292,"ĠAct":1293,"ince":1294,"ternational":1295,"ames":1296,"42":1297,"Ġconsider":1298,"ages":1299,"ience":1300,"ĠAmeric":1301,"omen":1302,"Ġinf":1303,"Ġfin":1304,"ĠCar":1305,"Ġwithin":1306,"09":1307,"Ġsm":1308,"ĠJohn":1309,"ards":1310,"ium":1311,"omm":1312,"rop":1313,"Ġmed":1314,"Ġorgan":1315,"Ġque":1316,"iron":1317,"72":1318,"Ġlong":1319,"ĠRo":1320,"Ġins":1321,"43":1322,"ane":1323,"Ġboth":1324,"ris":1325,"iven":1326,"Ġcomple":1327,"Ġpeople":1328,"Ġbel":1329,"ally":1330,"IV":1331,"Ġcour":1332,"Ġ*":1333,"ĠWh":1334,"ruct":1335,"Ġterm":1336,"agement":1337,"Ġmark":1338,");":1339,"ĠOr":1340,"Ġiss":1341,"Ġmany":1342,"ffic":1343,"Ch":1344,"Ġher":1345,"06":1346,"ator":1347,"Ġu":1348,"abl":1349,"Ġpresent":1350,"ĠIs":1351,"Ġty":1352,"Ġcontin":1353,"ows":1354,"ĠSec":1355,"way":1356,"ĠNational":1357,"71":1358,"artment":1359,"ke":1360,"Ġimport":1361,"por":1362,"Ġop":1363,"Ġthen":1364,"ae":1365,"itte":1366,"Ġdep":1367,"Ġfact":1368,"ically":1369,"elf":1370,"Ġactiv":1371,"Ġgo":1372,"arm":1373,"Ġret":1374,"Ġocc":1375,"Ġcost":1376,"ination":1377,"ists":1378,"ote":1379,"Ġsame":1380,"ai":1381,"100":1382,"iness":1383,"02":1384,"arch":1385,"ights":1386,"rid":1387,"ĠCount":1388,"Ġschool":1389,"other":1390,"Ġnon":1391,"une":1392,"ĠStates":1393,"89":1394,".)":1395,"ful":1396,"ality":1397,"rad":1398,"Ġarea":1399,"Ġdesign":1400,"03":1401,"________________":1402,"ĠMan":1403,"ather":1404,"ining":1405,"Ġ................................":1406,"85":1407,"ĠĠĊ":1408,"Ġ100":1409,"Ġdirect":1410,"Ġincluding":1411,"Ġfac":1412,"RA":1413,"ailable":1414,"Ġlaw":1415,"ample":1416,"86":1417,"irc":1418,"orm":1419,"ĠUS":1420,"round":1421,"Ġagain":1422,"Th":1423,"ential":1424,"els":1425,"Ġbeing":1426,"ize":1427,"ocial":1428,"ption":1429,"Ġproject":1430,"duct":1431,"Ġser":1432,"Ġ31":1433,"EM":1434,"ross":1435,"Ġrece":1436,"Ġdevelopment":1437,"embers":1438,"viron":1439,"ĠEn":1440,"Ġ27":1441,"ĠAll":1442,"rim":1443,"ries":1444,"ars":1445,"Ġdem":1446,"uro":1447,"ared":1448,"ense":1449,"04":1450,"ĠUnited":1451,"Ġposs":1452,"ept":1453,"yn":1454,"Ġexper":1455,"**":1456,"Ġperiod":1457,"Ġpos":1458,"Ġes":1459,"ended":1460,"UT":1461,"ĠBo":1462,"64":1463,"Ġsee":1464,"ille":1465,"Ġgeneral":1466,"Ġconc":1467,"Ġown":1468,"ĠGen":1469,"ived":1470,"ave":1471,"Ġchild":1472,"ness":1473,"Ġpop":1474,"ym":1475,"Ġfollowing":1476,"Ġfound":1477,"Ġconf":1478,"Ġwater":1479,"Ġtechn":1480,"ividual":1481,"Ġdi":1482,"UL":1483,"Ġbecause":1484,"ference":1485,"Ġadv":1486,"Ġcre":1487,"lear":1488,"54":1489,"Ġland":1490,"erc":1491,"istor":1492,"Ġident":1493,"Ġleg":1494,"67":1495,"Ġvery":1496,"AP":1497,"uman":1498,"ode":1499,"ources":1500,"Ġaddition":1501,"Ġrecord":1502,"Ġwhat":1503,"ĠMin":1504,"Ġcond":1505,"Ġpres":1506,"52":1507,"hem":1508,"51":1509,"ii":1510,"igure":1511,"Ġshe":1512,"ury":1513,"Ġbas":1514,"Ġpo":1515,"Ġbuild":1516,"Ġstand":1517,"ington":1518,"57":1519,"ĠGe":1520,"Ġsecond":1521,"usiness":1522,"Ġauthor":1523,"yl":1524,"med":1525,"Ġanal":1526,"Ġlead":1527,"53":1528,"07":1529,"ately":1530,"ilit":1531,"sc":1532,"ittee":1533,"ious":1534,"ett":1535,"ran":1536,"Ġdesc":1537,"Ġder":1538,"IR":1539,"ued":1540,"Ġref":1541,"ĠMr":1542,"ification":1543,"Ġinvest":1544,"Ġfund":1545,"ajor":1546,"Ġprot":1547,"IG":1548,"Ġer":1549,"ĠServ":1550,"aking":1551,"63":1552,"ĠBl":1553,"pro":1554,"Ġpat":1555,"Ġ00":1556,"Ġbefore":1557,"Ġorder":1558,"vironment":1559,"OS":1560,"ĠAg":1561,"AG":1562,"62":1563,"Ġcase":1564,"idence":1565,"Ġpercent":1566,"ĠAnd":1567,"by":1568,"Ġlim":1569,"mit":1570,"61":1571,"Ġgu":1572,"ĠEng":1573,"ĠHow":1574,"ised":1575,"----------------":1576,"illion":1577,"ilities":1578,"Ìģ":1579,"af":1580,"ource":1581,"ird":1582,"Ġapplic":1583,"Ġresult":1584,"ales":1585,"Ġtest":1586,"Ġfun":1587,"ribut":1588,"Ġproper":1589,"Ġdid":1590,"ĠFl":1591,"rist":1592,"Ġperform":1593,"UM":1594,"98":1595,"ĠSe":1596,"ĠNorth":1597,"ively":1598,"istory":1599,"ults":1600,"lev":1601,"Ġmeas":1602,"ĠApp":1603,"Ġinterest":1604,"Ġlocal":1605,"ott":1606,"atic":1607,"ĠAm":1608,"Ġx":1609,"ada":1610,"Ġavailable":1611,"row":1612,"@@":1613,"ĠPol":1614,"ĠCal":1615,"reg":1616,"Ġoffic":1617,"eh":1618,"Ġfam":1619,"Ġplan":1620,"Ġplay":1621,"Ġsl":1622,"Ġdifferent":1623,"Ġsection":1624,"ograph":1625,"ev":1626,"ateg":1627,"org":1628,"aterial":1629,"ify":1630,"Ġ50":1631,"Ġmat":1632,"Ġhim":1633,"ĠPr":1634,"ĠCounty":1635,"ĠCont":1636,"Ġelect":1637,"struction":1638,"tal":1639,"Ġbo":1640,"Ġever":1641,"Ġsmall":1642,"Ġgr":1643,"Ġ2010":1644,"Ġemploy":1645,"Ġeduc":1646,"Ġgovernment":1647,"Ġaff":1648,"ving":1649,"Ġsignific":1650,"IA":1651,"icy":1652,"Ġeconom":1653,"Ġservices":1654,"Ġprovide":1655,"ancial":1656,"ĠYork":1657,"ĠSchool":1658,"Ġcurrent":1659,"Ġ................":1660,"ĠIf":1661,"ethod":1662,"ological":1663,"vers":1664,"aff":1665,"Ġcall":1666,"ĠAt":1667,"Ġexpl":1668,"ĠDepartment":1669,"Ġpass":1670,"Ġindividual":1671,"imes":1672,"umb":1673,"ĠOn":1674,"EP":1675,"ocu":1676,"87":1677,"fess":1678,"Ġmet":1679,"Ġindic":1680,"ccess":1681,"ĠJan":1682,"ubl":1683,"ances":1684,"gg":1685,"IST":1686,"ertain":1687,"urther":1688,"be":1689,"sp":1690,"84":1691,"Ġdeterm":1692,"Ġestabl":1693,"IM":1694,"ĠTHE":1695,"Ġ2008":1696,"//":1697,"Ġdoes":1698,"bert":1699,"Ġcontrol":1700,"ĠMay":1701,"Ġjust":1702,"Ġclass":1703,"Ġmake":1704,"Ġrese":1705,"ECT":1706,"minist":1707,"ĠMed":1708,"Ġfour":1709,"val":1710,"cil":1711,"Ġ40":1712,"ĠPart":1713,"82":1714,"Ġmembers":1715,"):":1716,"road":1717,"Ġris":1718,"Ġstat":1719,"reet":1720,"Ġmy":1721,"get":1722,"Ġchar":1723,"earch":1724,"urs":1725,"Ġben":1726,"Ġvol":1727,"ĠEd":1728,"Ġeven":1729,"let":1730,"Ġsol":1731,"Ġfore":1732,"iving":1733,"duc":1734,"ĠCity":1735,"83":1736,"work":1737,"itor":1738,"Ġcare":1739,"95":1740,"Ġsit":1741,"Ġparticular":1742,"Ġless":1743,"Ġpract":1744,"Ġareas":1745,"app":1746,"abor":1747,"ĠWill":1748,"Ġ2005":1749,"ourn":1750,"Ġlo":1751,"AND":1752,"acter":1753,"ĠCan":1754,"====":1755,"Ġrepresent":1756,"Ġfr":1757,"uation":1758,"reen":1759,"stand":1760,"ĠAND":1761,"Ġbased":1762,"Ġproble":1763,"Ġ2009":1764,"ĠThere":1765,"eter":1766,"ains":1767,"Ġimportant":1768,"'t":1769,"Ġknow":1770,"Ġagainst":1771,"gin":1772,"81":1773,"OC":1774,"ysis":1775,"Ġhealth":1776,"ually":1777,"Ġservice":1778,"Ġgra":1779,"Ġ2006":1780,"Ġplace":1781,"Ġmeet":1782,"ĠCor":1783,"Ġ2007":1784,"Ġgl":1785,"amb":1786,"OD":1787,"ĠSouth":1788,"Ġann":1789,"Ġyour":1790,"Ġ................................................................":1791,"Ġvalue":1792,"Ġmajor":1793,"ĠMc":1794,"AY":1795,"Ġback":1796,"ĠRec":1797,"Ġ2011":1798,"Ġlarge":1799,"stitution":1800,"ĠNov":1801,"ĠĠĠĠĠĠĠĠĠĠĠĠĠĠĠĠ":1802,"Ġwhile":1803,"leg":1804,"Ġprovided":1805,"Ġvis":1806,"ask":1807,"Ġusing":1808,"Pro":1809,"Ġpower":1810,"ĠGu":1811,"Ġsever":1812,"Ġimpro":1813,"Ġrest":1814,"Ġnational":1815,"ĠDr":1816,"Ġaccess":1817,"ado":1818,"ĠDist":1819,"ructure":1820,"Ġstudy":1821,"ĠAb":1822,"Ġchang":1823,"Ġrespect":1824,"na":1825,"Ġquest":1826,"ering":1827,"ouncil":1828,"read":1829,"ĠPar":1830,"urope":1831,"Ġgood":1832,"Ġproduct":1833,"Ġlist":1834,"ecess":1835,"aus":1836,"Ġ35":1837,"ĠAmerican":1838,"Ġles":1839,"hold":1840,"Ġgiven":1841,"Ġtotal":1842,"Ġpay":1843,"Ġinclude":1844,"AB":1845,"Ġexample":1846,"Ġdu":1847,"lp":1848,"Ġwithout":1849,"IP":1850,"ze":1851,"lege":1852,"ats":1853,"Ġsaid":1854,"Ġnow":1855,"urity":1856,"97":1857,"96":1858,"ring":1859,"ĠPres":1860,"less":1861,"Ġsignificant":1862,"ĠEl":1863,"Ġ2012":1864,"ament":1865,"roup":1866,"Ġinst":1867,"Ġaccount":1868,"ederal":1869,"Ġsupp":1870,"ĠCommission":1871,"Ġhand":1872,"Ġpri":1873,"day":1874,"ana":1875,"ERS":1876,"Ġorig":1877,"ene":1878,"serv":1879,"Ġpoint":1880,"Ġmuch":1881,"incip":1882,"://":1883,"urch":1884,"ints":1885,"Ġway":1886,"Ġtax":1887,"ĠTo":1888,"Ġabove":1889,"ĠOct":1890,"ĠPark":1891,"Ġresearch":1892,"Ġexist":1893,"Ġ2000":1894,"Ġpost":1895,"eration":1896,"ecut":1897,"ica":1898,"TH":1899,"Ġ2004":1900,"ves":1901,"Ġeng":1902,"ttp":1903,"iles":1904,"ford":1905,"Ġrequired":1906,"Ġmaterial":1907,"ĠTra":1908,"Ġassoci":1909,"struct":1910,"ĠReport":1911,"ĠJu":1912,"ceed":1913,"pri":1914,"ogn":1915,"Ġbusiness":1916,"Ġ...":1917,"alt":1918,"Ġdr":1919,"Ġvs":1920,"Ġsocial":1921,"cem":1922,"ĠPer":1923,"Ġfield":1924,"che":1925,"ij":1926,"ief":1927,"Ġgrow":1928,"Ġright":1929,"92":1930,"Ġread":1931,"uk":1932,"Ġpot":1933,"ecial":1934,"ĠThese":1935,"Ġwomen":1936,"Ġ2014":1937,"ĠIm":1938,"Ġspecies":1939,"Ġ2003":1940,"94":1941,"ention":1942,"CT":1943,"vey":1944,"Ġrespons":1945,"ĠCH":1946,"ison":1947,"ĠCO":1948,"put":1949,"ĠMe":1950,"ĠInter":1951,"ĠCommittee":1952,"Ġparticip":1953,"ple":1954,"Ġestim":1955,"Ġtr":1956,"ilar":1957,"Ġchange":1958,"aken":1959,"ently":1960,"ered":1961,"ili":1962,"Ġ32":1963,"Ġredu":1964,"uf":1965,"ĠGeneral":1966,"Ġnet":1967,"ĠAug":1968,"Ġhouse":1969,"arn":1970,"Ġtre":1971,"lo":1972,"ĠCour":1973,"ained":1974,"Ġpropos":1975,"ĠStud":1976,"atory":1977,"93":1978,"Ġinvol":1979,"Ġpolit":1980,"ĠDirect":1981,"ĠWest":1982,"Ġ2013":1983,"NA":1984,"ique":1985,"Ġ33":1986,"Ġopen":1987,"91":1988,"Ġlike":1989,"Ġ#":1990,"Ġ|":1991,"Ġevery":1992,"Ġsince":1993,"Ġhelp":1994,"ĠHar":1995,"Ġ2002":1996,"OW":1997,"ibility":1998,"Ġmillion":1999,"ĠĠĠ":2000,"Ġtake":2001,"vious":2002,"ĠSch":2003,"Ġchildren":2004,"Ġmethod":2005,"ler":2006,"ected":2007,"Ġhig":2008,"osp":2009,"ico":2010,"Ġnecess":2011,"ĠTrans":2012,"atural":2013,"Ġsubject":2014,"ĠJune":2015,"Ġworld":2016,"ĠEurope":2017,"Ġcommunity":2018,"ribution":2019,"ĠSee":2020,"Ġprim":2021,"cember":2022,"ried":2023,"Ġobject":2024,"Ġ)":2025,"Ġteam":2026,"Ġstudents":2027,"ara":2028,"Ġpriv":2029,"Ġbenef":2030,"ule":2031,"Ar":2032,"ingle":2033,"co":2034,"itive":2035,"Un":2036,"ici":2037,"Ġday":2038,"Ġpers":2039,"ĠBe":2040,"ĠAf":2041,"Ġmanagement":2042,"ino":2043,"ĠLa":2044,"An":2045,"Ġamong":2046,"Ġmarket":2047,"Ġwhe":2048,"ma":2049,"line":2050,"ĠOff":2051,"ĠBro":2052,"arent":2053,"CE":2054,"ĠSept":2055,"Ġmar":2056,"ting":2057,"Ġline":2058,"Ġfre":2059,"Ġ2015":2060,"Ġ34":2061,"Ġlow":2062,"ham":2063,"ĠHowever":2064,"ody":2065,"ither":2066,"ulations":2067,"Ġ36":2068,"raft":2069,"oot":2070,"lu":2071,"roll":2072,"aim":2073,"ociety":2074,"Ġwrit":2075,"uel":2076,"yd":2077,"verage":2078,"isions":2079,"Ġ2001":2080,"Ġinit":2081,"Ġsk":2082,"ĠApr":2083,"Ġlast":2084,"Ġshow":2085,"Ġdiscuss":2086,"Ġtem":2087,"ATE":2088,"Total":2089,"uary":2090,"ones":2091,"ville":2092,"Ġview":2093,"Ġamount":2094,"ival":2095,"alf":2096,"Ġ;":2097,"not":2098,"Ġlife":2099,"rel":2100,"angu":2101,"unic":2102,"ek":2103,"alk":2104,"Ġdescrib":2105,"Ġprom":2106,"ĠWilliam":2107,"Ġindust":2108,"imum":2109,"urg":2110,"ps":2111,"Ġlos":2112,"www":2113,"though":2114,"TS":2115,"Ġrun":2116,"ĠII":2117,"Ġcrit":2118,"ultural":2119,"ournal":2120,"Ġche":2121,"Ġbeh":2122,"isl":2123,"Ġfurther":2124,"Ġreal":2125,"Ġimpact":2126,"ector":2127,"Ġdue":2128,"ura":2129,"Ġfinancial":2130,"Ġdocu":2131,"ĠDes":2132,"ators":2133,"uture":2134,"Ġfind":2135,"ĠThey":2136,"den":2137,"Ġallow":2138,"Ġmonth":2139,"lected":2140,"Ġaddress":2141,"ĠCons":2142,"Ġter":2143,"cy":2144,"ien":2145,"rodu":2146,"Ġpossible":2147,"Ġactivities":2148,"ney":2149,"ired":2150,"Ġrate":2151,"ume":2152,"Ġmult":2153,"iment":2154,"Ġnear":2155,"oph":2156,"Ġaccord":2157,"ashington":2158,"ending":2159,"OP":2160,"ĠCouncil":2161,"Ġpopulation":2162,"Ġhuman":2163,"ĠInc":2164,"ĠâĢ":2165,"ĠDav":2166,"ĠInternational":2167,"Ġcover":2168,"Ġspecial":2169,"ably":2170,"Ġrad":2171,"til":2172,"Ġstart":2173,"Ġreview":2174,"ĠStreet":2175,"ĠEm":2176,"ĠAust":2177,"ĠRE":2178,"Ġdown":2179,"SP":2180,"Ġ60":2181,"ilt":2182,"par":2183,"ART":2184,"Ġda":2185,"eed":2186,"olution":2187,"li":2188,"stitut":2189,"urb":2190,"Ġimplement":2191,"Ġcountries":2192,"ĠMich":2193,"Ġeducation":2194,"Ġair":2195,"Ġcountry":2196,"CC":2197,"ĠShe":2198,"ĠSu":2199,"EST":2200,"Ġclear":2201,"clus":2202,"Ġenvironment":2203,"Ġ45":2204,"ĠVal":2205,"ware":2206,"umm":2207,"ĠDE":2208,"ĠMarch":2209,"ĠChar":2210,"ĠBut":2211,"iter":2212,"Con":2213,"ling":2214,"Ġseveral":2215,"Ġpp":2216,"adem":2217,"Ġsystems":2218,"ĠFeb":2219,"ills":2220,"Ġaut":2221,"ĠGr":2222,"Ġport":2223,"Ġlater":2224,"ĠHigh":2225,"Ġsuccess":2226,"ĠBr":2227,"Ġcal":2228,"IF":2229,"Ġmen":2230,"lin":2231,"Ġcharacter":2232,"Ġ38":2233,"ober":2234,"ux":2235,"akes":2236,"ticle":2237,"Ġdom":2238,"....................":2239,"ĠProgram":2240,"Ġresults":2241,"Ġ37":2242,"Ġcompet":2243,"ĠChrist":2244,"ured":2245,"ories":2246,"Ġconduct":2247,"ĠGovernment":2248,"âĢĻ":2249,"apter":2250,"Ġtyp":2251,"rial":2252,"SS":2253,"ĠService":2254,"ĠTotal":2255,"ĠJuly":2256,"Ġearly":2257,"face":2258,"rag":2259,"Ġassess":2260,"teg":2261,"ĠNot":2262,"estern":2263,"Ġappropri":2264,"This":2265,"Ġsom":2266,"epend":2267,"ĠHouse":2268,"Ġ39":2269,"Ġname":2270,"ours":2271,"Ġbuilding":2272,"ĠSm":2273,"Al":2274,"ĠSan":2275,"Ġhere":2276,"ĠPlan":2277,"stitute":2278,"Ġcertain":2279,"ivision":2280,"ĠGl":2281,"Ġcomb":2282,"ules":2283,"aster":2284,"ĠLaw":2285,"ony":2286,"ĠAc":2287,"Ġgreat":2288,"CA":2289,"Ġhttp":2290,"ole":2291,"Ġens":2292,"ridge":2293,"ĠQu":2294,"Ġhead":2295,"Ġstre":2296,"Ġanother":2297,"Ġappear":2298,"ored":2299,"Ġcirc":2300,"unity":2301,"Ġwhether":2302,"500":2303,"osed":2304,"aper":2305,"Ġmodel":2306,"No":2307,"Ġpor":2308,"Ġprior":2309,"ĠBar":2310,"Ġwar":2311,"Ġpolicy":2312,"\",":2313,"Ġexam":2314,"ĠAssoci":2315,"Ġregard":2316,"ieve":2317,"Ġreturn":2318,"Ġleast":2319,"go":2320,"inn":2321,"ĠDecember":2322,"Ġ<":2323,".-":2324,"ĠUN":2325,"Ġincrease":2326,"Ġanalysis":2327,"ĠCollege":2328,"Ġpotential":2329,"ots":2330,"ope":2331,"ĠCourt":2332,"istics":2333,"off":2334,"ides":2335,"ape":2336,"velopment":2337,"Ġden":2338,"Ġlarg":2339,"Ġconditions":2340,"ox":2341,"ership":2342,"gen":2343,"Ġprincip":2344,"CO":2345,"ta":2346,"Ġstill":2347,"acin":2348,"Ġart":2349,"Ġfunction":2350,"my":2351,"aul":2352,"Ġrefer":2353,"atives":2354,"UB":2355,"hib":2356,"ends":2357,"sequ":2358,"ida":2359,"ush":2360,"ĠPre":2361,"Ġ~":2362,"Ġuntil":2363,"Ġalong":2364,"Ġcases":2365,"ĠWar":2366,"Ġlik":2367,"ĠPublic":2368,"Ġ%":2369,"ĠInt":2370,"ilitary":2371,"ĠWorld":2372,"ĠGroup":2373,"aces":2374,"fic":2375,"Ġrights":2376,"Ġtrad":2377,"Ġfew":2378,"ĠBoard":2379,"ĠResearch":2380,"Ġenc":2381,"Ġ1999":2382,"Ġsimilar":2383,"Ġexpect":2384,"Ġproperty":2385,"PS":2386,"lex":2387,"Ġinternational":2388,"ray":2389,"Ġassist":2390,"Ġhowever":2391,"Ġspecific":2392,"Ġmeans":2393,"RI":2394,"idd":2395,"ster":2396,"igation":2397,"ĠSection":2398,"Ġobserv":2399,"........................":2400,"ĠCalif":2401,"Ġincluded":2402,"la":2403,"orts":2404,"ems":2405,"Ġtreat":2406,"Ġevidence":2407,"aries":2408,"ĠWashington":2409,"oor":2410,"Ġupon":2411,"cri":2412,"Ġword":2413,"ype":2414,"Ġtype":2415,"ergy":2416,"Ġcommon":2417,"ih":2418,"aps":2419,"Ġgener":2420,"Ġconcern":2421,"stant":2422,"Ex":2423,"LA":2424,"Ġrisk":2425,"ĠSystem":2426,"ittle":2427,"ead":2428,"Ġcontract":2429,"''":2430,"ĠMon":2431,"Ġfuture":2432,"Ġwind":2433,"ulture":2434,"Ġoccur":2435,"ivil":2436,"gu":2437,"ising":2438,"Ġconn":2439,"ĠAnn":2440,"OV":2441,"Ġsugg":2442,"wards":2443,"ĠCompany":2444,"que":2445,"obal":2446,"Ġfinal":2447,"Ġdev":2448,"ĠApril":2449,"ĠCON":2450,"Ġsuggest":2451,"Ġrelations":2452,"Ġfive":2453,"TER":2454,"Ġviol":2455,"Ġdetail":2456,"Ġgroups":2457,"Ġdie":2458,"imate":2459,"lor":2460,"Ġage":2461,"Ġmember":2462,"Ġfamily":2463,"ĠDec":2464,"str":2465,"ĠHealth":2466,"ĠSub":2467,"gress":2468,"ĠAugust":2469,"ables":2470,"rew":2471,"Ġver":2472,"uck":2473,"Ġrecogn":2474,"vention":2475,"Ġdays":2476,"Ġthough":2477,"Ġ42":2478,"ways":2479,"Ġrecomm":2480,"ĠSeptember":2481,"Ġtaken":2482,"Ġeconomic":2483,"Ġarr":2484,"ees":2485,"Ġsaf":2486,"ĠCenter":2487,"ĠAfric":2488,"ĠBu":2489,"side":2490,"iff":2491,"Ġ48":2492,"Ġshort":2493,"yr":2494,"Ġknown":2495,"ĠPresident":2496,"Ġagree":2497,"ornia":2498,"Ġ44":2499,"ĠAir":2500,"ude":2501,"Ġchanges":2502,"Ġnecessary":2503,"ternal":2504,"ĠOther":2505,"Ġreported":2506,"Ġfull":2507,"Ġinteg":2508,"bor":2509,"Ġdate":2510,"epar":2511,"Ġut":2512,"Ġposition":2513,"Ġ1998":2514,"Ġtop":2515,"ands":2516,"Ġreason":2517,"Ġfil":2518,"ror":2519,"Ġmight":2520,"As":2521,"pond":2522,"PP":2523,"Ġsite":2524,"ĠEduc":2525,"oe":2526,"Ġphys":2527,"Ġsingle":2528,"ĠĠĠĊ":2529,"Ġrelated":2530,"venue":2531,"ires":2532,"UD":2533,"omp":2534,"ledge":2535,"ĠEast":2536,"ĠStat":2537,"Ġbi":2538,"Ġbest":2539,"ĠVol":2540,"ait":2541,"AV":2542,"omb":2543,"rick":2544,"ĠRiver":2545,"ĠTO":2546,"ipp":2547,"].":2548,"Ġoften":2549,"ĠDistrict":2550,"ĠJanuary":2551,"Ġconsidered":2552,"standing":2553,"Ġhigher":2554,"mitted":2555,"ĠYou":2556,"Ġcosts":2557,"istic":2558,"Ġ41":2559,"Ġdeb":2560,"aid":2561,"asing":2562,"Ġoriginal":2563,"ĠSecret":2564,"EW":2565,"part":2566,"ĠBrit":2567,"wh":2568,"Ġpubl":2569,"Figure":2570,"ARD":2571,"ondon":2572,"Ġdeg":2573,"Ġside":2574,"Ġbre":2575,"Ġadditional":2576,"Ġterms":2577,"Ġold":2578,"ĠSo":2579,"ĠÐ":2580,"Ġsubs":2581,"iet":2582,"Ġmean":2583,"Ġmove":2584,"ĠAcc":2585,"raw":2586,"ocus":2587,"SC":2588,"Ġrequest":2589,"Ġimprove":2590,"ona":2591,"ald":2592,"itional":2593,"Ġreceived":2594,"umer":2595,"ĠOffice":2596,"Table":2597,"ha":2598,"Ġach":2599,"ĠFin":2600,"tion":2601,"Ġstaff":2602,"ati":2603,"su":2604,"............................":2605,"Ġrange":2606,"lands":2607,"ĠOctober":2608,"ĠDef":2609,"Ġaction":2610,"Page":2611,"Ġsix":2612,"Ġproduction":2613,"Ġpress":2614,"Ġpolitical":2615,"ki":2616,"Ġtraining":2617,"encies":2618,"istoric":2619,"ctions":2620,"ĠTr":2621,"Ġ43":2622,"Ġexcept":2623,"ato":2624,"yp":2625,"Ġaround":2626,"see":2627,"Ġeither":2628,"Wh":2629,"eal":2630,"Ġneg":2631,"Ġprevious":2632,"Ġground":2633,"Ġresources":2634,"ension":2635,"Ġvarious":2636,"ych":2637,"atch":2638,"aced":2639,"Ġproced":2640,"ĠAR":2641,"pose":2642,"oid":2643,"ender":2644,"iber":2645,"Ġlas":2646,"hers":2647,"Ġhold":2648,"ĠPress":2649,"Ġide":2650,"ervation":2651,"ione":2652,"medi":2653,"Ġofficial":2654,"Ġbelow":2655,"Ġissues":2656,"ĠSur":2657,"ĠProv":2658,"anguage":2659,"Ġclaim":2660,"ores":2661,"Ġprob":2662,"Ġcourse":2663,"ĠOne":2664,"Ġperformance":2665,"no":2666,"ĠBy":2667,"%)":2668,"Ġquestion":2669,"ĠTechn":2670,"usic":2671,"Ġ46":2672,"SE":2673,"ĠSw":2674,"ĠFOR":2675,"Ġrequirements":2676,"ĠDay":2677,"Ġ47":2678,"thern":2679,"Ġjud":2680,"Ġtimes":2681,"aining":2682,"xim":2683,"ĠCong":2684,"Ġsex":2685,"ĠJournal":2686,"ĠAL":2687,"Ġheld":2688,"We":2689,"GE":2690,"Ġmot":2691,"Ġ49":2692,"ges":2693,"Ġ55":2694,"Ġsepar":2695,"Ġleft":2696,"irm":2697,"ĠGerm":2698,"ĠDevelopment":2699,"Ġenergy":2700,"Ġgrowth":2701,"ball":2702,"Ġexpress":2703,"ecutive":2704,"Ġfail":2705,"onse":2706,"Ġesp":2707,"ĠCalifornia":2708,"kn":2709,"Ġcompl":2710,"Ġobtain":2711,"Ġprograms":2712,"ILL":2713,"nder":2714,"Ġhistory":2715,"\".":2716,"ibr":2717,"Ad":2718,"Ġprivate":2719,"ĠSen":2720,"unt":2721,"Ġ1996":2722,"ci":2723,"Ġaverage":2724,"Ġ1997":2725,"mission":2726,"Ġdecl":2727,"BER":2728,"ĠWith":2729,"Ġbasis":2730,"@@@@":2731,"Ġspace":2732,"ĠEst":2733,"ruary":2734,"outhern":2735,"aged":2736,"Ġstructure":2737,"Ġ1990":2738,"Ġadminist":2739,"inter":2740,"Ġoperations":2741,"Ġcamp":2742,"Ġnatural":2743,"ĠNovember":2744,"Ġsent":2745,"Ġhome":2746,"Ġ70":2747,"Ġpast":2748,"nes":2749,"atter":2750,"orge":2751,"pper":2752,"ĠRoad":2753,"ĠWhen":2754,"exas":2755,"Ġlook":2756,"Ġapproach":2757,"ĠMark":2758,"Ġoffer":2759,"Ġopt":2760,"For":2761,"To":2762,"ĠDirector":2763,"Ġassociated":2764,"TR":2765,"ĠFore":2766,"redit":2767,"ehic":2768,"reek":2769,"Ġappropriate":2770,"Ġlower":2771,"Ġconsist":2772,"Ġdocument":2773,",,":2774,"field":2775,"rast":2776,"Ġstrong":2777,"with":2778,"Ġprofess":2779,"Ġdon":2780,"oma":2781,"Ġlevels":2782,"cul":2783,"ength":2784,"Ġ01":2785,"ĠCap":2786,"Ġbook":2787,"ALL":2788,"bs":2789,"Ġestablished":2790,"Ġcalled":2791,"Ġvers":2792,"ĠAustral":2793,"Ġkey":2794,"Ġproblem":2795,"acy":2796,"TA":2797,"ĠPe":2798,"Ġbroad":2799,"Ġquality":2800,"ensive":2801,"acity":2802,"Ġadj":2803,"Ġpoints":2804,"Ġopport":2805,"rd":2806,"vest":2807,"cont":2808,"action":2809,"well":2810,"Ġant":2811,"Ġrepl":2812,"Ġincreased":2813,"Ġill":2814,"Ġmaintain":2815,"omas":2816,"Ġ1995":2817,"OLL":2818,"ka":2819,"Ġstudies":2820,"ĠJames":2821,"Ġfar":2822,"Ġnext":2823,"ama":2824,"nel":2825,"ients":2826,"Ġlikely":2827,"ishing":2828,"ĠWork":2829,"Ġsat":2830,"ĠMor":2831,"Ġ80":2832,"It":2833,"Ġge":2834,"Ġcity":2835,"rain":2836,"ĠMiss":2837,"ĠRich":2838,"ipment":2839,"ella":2840,"era":2841,"abit":2842,"FF":2843,"erve":2844,"Ġnetwork":2845,"oms":2846,"pre":2847,"Ġevent":2848,"Ġ2016":2849,"ĠAre":2850,"ĠPR":2851,"Ġothers":2852,"Ġcommunic":2853,"Ġmov":2854,"Ġbecome":2855,"Ġfocus":2856,"merg":2857,"OU":2858,"ĠOper":2859,"Re":2860,"Ġpred":2861,"Ġce":2862,"Ġincome":2863,"Ġcompany":2864,"Ġbr":2865,"2010":2866,"utes":2867,"Ġfa":2868,"wood":2869,"AK":2870,"Ġprovides":2871,"~~":2872,"za":2873,"Ġeval":2874,"respond":2875,"Ġrev":2876,"lease":2877,"Ġaccept":2878,"Ġgre":2879,"Ġget":2880,"ros":2881,"rug":2882,"Ġrole":2883,"otes":2884,"PR":2885,"fl":2886,"Ġthink":2887,"ples":2888,"Ġcaus":2889,"Ġloss":2890,"TE":2891,"ero":2892,"atures":2893,"amed":2894,"Ġsuper":2895,"Ġcourt":2896,"ĠRev":2897,"Ġsecurity":2898,"ficult":2899,"men":2900,"chan":2901,"ĠIndian":2902,"Ġsay":2903,"Ġdescribed":2904,"ael":2905,"Ġacross":2906,"MENT":2907,"Ġconstruction":2908,"Ġbro":2909,"ĠCarol":2910,"Ġlet":2911,"ls":2912,"ĠRel":2913,"Ġbase":2914,"ordin":2915,"lied":2916,"Ġsize":2917,"ĠDavid":2918,"Ġhaving":2919,"Ġfram":2920,"Ġroad":2921,"Ġ65":2922,"Ġarch":2923,"Ġturn":2924,"Ġcop":2925,"Ġissue":2926,"ades":2927,"ĠLondon":2928,"END":2929,"sw":2930,"ches":2931,"ĠDel":2932,"ections":2933,"Ġapplication":2934,"......":2935,"airs":2936,"ĠAnt":2937,"ita":2938,"Ġdeveloped":2939,"ĠInstitute":2940,"aring":2941,"Ġworking":2942,"ago":2943,"ĠAssociation":2944,"ĠHistory":2945,"Ġneeds":2946,"ĠSecretary":2947,"aint":2948,"Ġshown":2949,"ITY":2950,"Ġ52":2951,"SH":2952,"ĠYear":2953,"most":2954,"Ġthird":2955,"itle":2956,"oney":2957,"Ġregion":2958,"Ġ90":2959,"Ġ1994":2960,"Ġabs":2961,"ya":2962,"ĠBer":2963,"Ġ75":2964,"OH":2965,"Ġtw":2966,"Ġeas":2967,"bit":2968,"ca":2969,"itect":2970,"hern":2971,"Ġdifficult":2972,"Ġke":2973,"gn":2974,"Ġ54":2975,"Ġstandard":2976,"ians":2977,"ÌĪ":2978,"Ġdecision":2979,"ĠFirst":2980,"ette":2981,"Ġson":2982,"oman":2983,"apt":2984,"Ġfree":2985,"Ġput":2986,"Ġ53":2987,"Ġvalues":2988,"Cl":2989,"SA":2990,"Ġcapital":2991,"ĠIND":2992,"ĠFund":2993,"irgin":2994,"ĠHer":2995,"Ġ56":2996,"Ġ51":2997,"Ġcomput":2998,"Ġadop":2999,"ĠAng":3000,"ĠManagement":3001,"ares":3002,"ĠArch":3003,"Ġtransport":3004,"ĠEducation":3005,".:":3006,"2000":3007,"ises":3008,"agraph":3009,"Ġprof":3010,"2012":3011,"rap":3012,"ĠElection":3013,"ĠSociety":3014,"ams":3015,"ORT":3016,"ĠFebruary":3017,"sych":3018,"ĠPat":3019,"Ġshare":3020,"ĠAdd":3021,"Ġproposed":3022,"Ġ_":3023,"Ġcust":3024,"Ġexisting":3025,"iddle":3026,"PA":3027,"iction":3028,"Ġlight":3029,"ĠEuropean":3030,"rs":3031,"Ġorganiz":3032,"ĠMod":3033,"Ġeffects":3034,"OTAL":3035,"Ġpara":3036,"rated":3037,"Ġeffective":3038,"ĠIndia":3039,"Ġmonths":3040,"istry":3041,"Ġask":3042,"Ġcome":3043,"Ġrather":3044,"ites":3045,"Ġmilitary":3046,"Ġtown":3047,"isation":3048,"New":3049,"lig":3050,"Ġable":3051,"Ġmeasure":3052,"ira":3053,"========":3054,"Ġplant":3055,"Ġdou":3056,"issions":3057,"year":3058,"Ġensure":3059,"Ġforce":3060,"ger":3061,"itation":3062,"ĠFederal":3063,"lish":3064,"ĠAN":3065,"arily":3066,"ivity":3067,"Ġdeath":3068,"ao":3069,"rup":3070,"arter":3071,"ano":3072,"rate":3073,"ependent":3074,"Ġten":3075,"Ġlegal":3076,"ĠArt":3077,"Ġsus":3078,"Ġbetter":3079,"apan":3080,"OG":3081,"ĠTexas":3082,"Ġcr":3083,"vis":3084,"Ġincludes":3085,"imal":3086,"Ġ57":3087,"empt":3088,"fficient":3089,"lements":3090,"Ġ1993":3091,".--":3092,"ĠTable":3093,"lim":3094,"Ġil":3095,"Ġtarg":3096,"--------------------------------":3097,"Ġfem":3098,"Sh":3099,"Ġnorth":3100,"ĠSH":3101,"ota":3102,"Ġred":3103,"ĠMary":3104,"2011":3105,"Ġlog":3106,"ston":3107,"ĠAmerica":3108,"ĠEconom":3109,"Ġinform":3110,"ĠPRO":3111,"anced":3112,"AA":3113,"ĠLou":3114,"udget":3115,"Ġfrequ":3116,"iting":3117,"Ġrelationship":3118,"ready":3119,"101":3120,"ĠNe":3121,"Ġmax":3122,"Ġwant":3123,"Ġproblems":3124,"ops":3125,"agn":3126,"EX":3127,"Ġseason":3128,"cle":3129,"ARY":3130,"Ġrelig":3131,"Ġinflu":3132,"Ġ58":3133,"orthern":3134,"Ġ59":3135,"equ":3136,"Ġ1992":3137,"Ġau":3138,"ĠScience":3139,"ixed":3140,"Ġqual":3141,"based":3142,"ĠSer":3143,"ĠPhil":3144,"ander":3145,"Ġexperience":3146,"Ġcateg":3147,"ĠSup":3148,"ĠCanada":3149,"ift":3150,"igned":3151,"Ġmor":3152,"',":3153,"ĠEv":3154,"Ġhous":3155,"yle":3156,"ĠCentral":3157,"ESS":3158,"ached":3159,"Ġtransfer":3160,"2009":3161,"Ġcompon":3162,"bo":3163,"Ġrates":3164,"Ġtreatment":3165,"Ġhalf":3166,"0000":3167,"Ġacqu":3168,"ĠRed":3169,"Ġopp":3170,"Ġ64":3171,"ĠMA":3172,"ĠAM":3173,"ocal":3174,"Ġsouth":3175,"Ġcoll":3176,"Ġlimited":3177,"Ġbecame":3178,"Ġvehic":3179,"ĠKing":3180,"Ġcannot":3181,"Ġsw":3182,"Ġyoung":3183,"CL":3184,"Ġindustry":3185,"rest":3186,"Ġ66":3187,"ĠGreen":3188,"ns":3189,"mp":3190,"omin":3191,"Ġbegin":3192,"Ġstates":3193,"PL":3194,"2008":3195,"De":3196,"Ġlittle":3197,"Ġbound":3198,"IE":3199,"force":3200,"Ð°":3201,"Ind":3202,"Ġwww":3203,"aut":3204,"Ġcho":3205,"avy":3206,"Ð¾":3207,"ĠCA":3208,"Ġcy":3209,"ĠGra":3210,"Ġbody":3211,"Ġmeeting":3212,"Ph":3213,"Ġfood":3214,"Ġgive":3215,"Cont":3216,"IGH":3217,"..........":3218,"QU":3219,"2007":3220,"Sc":3221,"eff":3222,"ĠAv":3223,"Ġdest":3224,"ĠInformation":3225,"Ġ09":3226,"CR":3227,"ĠRobert":3228,"Ġmaking":3229,"Ġ..":3230,"ĠForm":3231,"ĠJos":3232,"IO":3233,"ercial":3234,"________________________________":3235,"Ġaud":3236,"Ġoffice":3237,"Ġ000":3238,"arc":3239,"Ġactivity":3240,"ĠSim":3241,"2006":3242,"SU":3243,"Ġdistribution":3244,"Ġdefined":3245,"Ġtri":3246,"Ġpractice":3247,"ala":3248,"ĠNet":3249,"aching":3250,"Ġnorm":3251,"kt":3252,"change":3253,"Ġsource":3254,"Ġess":3255,"ĠRuss":3256,"ĠCOM":3257,"alls":3258,"Ġdefin":3259,"ils":3260,"Ġproducts":3261,"Ġexpos":3262,"eph":3263,"ĠServices":3264,"Ġsym":3265,"Ġtherefore":3266,"ĠThat":3267,"Ġpage":3268,"ĠPaul":3269,"levant":3270,"ental":3271,"cast":3272,"ĠMo":3273,"ĠSmith":3274,"ols":3275,"igan":3276,".;":3277,"ĠCongress":3278,"Ġcapacity":3279,"Ġcontribut":3280,"BR":3281,"ICE":3282,"Ġknowledge":3283,"Ġ1991":3284,"itz":3285,"2005":3286,"AGE":3287,"Ġlegisl":3288,"ĠDis":3289,"Ġstatus":3290,"Ġsett":3291,"EE":3292,"Ġlanguage":3293,"---":3294,"ios":3295,"Ġtru":3296,"gether":3297,"Res":3298,"Ġapply":3299,"ĠLeg":3300,"MA":3301,"Ġtogether":3302,"ĠGeorge":3303,"300":3304,"ufact":3305,"400":3306,"Ġoperation":3307,"ĠMat":3308,"Ġalready":3309,"Ġfire":3310,"Ġschools":3311,"aker":3312,"ĠDivision":3313,"Ġintrodu":3314,"Ġnever":3315,"Pl":3316,"ager":3317,"Ġassum":3318,"ĠSte":3319,"rem":3320,"Ġcentral":3321,"Ġresponse":3322,"iences":3323,"ĠId":3324,"Ġgreater":3325,"urrent":3326,"Ġmem":3327,"ĠCarolina":3328,"rat":3329,".....":3330,"Ġequipment":3331,"irginia":3332,"Ġfacilities":3333,"ĠPort":3334,"Ġtoo":3335,"Ġsurface":3336,"FOR":3337,"Ġhard":3338,"inary":3339,"atal":3340,"On":3341,"Ġbehav":3342,"Ġlab":3343,"urance":3344,"Ġcomplex":3345,"Ġcommercial":3346,"Ġmeasures":3347,"ecially":3348,"ession":3349,"Ġcommit":3350,"Ġauthority":3351,"vert":3352,"Ġfront":3353,"2003":3354,"UC":3355,"Ġappoint":3356,"Ġcross":3357,"FR":3358,"oper":3359,"Ġstudent":3360,"ĠProject":3361,"ĠThomas":3362,"ĠProfess":3363,"etic":3364,"___":3365,"Ð¸":3366,"Ġdam":3367,"Ġprojects":3368,"Ġlocated":3369,"icro":3370,"anks":3371,"Ġtook":3372,"2013":3373,"Ġsum":3374,"ĠChurch":3375,"ĠBen":3376,"ĠUSA":3377,"Ġbar":3378,"ui":3379,"ĠClass":3380,"ĠHis":3381,"Ġtext":3382,"ĠEL":3383,"pd":3384,"DP":3385,"CON":3386,"Ġcame":3387,"ĠBay":3388,"ĠWater":3389,"Ġsector":3390,"ĠAtt":3391,"Ġbal":3392,"Ġcit":3393,"Ġchall":3394,"iques":3395,"ese":3396,"Ġpersons":3397,"head":3398,"Ġpurpose":3399,"Ġinitial":3400,"ĠPal":3401,"mon":3402,"poses":3403,"ĠFranc":3404,"Ġfunds":3405,"Ġmultip":3406,"ĠAT":3407,"ĠBank":3408,"ĠMart":3409,"Ġli":3410,"ĠElect":3411,"ario":3412,"ummary":3413,"****":3414,"hel":3415,"Ġunit":3416,"Ġhistor":3417,"ĠSal":3418,"ELL":3419,"isf":3420,"Ġrecent":3421,"Ġetc":3422,"Ġparent":3423,"Ġnature":3424,"2004":3425,"time":3426,"ua":3427,"ineering":3428,"ĠDo":3429,"ximately":3430,"Ġmer":3431,"čĠĠčĠĠ":3432,"Ġevents":3433,"eria":3434,"gl":3435,"abilities":3436,"Ġpen":3437,"Ġinvolved":3438,"ĠTH":3439,"2002":3440,"Ġestablish":3441,"Ġcorrespond":3442,"kl":3443,"iance":3444,"Ġexc":3445,"Ġhom":3446,"Ġ63":3447,"Ġattack":3448,"ump":3449,"ĠGod":3450,"Ġgame":3451,"ias":3452,"ĠIII":3453,"pts":3454,"ounter":3455,"NE":3456,"anies":3457,"rative":3458,"ĠMal":3459,"Ġprimary":3460,"itude":3461,"Ġgovern":3462,"illed":3463,"Ġpolic":3464,"ĠChina":3465,"ĠAdminist":3466,"Ġprotection":3467,"Ġexpected":3468,"Ġna":3469,"Ġpersonal":3470,"rab":3471,"Ġshows":3472,"Ġsem":3473,"stitutions":3474,"ellow":3475,"Ġtechnology":3476,"ĠUnion":3477,"Ġformer":3478,"Ġcontact":3479,"olid":3480,"ĠIll":3481,"Ġ``":3482,"ĠJust":3483,"berg":3484,"ola":3485,"enced":3486,"ĠAD":3487,"Ġpublished":3488,"BC":3489,"Ġaccording":3490,"Ġgrant":3491,"All":3492,"ĠTR":3493,"Ġentire":3494,"Ġ02":3495,"ĠDon":3496,"reed":3497,"PH":3498,"stra":3499,"ĠRO":3500,"ĠRepublic":3501,"Ġprep":3502,"rect":3503,"ht":3504,"ĠEnvironment":3505,"ĠOffic":3506,"estic":3507,"Ġstep":3508,"Ġ67":3509,"Ġdemon":3510,"Ġsurvey":3511,".......":3512,"ĠFigure":3513,"wise":3514,"ĠPO":3515,"Ġuna":3516,"back":3517,"Ġgenerally":3518,"atively":3519,"Ġaltern":3520,".........":3521,"uty":3522,"Ġiniti":3523,"ĠProt":3524,"Ġindividuals":3525,"ties":3526,"Ġ62":3527,"ius":3528,"Sp":3529,"Ġparticularly":3530,"],":3531,"Ġlength":3532,"ground":3533,"Ġneeded":3534,"Ġcomplete":3535,"Ġnote":3536,"Ġ1980":3537,"ĠBel":3538,"ĠEnglish":3539,"unicip":3540,"Ġidentified":3541,"bl":3542,"arl":3543,"Ġhours":3544,"ula":3545,"Ġ68":3546,"ĠLand":3547,"Ġannual":3548,"ĠFrom":3549,"App":3550,"umbers":3551,"Ġcontinue":3552,"va":3553,"Ġseen":3554,"Ġcivil":3555,"enses":3556,"Ġpaper":3557,"aches":3558,"ĠVer":3559,"ĠNumber":3560,"ĠBritish":3561,"ĠCode":3562,"Ġtypes":3563,"ansas":3564,"'.":3565,"INE":3566,"term":3567,"ĠDem":3568,"MS":3569,"ĠAcadem":3570,"Ġunits":3571,"DS":3572,"ky":3573,"Ġord":3574,"rian":3575,"lam":3576,"Ġsam":3577,"2001":3578,"Ġforeign":3579,"Ġrespond":3580,"oo":3581,"Ġcentury":3582,"ĠCreek":3583,"nov":3584,"Ġalways":3585,"ched":3586,"ĠIsland":3587,"Ġcell":3588,"ĠRecord":3589,"Ġful":3590,"Ġsafety":3591,"ĠSP":3592,"Ġseries":3593,"Ġcompar":3594,"Ġpurposes":3595,"ĠPL":3596,"Ġcollect":3597,"Ġpresented":3598,"aging":3599,"Ġ1989":3600,"ora":3601,"Ġ72":3602,"ĠJapan":3603,"ĠJr":3604,"Ġ69":3605,"ĠDan":3606,"izing":3607,"ĠOrgan":3608,"mes":3609,"Ġclos":3610,"bur":3611,"Ġdone":3612,"Ġlic":3613,"Ġguid":3614,"ĠType":3615,"Ġwritten":3616,"ĠWil":3617,"Ġdemand":3618,"Ġsal":3619,"ĠOR":3620,"Ġself":3621,"Ġbuilt":3622,"irt":3623,"ĠBi":3624,"tra":3625,"Ðµ":3626,"ĠPage":3627,"Ġimm":3628,"Ġcontinued":3629,"Ġstandards":3630,"Ġstruct":3631,"andid":3632,"osition":3633,"ayer":3634,"Ġ61":3635,"Ġrelevant":3636,"III":3637,"Ġcontinu":3638,"ena":3639,"Ġpour":3640,"Ġmechan":3641,"ĠĠĠĠĠĠĠĠĠĠĠĠ":3642,"Ġjob":3643,"Ġespecially":3644,"ĠIS":3645,"Ġphot":3646,"ocation":3647,"ĠPet":3648,"ania":3649,"ĠFR":3650,"Ġsens":3651,"GR":3652,"Ġassets":3653,"Ġtable":3654,"Ġwhole":3655,"ds":3656,"Ġefforts":3657,"bon":3658,"Ġcondition":3659,"ĠSC":3660,"iers":3661,"Ġq":3662,"omet":3663,"Ġsites":3664,"ĠTer":3665,"Ġremov":3666,"Ġkind":3667,"Ġfactors":3668,"anta":3669,"ĠLA":3670,"Ġincreasing":3671,"..............":3672,"Ġimmedi":3673,"hens":3674,"Ġpros":3675,"2014":3676,"ĠMore":3677,"Ġlack":3678,"Ġvict":3679,"ĠLouis":3680,"Ġlabor":3681,"ened":3682,"asons":3683,"rant":3684,"Te":3685,"ibrary":3686,"ras":3687,"ospital":3688,"ĠOf":3689,"Ġoutside":3690,"eck":3691,"Ġreports":3692,"IES":3693,"Ġpattern":3694,"Ġoccup":3695,"Ġtro":3696,"Ġlate":3697,"Ġbenefits":3698,"Ġweek":3699,"ĠArmy":3700,"ĠLake":3701,"irth":3702,"elves":3703,"Ġconsum":3704,"embly":3705,"ĠSocial":3706,"Ġsources":3707,"IB":3708,"illage":3709,"ĠRES":3710,"ĠMAR":3711,"Ġcert":3712,"ĠJack":3713,"Ġresid":3714,"itch":3715,"Ġemerg":3716,"Ġrecommend":3717,"ĠSome":3718,"TC":3719,"Ġprogress":3720,"ĠHol":3721,"Ġ>":3722,"Ġthus":3723,"mark":3724,"Ġmass":3725,"ĠMet":3726,"Ġ101":3727,"ged":3728,"now":3729,"Ġflow":3730,"ilding":3731,"ĠVirginia":3732,"Ġthreat":3733,"EV":3734,"ĠData":3735,"ĠJew":3736,"Ġstation":3737,"ĠSam":3738,"Ġwood":3739,"Ġplanning":3740,"Ġglobal":3741,"ircraft":3742,"ĠOb":3743,"HO":3744,"Ġdans":3745,"TY":3746,"Ġfederal":3747,"ĠConference":3748,"Ġconcent":3749,"cial":3750,"Ġmedia":3751,"burg":3752,"je":3753,"endix":3754,"At":3755,"Ġ95":3756,"Ġpurch":3757,"Ġdistrict":3758,"ids":3759,"Ġ1988":3760,"Ġ76":3761,"west":3762,"Ġseg":3763,"Ġtrade":3764,"Ġparty":3765,"orage":3766,"ography":3767,"GA":3768,"water":3769,"gra":3770,"ĠReview":3771,"ja":3772,"ani":3773,"ĠDet":3774,"do":3775,"ĠNY":3776,"ensus":3777,"He":3778,"Ġregister":3779,"Ġvan":3780,"unities":3781,"IND":3782,"FL":3783,"ĠJud":3784,"ste":3785,"Ġ!":3786,"ĠMa":3787,"ini":3788,"cription":3789,"ĠAfrica":3790,"Ġthroughout":3791,"ĠRegister":3792,"Ġcause":3793,"Ġfollows":3794,"Ġ74":3795,"ulated":3796,"hr":3797,"Ġ85":3798,"Ġste":3799,"lier":3800,"Ġphysical":3801,"Ġ71":3802,"Ġwhose":3803,"Ġstrateg":3804,"ĠEr":3805,"ĠPhys":3806,"Gen":3807,"ĠHuman":3808,"useum":3809,"...........":3810,"riminal":3811,"ĠCL":3812,"Ġap":3813,"Ġ73":3814,"Ġ99":3815,"Le":3816,"800":3817,"elt":3818,"Ġapproximately":3819,"Ġquant":3820,"aters":3821,"Ġplus":3822,"ĠBur":3823,"iones":3824,"SR":3825,"Ġparagraph":3826,"ĠTeam":3827,"Ġgas":3828,"Ġoperating":3829,"Ġmit":3830,"uclear":3831,"ague":3832,"ĠStand":3833,"ĠEN":3834,"Ġ1986":3835,"\"\"":3836,"pid":3837,"hio":3838,"Ġgradu":3839,"Ġmatter":3840,"VI":3841,"aves":3842,"ĠAfter":3843,"Ġforest":3844,"Ġdispl":3845,"ORS":3846,"Ġcustom":3847,"cluding":3848,"Ġdescri":3849,"Ġtarget":3850,"Ġca":3851,"Ġremain":3852,"Ġrat":3853,"Ġtemper":3854,"Ġbegan":3855,"Ġ78":3856,"Ġscient":3857,"Ġinvestig":3858,"Ġhabit":3859,"Ġmaterials":3860,"Ġcommand":3861,"THE":3862,"ranch":3863,"ming":3864,"ĠMex":3865,"ĠNor":3866,"ronic":3867,"ĠWhite":3868,"ĠMain":3869,"Ġdise":3870,"Ġ1987":3871,"Ġreflect":3872,"Ġsch":3873,"ingu":3874,"EA":3875,"Ġprovisions":3876,"Ġdire":3877,"ni":3878,"elling":3879,"ĠMichael":3880,"IAL":3881,"Ġproceed":3882,"ria":3883,"hi":3884,"ĠMill":3885,"uer":3886,"ASS":3887,"110":3888,"Ġmedical":3889,"Ġfeet":3890,"uge":3891,"orpor":3892,"ĠUK":3893,"Ġdesigned":3894,"MP":3895,".............":3896,"...............":3897,"used":3898,"Ġalthough":3899,"Ġorganization":3900,"order":3901,"Ġdetermined":3902,"Ġrecords":3903,"ĠBrown":3904,"astern":3905,"lying":3906,"Ġir":3907,"stitutional":3908,"Ġdirectly":3909,"ĠGeorg":3910,"ancy":3911,"Ġrules":3912,"Ġplans":3913,"Ġitself":3914,"DR":3915,"icago":3916,"Ġkeep":3917,"eds":3918,"Ġadded":3919,"Ġou":3920,"dom":3921,"Ġ77":3922,"actions":3923,"Ġmethods":3924,"Ġsqu":3925,"Ġconstruct":3926,"Ġpolice":3927,"ĠBR":3928,"aly":3929,"If":3930,"ĠFlor":3931,"ĠSecond":3932,"Ġclose":3933,"Ġnoted":3934,"Ġlimit":3935,"ĠHall":3936,"hemical":3937,"idad":3938,"ĠName":3939,"Ġsust":3940,"Ġimpl":3941,"ĠTur":3942,"Ġworkers":3943,"Ġagreement":3944,"Ġinvestment":3945,"Ġdegree":3946,"Ġfall":3947,"Ġ05":3948,"nergy":3949,"attle":3950,"Ġassessment":3951,"idential":3952,"Ġprop":3953,"Ġprevent":3954,"ording":3955,"Date":3956,"ĠArea":3957,"Ġlocation":3958,"iation":3959,"Ġonce":3960,"Ġled":3961,"onom":3962,"ba":3963,"ĠAff":3964,"Ġfile":3965,"Ġcompanies":3966,"cks":3967,"Ġprec":3968,"ĠPost":3969,"urban":3970,"Ġ03":3971,"ĠHill":3972,"Ġprovision":3973,"more":3974,"olic":3975,"2015":3976,"Ġmess":3977,"Ġ1985":3978,"rie":3979,"Ġdeal":3980,"Ġnumbers":3981,"Ġactive":3982,"clusion":3983,"ĠON":3984,"ĠWestern":3985,"Ġproviding":3986,"Ġaffect":3987,"Ġrail":3988,"ĠOp":3989,"Ġreference":3990,"Ġbank":3991,"Ġoverall":3992,"aria":3993,"UG":3994,"Ġboard":3995,"Ġpolicies":3996,"XX":3997,"Ġmonitor":3998,"new":3999,"raz":4000,"ĠRad":4001,"uit":4002,"OTES":4003,"Ġcompared":4004,"600":4005,"Ġspe":4006,"Ġcredit":4007,"Ġprice":4008,"Ġmoney":4009,"ĠHistoric":4010,"ĠCP":4011,"Ġsuccessful":4012,"Ġconsult":4013,"rb":4014,"Ġgames":4015,"ression":4016,"ream":4017,"Ġdetermine":4018,"och":4019,"Ġrule":4020,"unction":4021,"Ġinstru":4022,"where":4023,"rench":4024,"ĠWhat":4025,"Ġstatement":4026,"Ġbur":4027,"Ġregional":4028,"ĠMy":4029,"Ġenvironmental":4030,"111":4031,"uration":4032,"Ġinstitutions":4033,"rought":4034,"Col":4035,"Ġpark":4036,"UP":4037,"iscal":4038,"ports":4039,"Ġjo":4040,"BS":4041,"Ġ79":4042,"ieved":4043,"ifying":4044,"Ġgoing":4045,"Ġfeatures":4046,"Ġcarry":4047,"Per":4048,"TON":4049,"ĠCharles":4050,"Ġcommunities":4051,"ĠOver":4052,"ais":4053,"Ġalmost":4054,"ĠChair":4055,"Ġwords":4056,"MAN":4057,"ellig":4058,"stances":4059,"Ġcultural":4060,"EAR":4061,"ĠFrank":4062,"Ġwid":4063,"imens":4064,"add":4065,"ĠBill":4066,"self":4067,"Ġmm":4068,"ĠRichard":4069,"Ġregular":4070,"ĠBas":4071,"iana":4072,"ĠOut":4073,"tenance":4074,"ĠMem":4075,"Ġeth":4076,"Ġhon":4077,"that":4078,"En":4079,"ĠHen":4080,"Ġcurrently":4081,"icht":4082,"ĠChe":4083,"icit":4084,"Ġfair":4085,"Ġdrug":4086,"ĠFound":4087,"Ġforces":4088,"inct":4089,"ERAL":4090,"Ġmention":4091,"Ġstreng":4092,"ĠCamp":4093,"pret":4094,"Ġwide":4095,"Ġteac":4096,"KH":4097,"Ġconducted":4098,"Ġdemonstr":4099,"ework":4100,"Ġsche":4101,"ips":4102,"vo":4103,"Ġworks":4104,"105":4105,"ĠBlack":4106,"isher":4107,"Ġsubstant":4108,"Ġmanufact":4109,"ĠMus":4110,"ĠSpr":4111,"overy":4112,"mar":4113,"Ġqui":4114,"ĠSpecial":4115,"Ġfunctions":4116,"Ġfav":4117,"ĠAustralia":4118,"level":4119,"Ġhapp":4120,"una":4121,"Ġlear":4122,"ĠMac":4123,"Ġsituation":4124,"Ġje":4125,"Ġinstall":4126,"Ġprotect":4127,"Ġimplementation":4128,"IVE":4129,"met":4130,"Ġsatisf":4131,"ĠDie":4132,"DA":4133,"ĠUnder":4134,"Ġachieve":4135,"asc":4136,"Ġliter":4137,"Ġ2017":4138,"Ġaccordance":4139,"ĠMont":4140,"riz":4141,"Ġune":4142,"oted":4143,"Ġcompleted":4144,"ĠExp":4145,"Ġ06":4146,"ault":4147,"Ġelements":4148,"Ġ04":4149,"ĠGo":4150,"Ġestimated":4151,"Ġblack":4152,"Mar":4153,"ynam":4154,"ĠAuthor":4155,"ftware":4156,"Ġwent":4157,"Ġsold":4158,"Ġ08":4159,"Ġregarding":4160,"EG":4161,"istan":4162,"CS":4163,"ĠSouthern":4164,"Ġfoot":4165,"Ġstri":4166,"ĠLim":4167,"rastructure":4168,"ĠTown":4169,"Ġresponsible":4170,"Ġforms":4171,"Ġserved":4172,"ACK":4173,"Ġlink":4174,"Ġyet":4175,"ĠConn":4176,"Ġround":4177,"Ġsupply":4178,"ĠField":4179,"ĠFlorida":4180,"ydro":4181,"HA":4182,"Ġlonger":4183,"Ġmid":4184,"acific":4185,"Ġcontext":4186,"Ġ1970":4187,"Ġmodern":4188,"ĠWhile":4189,"fr":4190,"ĠArticle":4191,"There":4192,"Ġencou":4193,"Ġextent":4194,"ĠAlthough":4195,"Ġvon":4196,"Ġstated":4197,"ampions":4198,"lies":4199,"Ġsi":4200,"Ġcode":4201,"Ġenter":4202,"ente":4203,"ĠMinister":4204,"Ġmaximum":4205,"Ġdecre":4206,"Ġpath":4207,"Ġfunding":4208,"Ġ88":4209,"rael":4210,"uls":4211,"Ġsociety":4212,"IX":4213,"odes":4214,"Ġ1984":4215,"Ġtim":4216,"Ġcut":4217,"ĠChief":4218,"ados":4219,"amily":4220,"900":4221,"apers":4222,"mselves":4223,"ando":4224,"come":4225,"Ġsequ":4226,"Co":4227,"Ġprocedures":4228,"ĠRet":4229,"ĠMichigan":4230,"ĠStudies":4231,"Ġdiss":4232,"Des":4233,"Ġcreated":4234,"king":4235,"acc":4236,"Ġbuildings":4237,"Ġquestions":4238,"Ġreduce":4239,"gov":4240,"Ġagencies":4241,"ante":4242,"Rep":4243,"ĠRoy":4244,"BO":4245,"Ġassistance":4246,"Ġemb":4247,"ĠForce":4248,"Ġpartn":4249,"mm":4250,"âĢĵ":4251,"comm":4252,"Ġcontent":4253,"ĠMrs":4254,"ĠNon":4255,"ĠMad":4256,"alle":4257,"Ġaway":4258,"Ġorganizations":4259,"bu":4260,"Ġblock":4261,"Ġsen":4262,"Ġhousehold":4263,"Ġaspect":4264,"Ġwr":4265,"erved":4266,"ANT":4267,"UE":4268,"osa":4269,"ocks":4270,"ĠWood":4271,"ĠFinal":4272,"Ġmiles":4273,"Section":4274,"Ġmission":4275,"Ġexerc":4276,"SW":4277,"ĠForest":4278,"Ġliving":4279,"Ġhost":4280,"oon":4281,"oz":4282,"Ġinterview":4283,"Ġproduced":4284,"ml":4285,"enth":4286,"anel":4287,"ternet":4288,"Ġ1983":4289,"Ġspecified":4290,"ounds":4291,"ologies":4292,"Ġevalu":4293,"edu":4294,"ĠSl":4295,"OK":4296,"Se":4297,"Ġapplied":4298,"Ġoil":4299,"Ġhar":4300,"aily":4301,"Ġability":4302,"rief":4303,"Ġfarm":4304,"Ġ07":4305,"Ġtechnical":4306,"Ġpaid":4307,"Ġthemselves":4308,"hest":4309,"house":4310,"âĢĿ":4311,"ĠFrance":4312,"Ġ98":4313,"Ġbenefit":4314,"nic":4315,"BA":4316,"ĠRights":4317,"ĠChild":4318,"itors":4319,"ĠUs":4320,"Ġopin":4321,"1999":4322,"Ġlines":4323,"Ġemployment":4324,"Ġpatients":4325,"Ġcircum":4326,"ATIONS":4327,"WH":4328,"Ġparts":4329,"ĠLt":4330,"Ġconcept":4331,"hood":4332,"ĠVi":4333,"ĠLong":4334,"Ġconflic":4335,"Ġ84":4336,"Comm":4337,"Ġotherwise":4338,"Ġinj":4339,"oles":4340,".'":4341,"iament":4342,"uz":4343,"Ġwest":4344,"ME":4345,"ographic":4346,"ĠEar":4347,"Ġ82":4348,"ĠInf":4349,"ĠTre":4350,"ims":4351,"Ġgoal":4352,"Ġfri":4353,"CP":4354,"ĠEnergy":4355,"ĠWomen":4356,"ilies":4357,"oting":4358,"IAN":4359,"hips":4360,"ĠRob":4361,"Ġaward":4362,"Ġfig":4363,"ÌĢ":4364,"ĠMember":4365,"Ġissued":4366,"Ġcou":4367,"Ġletter":4368,"inated":4369,"hemat":4370,"col":4371,"Ġparam":4372,"Ġdepend":4373,"aign":4374,"Ġcharg":4375,"Ġenh":4376,"Ġbasic":4377,"Ġserve":4378,"ĠGEN":4379,"annel":4380,"ĠBall":4381,"rence":4382,"Ġ83":4383,"xx":4384,"Ġminor":4385,"104":4386,"ali":4387,"Ġthings":4388,"ENC":4389,"Ġobserved":4390,"ĠKh":4391,"ĠEX":4392,"ĠCorpor":4393,"ĠEnd":4394,"arian":4395,"known":4396,"âĢĶ":4397,"oring":4398,"itable":4399,"Ġwhite":4400,"150":4401,"Ġequal":4402,"EY":4403,"ĠHead":4404,"Ġreceive":4405,"eld":4406,"Ġlearning":4407,"oke":4408,"Ġmajority":4409,"Ġyards":4410,"Ġindependent":4411,"Ġ81":4412,"CD":4413,"Ġeast":4414,"aving":4415,"Ġconv":4416,"Ġparties":4417,"Ġmis":4418,"ensity":4419,"ĠCommunity":4420,"Ġargu":4421,"Ġunc":4422,"ko":4423,"Ġcritical":4424,"ĠHam":4425,"Am":4426,"stitu":4427,"ĠThus":4428,"Ġminimum":4429,"ĠAssist":4430,"ny":4431,"ĠSecurity":4432,"Fig":4433,"ĠHon":4434,"Ġattempt":4435,"Ġactions":4436,"Ġcarried":4437,"Ġdepos":4438,"Ġtoday":4439,"ĠClub":4440,"ening":4441,"ptions":4442,"::":4443,"URE":4444,"iner":4445,"Ġunderstanding":4446,"Ġtaking":4447,"ĠChristian":4448,"RIC":4449,"Ġload":4450,"ĠProfessor":4451,"??":4452,"Or":4453,"ĠPER":4454,"Ġ1982":4455,"ĠControl":4456,"Ġlearn":4457,"anda":4458,"Ġdeep":4459,"Ġprem":4460,"Ġuses":4461,"Ġlisted":4462,"Ġ97":4463,"rolled":4464,"ĠAV":4465,"ga":4466,"Ġaircraft":4467,"endit":4468,"ITH":4469,"Ġpoor":4470,"120":4471,"eles":4472,"Ġrecorded":4473,"oul":4474,"Pr":4475,"Ġsufficient":4476,"Ġcollection":4477,"National":4478,"Jan":4479,"ĠPenn":4480,"Ġ1981":4481,"aska":4482,"Ġagric":4483,"ĠIns":4484,"Mr":4485,"Com":4486,"anz":4487,"thing":4488,"Ġbeginning":4489,"Ġobtained":4490,"ĠImp":4491,"ĠNO":4492,"opp":4493,"Ġprocesses":4494,"102":4495,"rage":4496,"ĠOhio":4497,"Ġcenter":4498,"Ġ86":4499,"Ġpositive":4500,"Ġbecom":4501,"Ġ89":4502,"elle":4503,"Ġelement":4504,"Ġ87":4505,"Ġlarger":4506,"Ġpun":4507,"Ġcandid":4508,"AME":4509,"ĠTechnology":4510,"orial":4511,"Ġcontain":4512,"Ġpersonnel":4513,"Ġcommittee":4514,"ĠAvenue":4515,"ĠLet":4516,"Ġrequires":4517,"Ġ120":4518,"ĠExecutive":4519,"ĠChicago":4520,"Ġterrit":4521,"Ġsy":4522,"ĠBusiness":4523,"ĠEngland":4524,"Ġpric":4525,"ĠSurvey":4526,"ĠSO":4527,"porary":4528,"ferences":4529,"wide":4530,"FT":4531,"rown":4532,"Ġasked":4533,"DU":4534,"ancing":4535,"ĠJohnson":4536,"Ġweight":4537,"Ġlin":4538,"urt":4539,"iring":4540,"phas":4541,"Ġmusic":4542,"Ġ111":4543,"Ġcorrect":4544,"ught":4545,"ĠMass":4546,"FA":4547,"Ġselected":4548,"Ġ91":4549,"ogen":4550,"Ġ96":4551,"Ġ{":4552,"Ġcreate":4553,"ALE":4554,"Ġarchitect":4555,"Ġutil":4556,"olit":4557,"Ġcitiz":4558,"ye":4559,"Ġexceed":4560,"Reg":4561,"from":4562,"ĠPolicy":4563,"Ġserious":4564,"103":4565,"ERV":4566,"Ġbelieve":4567,"uris":4568,"set":4569,"Ġfollowed":4570,"Ġpack":4571,"Ġdat":4572,"Ġregist":4573,"irit":4574,"La":4575,"igen":4576,"bi":4577,"Ġusually":4578,"Ġavoid":4579,"Ġregul":4580,"down":4581,"itness":4582,"Ġradio":4583,"Ġearlier":4584,"Ġmach":4585,"alysis":4586,"Ġsexual":4587,"Ġ................................................................................................":4588,"Ġdig":4589,"Ġtravel":4590,"ĠAlex":4591,"anger":4592,"Ġbring":4593,"ĠMount":4594,"sch":4595,"ĠMexico":4596,"ribute":4597,"ĠEqu":4598,"SO":4599,"ĠĠĠĠĠĠĠĠĠĠĠĠĠĠĠĠĠĠĠĠĠĠĠĠĠĠĠĠĠĠĠĠ":4600,"Ġnumer":4601,"Ġdeveloping":4602,"ĠCR":4603,"Ġadjust":4604,"Ġincid":4605,"ĠIr":4606,"Ġessential":4607,"Ġdiv":4608,"ially":4609,"unicipal":4610,"ĠLo":4611,"Ġ150":4612,"pdf":4613,"Ġregulations":4614,"Ġagency":4615,"WR":4616,"net":4617,"Ġforward":4618,"Ġmultiple":4619,"Ġscience":4620,"LY":4621,"Ġtrue":4622,"Ġcle":4623,"Ġprofessional":4624,"Ġvia":4625,"Ġec":4626,"Ġsubsequ":4627,"Rec":4628,"1998":4629,"ĠBook":4630,"ĠKe":4631,"Ġcareer":4632,"Ġdia":4633,"@@@@@@@@":4634,"Other":4635,"comp":4636,"Ġnor":4637,"Ġmovement":4638,"light":4639,"roy":4640,"Ġcas":4641,"cher":4642,"Ġ94":4643,"itting":4644,"ĠTime":4645,"iveness":4646,"ferred":4647,"ĠScott":4648,"crib":4649,"ĠSE":4650,"Ġthought":4651,"ĠColumb":4652,"ureau":4653,"ĠSy":4654,"ken":4655,"dule":4656,"antic":4657,"Ġtheory":4658,"Ġroof":4659,"Ġdeliver":4660,"Ġtitle":4661,"NS":4662,"TO":4663,"sk":4664,"Nov":4665,"eting":4666,"ĠGermany":4667,"Ġcorpor":4668,"Ġinput":4669,"ĠInvest":4670,"Ġappears":4671,"resh":4672,"!!":4673,"Ġrelative":4674,"Ġinstruct":4675,"ĠJoseph":4676,"Ġpressure":4677,"Ġ1979":4678,"bid":4679,"ĠDesign":4680,"Ġ93":4681,"Ġ92":4682,"br":4683,"Note":4684,"Ġactual":4685,"IONS":4686,"Ġansw":4687,"state":4688,"ception":4689,"liament":4690,"Ġnar":4691,"mt":4692,"Ġstory":4693,"Ġofficers":4694,"ĠCare":4695,"cer":4696,"ĠGold":4697,"ÑĢ":4698,"ĠIsrael":4699,"Ġsupported":4700,"Bl":4701,"reme":4702,"idae":4703,"Ġstock":4704,"Ġmakes":4705,"iti":4706,"BM":4707,"Ġlaws":4708,"owa":4709,"inois":4710,"Ġang":4711,"Ġreduced":4712,"Ġunderstand":4713,"Ġallowed":4714,"ULT":4715,"ply":4716,"Ġenough":4717,"ĠBO":4718,"Ġtowards":4719,"eline":4720,"Ġdisp":4721,"See":4722,"ecause":4723,"Ġemployees":4724,"Ġmodels":4725,"250":4726,"ĠMost":4727,"Ġauthorities":4728,"rac":4729,"ĠMil":4730,"FC":4731,"ĠLat":4732,"ĠRd":4733,"Ġopportunity":4734,"Ġbudget":4735,"Ġplaced":4736,"Ġsense":4737,"rison":4738,"Americ":4739,"Ġfuel":4740,"obile":4741,"Sec":4742,"ĠRock":4743,"Ġtrack":4744,"Ġball":4745,"ĠTransport":4746,"Ġcheck":4747,"ĠDu":4748,"Ġ@":4749,"Year":4750,"Oct":4751,"Ġurban":4752,"ĠIndust":4753,"ployment":4754,"Ġface":4755,"po":4756,"Part":4757,"ĠIV":4758,"Ġbrought":4759,"UST":4760,"Ġmiss":4761,"elines":4762,"ĠCentre":4763,"ĠDen":4764,"Ġpractices":4765,"Ġreligious":4766,"isms":4767,"ĠAtl":4768,"oto":4769,"ito":4770,"Ġ1978":4771,"Ġsuff":4772,"Ġdirection":4773,"oral":4774,"ocr":4775,"cluded":4776,"Ġdiscussed":4777,"Ġremains":4778,"Ġsimple":4779,"ĠPA":4780,"isk":4781,"Ġscale":4782,"ĠMD":4783,"rance":4784,"ĠID":4785,"adian":4786,"Ġofficer":4787,"ĠValley":4788,"State":4789,"oration":4790,"Ġautom":4791,"HS":4792,"Ġcalcul":4793,"Ġmort":4794,"ĠCamb":4795,"verse":4796,"Ġcommunication":4797,"isco":4798,"ATES":4799,"Ġways":4800,"endment":4801,"Ġcontains":4802,"Ġ300":4803,"oston":4804,"Ġborn":4805,"Ġpet":4806,"Ġlive":4807,"inger":4808,"ĠTwo":4809,"gor":4810,"ouns":4811,"ests":4812,"Ġchalleng":4813,"mond":4814,"ĠDuring":4815,"Ġseparate":4816,"ĠAfrican":4817,"1997":4818,"ĠAC":4819,"Ġitems":4820,"Ġbey":4821,"rey":4822,"Ġproport":4823,"ĠLos":4824,"rehens":4825,"ĠGovern":4826,"fe":4827,"lymp":4828,"related":4829,"ĠChapter":4830,"ĠPop":4831,"sec":4832,"Ġroom":4833,"operation":4834,"Ġwin":4835,"Ġestimates":4836,"Ġapproved":4837,"Ġarticle":4838,"da":4839,"106":4840,"Ġprobably":4841,"Ġmill":4842,"book":4843,"owers":4844,"Ġdiscussion":4845,"Ġeight":4846,"elligence":4847,"icial":4848,"Ġimportance":4849,"can":4850,"atus":4851,"Ġdraw":4852,"Ġbeyond":4853,"ĠQue":4854,"ĠBL":4855,"Ġreferred":4856,"ĠMuseum":4857,"ĠParty":4858,"001":4859,"win":4860,"load":4861,"Ġapplications":4862,"Ġsitu":4863,"ido":4864,"Ġdifferences":4865,"PO":4866,"alty":4867,"Ġfeel":4868,"ĠPM":4869,"ĠFrench":4870,"))":4871,"utions":4872,"pite":4873,"ĠEconomic":4874,"ĠTim":4875,"ething":4876,"ĠLabor":4877,"Ġvalid":4878,"roduction":4879,"ĠPeter":4880,"Ġspeed":4881,"ĠFac":4882,"ĠFL":4883,"Ġstatements":4884,"Ġprepar":4885,"ean":4886,"Ġseven":4887,"ĠTech":4888,"ategy":4889,"very":4890,"Ġseem":4891,"Ġapplicable":4892,"het":4893,"Ġbox":4894,"General":4895,"ously":4896,"Ġdomestic":4897,"Ġviolence":4898,"ĠMag":4899,"Ġopportunities":4900,"izes":4901,"rete":4902,"Ġacadem":4903,"ĠEnt":4904,"Ġpursu":4905,"Ġsurv":4906,"ĠWilliams":4907,"pective":4908,"ela":4909,"iciency":4910,"unch":4911,"Ġentry":4912,"ANG":4913,"Ġfully":4914,"Ġnormal":4915,"1996":4916,"arant":4917,"Ġmarg":4918,"ĠLife":4919,"Ġsample":4920,"Ġ?":4921,"anges":4922,"Ð½":4923,"700":4924,"ĠSince":4925,"bre":4926,"ĠJun":4927,"forcement":4928,"Ñģ":4929,"haps":4930,"Ġaware":4931,"ĠTor":4932,"atters":4933,"Ġrelatively":4934,"Ġeffort":4935,"Ġdecid":4936,"Ġattention":4937,"Ġvehicle":4938,"Ġcapt":4939,"Ġleading":4940,"Ġstage":4941,"leph":4942,"ĠPacific":4943,"Ġinterpret":4944,"mal":4945,"ISS":4946,"Ġinfluence":4947,"Ġresponsibility":4948,"Ġoutput":4949,"Ġ1976":4950,"Ġ1977":4951,"ouri":4952,"essel":4953,"Ġvo":4954,"John":4955,"Ġmanner":4956,"ĠAnnual":4957,"eful":4958,"Ġcovered":4959,"Is":4960,"United":4961,"Ġpas":4962,"From":4963,"Ġinternal":4964,"Ġbillion":4965,"ĠĠĠĠĠ":4966,".),":4967,"Ġkm":4968,"ship":4969,"iy":4970,"ĠSk":4971,"ĠAssembly":4972,"Ġculture":4973,"Ġconsequ":4974,"PT":4975,"Ġengine":4976,"Ġbit":4977,"ĠCost":4978,"band":4979,"Ġstrategy":4980,"Ġelection":4981,"COM":4982,"Ġearn":4983,"Ġnamed":4984,"Ġdifference":4985,"Ġwhy":4986,"HER":4987,"108":4988,"ĠFoundation":4989,"ĠFe":4990,"ĠFort":4991,"Ġmeaning":4992,"Ġ500":4993,"UND":4994,"Ġtraffic":4995,"Ġstorage":4996,"Ġaf":4997,"ĠJul":4998,"Ġ,,":4999,"Ġmig":5000,"ahoma":5001,"Ġvolume":5002,"Ġfamilies":5003,"Ġsales":5004,"Ġpsych":5005,"ĠRun":5006,"Ġneigh":5007,"IZ":5008,"ĠAgency":5009,"Ġ1975":5010,"125":5011,"utt":5012,"ayed":5013,"Sub":5014,"ima":5015,"Ġentre":5016,"Ġelev":5017,"Ġtransl":5018,"Ġarrange":5019,"Ġidentify":5020,"Ġtold":5021,"adel":5022,"Ġnames":5023,"aren":5024,"Ġofficials":5025,"ĠVict":5026,"Ġpresence":5027,"DE":5028,"Ġjoint":5029,"klahoma":5030,"ipl":5031,"iva":5032,"ĠPo":5033,"Ġfacility":5034,"Ġ1973":5035,"Ġdistribut":5036,"Ġunivers":5037,"Ġclimate":5038,"ĠSpec":5039,"Ġ1960":5040,"ĠBox":5041,"wa":5042,"Ġbus":5043,"Ġlot":5044,"Ġeconomy":5045,"icated":5046,"Ġequival":5047,"Ġhor":5048,"Ġrelation":5049,"rt":5050,"107":5051,"Ġmag":5052,"ĠREP":5053,"arters":5054,"Ġdetails":5055,"Ġinterests":5056,"Ġcoast":5057,"right":5058,"Ġconcer":5059,"ĠLes":5060,"Ġcharge":5061,"lt":5062,"cing":5063,"ĠGerman":5064,"yright":5065,"115":5066,"Ġpreviously":5067,"Ġpoll":5068,"Ġbrick":5069,"raf":5070,"ĠPerson":5071,"ĠStudy":5072,"pur":5073,"Ġhighly":5074,"1990":5075,"Ġelectric":5076,"Int":5077,"Ġdied":5078,"ects":5079,"ought":5080,"Î¿":5081,"Ġsays":5082,"uff":5083,"umn":5084,"IK":5085,"inson":5086,"Ġplants":5087,"ĠColl":5088,"Ġreasons":5089,"May":5090,"Ġillust":5091,"ging":5092,"Ġdoct":5093,"kins":5094,"inet":5095,"Ġexpand":5096,"Ġhousing":5097,"ĠStr":5098,"Ġstructures":5099,"Ġproperties":5100,"Ass":5101,"ulty":5102,"Ġtry":5103,"TOTAL":5104,"Ġreporting":5105,"Ġcomo":5106,"Dec":5107,"undred":5108,"ĠYes":5109,"Ġanaly":5110,"Ġpercentage":5111,"Ġperformed":5112,"Ġmap":5113,"Ġcomponents":5114,"Ġworked":5115,"ĠFinancial":5116,"Ġmind":5117,"Ġfactor":5118,"ila":5119,"Ġrespectively":5120,"Ġoblig":5121,"Ġadopted":5122,"ĠBre":5123,"Ġreform":5124,"Ġtraditional":5125,"ĠPower":5126,"bt":5127,"Ġarg":5128,"Ġnotice":5129,"116":5130,"Ġpil":5131,"Ġuser":5132,"Ġdistance":5133,"ĠSW":5134,"ĠWeb":5135,"itage":5136,"Ġbehavior":5137,"inese":5138,"Ġvariety":5139,"Ġcriminal":5140,"fort":5141,"Dist":5142,"Ġcounter":5143,"1995":5144,"OB":5145,"Ġdocuments":5146,"Ġrestrict":5147,"Ġprepared":5148,"ANS":5149,"LD":5150,"Ġcu":5151,"ĠTOTAL":5152,"which":5153,"Ġreduction":5154,"Ġdouble":5155,"mail":5156,"ĠSil":5157,"Ġproduce":5158,"ulf":5159,"114":5160,"onn":5161,"Ġindicated":5162,"Ġsubsection":5163,"Yes":5164,"ĠHenry":5165,"INT":5166,"Ġdecisions":5167,"ĠRef":5168,"Ġchurch":5169,"Ġquarter":5170,"Ab":5171,"Ġmaintenance":5172,"ISH":5173,"Ed":5174,"Ġinfrastructure":5175,"Ġcriteria":5176,"Ġmom":5177,"inued":5178,"eters":5179,"2016":5180,"Ġmoved":5181,"ĠBuilding":5182,"ĠDou":5183,"Ġtrust":5184,"Ġsustain":5185,"Ġminutes":5186,"Ġprint":5187,"enty":5188,"riage":5189,"olf":5190,"aud":5191,"Ġbirth":5192,"Ġincorpor":5193,"ĠBow":5194,"112":5195,"story":5196,"otion":5197,"Ġrank":5198,"RS":5199,"ĠAccording":5200,"Ġcompetition":5201,"Ġdivid":5202,"mann":5203,"ĠRegional":5204,"ĠSpe":5205,"Ġ110":5206,"inf":5207,"ĠJustice":5208,"Ġexchange":5209,"ĠSupp":5210,"iat":5211,"Ġdivers":5212,"rec":5213,"etting":5214,"Ġundert":5215,"Ġelig":5216,"ĠMusic":5217,"ĠRail":5218,"Ġcommission":5219,"rich":5220,"Ġdescription":5221,"Ġunless":5222,"ĠDisc":5223,"Ġsignal":5224,"Ġcash":5225,"arr":5226,"Ġportion":5227,"ARK":5228,"ÑĤ":5229,"Ġfiscal":5230,"ho":5231,"oria":5232,"Ġartic":5233,"Ġtrend":5234,"urisd":5235,"ĠDate":5236,"ACH":5237,"Ġcomputer":5238,"EB":5239,"Ġframework":5240,"aa":5241,"ĠMartin":5242,"ĠStan":5243,"Ġappointed":5244,"Ġnotes":5245,"reement":5246,"Ġbalance":5247,"Ġfeed":5248,"iding":5249,"130":5250,"ĠNorthern":5251,"ĠIT":5252,"Ġhighest":5253,"Ġve":5254,"Ġbig":5255,"ĠNations":5256,"ĠSaf":5257,"ĠSol":5258,"Ġstarted":5259,"Ġindicate":5260,"heast":5261,"ĠRD":5262,"Ġtemperature":5263,"ĠPri":5264,"Ġsil":5265,"Ġimmediately":5266,"ĠUse":5267,"Ġclearly":5268,"Ġsomething":5269,"And":5270,"ECTORS":5271,"Ġcharacteristics":5272,"ĠHaw":5273,"iro":5274,"Ġ(\"":5275,"Ġskills":5276,"Ġrepe":5277,"PD":5278,"erman":5279,"Ġdisease":5280,"ĠIllinois":5281,"Ġupper":5282,"ĠSpace":5283,"Ġcircumstances":5284,"Ġmonitoring":5285,"Ġ1974":5286,"Ġdefinition":5287,"Ġemphas":5288,"ocument":5289,"Ġmo":5290,"Ġsearch":5291,"ĠLab":5292,"Ġ1972":5293,"Ġalt":5294,"Ġparticipation":5295,"Ge":5296,"Ġerror":5297,"yan":5298,"illing":5299,"Ġnation":5300,"RU":5301,"anned":5302,"Ġsea":5303,"MI":5304,"ĠGeorgia":5305,"ĠMur":5306,"jo":5307,"Ġquite":5308,"GO":5309,"ĠLee":5310,"then":5311,"ĠDC":5312,"ĠFurther":5313,"Î±":5314,"ĠEach":5315,"ĠSign":5316,"Ġclin":5317,"life":5318,"ifications":5319,"burgh":5320,"Ġnuclear":5321,"Ġprogramme":5322,"Ġdispos":5323,"ĠLtd":5324,"ĠOlymp":5325,"Ġmemory":5326,"109":5327,"Ġalternative":5328,"amin":5329,"Ġfloor":5330,"Ġsup":5331,"Ġplayed":5332,"ĠAdministration":5333,"ĠAcademy":5334,"ĠCr":5335,"ĠCD":5336,"udd":5337,"ĠAsia":5338,"Ġsoftware":5339,"ĠJeff":5340,"Ġopinion":5341,"Ġ112":5342,"Ġlegislation":5343,"ĠOl":5344,"ĠMer":5345,"Ġconsistent":5346,"ĠConvention":5347,"Ġchapter":5348,"čĠĠĊ":5349,"iform":5350,"North":5351,"tes":5352,"Qu":5353,"perty":5354,"ĠDefense":5355,"icine":5356,"organ":5357,"ACT":5358,"Ġfixed":5359,"ĠFre":5360,"Ġeffic":5361,"ĠHel":5362,"list":5363,"like":5364,"Ġrecently":5365,"akers":5366,"Ġri":5367,"atur":5368,"Ġdetailed":5369,"SON":5370,"ache":5371,"clos":5372,"Ġmg":5373,"................................................................................................":5374,"Not":5375,"bour":5376,"Ġgoals":5377,"Ġlat":5378,"Ġoccurred":5379,"ĠKn":5380,"ande":5381,"ĠCOUN":5382,"ĠNews":5383,"bra":5384,"Ġadequ":5385,"Ġwhom":5386,"Ġwindows":5387,"PE":5388,"Ġflu":5389,"ecution":5390,"RY":5391,"Ġadministration":5392,"Ġmatch":5393,"ĠBureau":5394,"Ġgave":5395,"Source":5396,"Ġdas":5397,"Ġfemale":5398,"Ġperm":5399,"Ġaffected":5400,"Ġlargest":5401,"Ġorigin":5402,"Ġmale":5403,"Ġcoordin":5404,"ĠEff":5405,"ideo":5406,"Ġupd":5407,"ova":5408,"Ġum":5409,"Ġindustrial":5410,"oir":5411,"otals":5412,"overed":5413,"PER":5414,"ĠJones":5415,"Ġconnection":5416,"Ġfeature":5417,"Ġrecon":5418,"orado":5419,"urer":5420,"Ġmother":5421,"Ġselect":5422,"ĠSA":5423,"ĠEnvironmental":5424,"cean":5425,"Ġrapid":5426,"Ġlost":5427,"ĠStation":5428,"Ġprices":5429,"ĠTem":5430,"SD":5431,"Ġslight":5432,"WL":5433,"ĠNA":5434,"ador":5435,"El":5436,"Ġdevice":5437,"Ġmicro":5438,"ĠJim":5439,"EMENT":5440,"eget":5441,"Ġconcerned":5442,"Ġcanc":5443,"Ġconvers":5444,"1994":5445,"ses":5446,"Ġ\\":5447,"NO":5448,"Ġbreak":5449,"rizona":5450,"Ġwriting":5451,"ĠUt":5452,"ĠTrust":5453,"Ġdebt":5454,"Ġretain":5455,"ĠGar":5456,"ĠBob":5457,"aled":5458,"Ġextra":5459,"Ġparents":5460,"When":5461,"Ġ115":5462,"Ġphase":5463,"Ġprison":5464,"Ġbor":5465,"ĠGreat":5466,"ker":5467,"Ġeducational":5468,"acement":5469,"ĠIslam":5470,"Ġdoor":5471,"ĠArab":5472,"Ġcaused":5473,"Ġsignificantly":5474,"istical":5475,"aylor":5476,"ĠMiddle":5477,"Ġexposure":5478,"ICAL":5479,"Ġ114":5480,"ĠKore":5481,"rum":5482,"Ġdos":5483,"rier":5484,"Name":5485,"hat":5486,"128":5487,"encia":5488,"Ġrural":5489,"BL":5490,"ĠTax":5491,"ĠâĢĵ":5492,"Ġseems":5493,"Ġod":5494,"Ġusers":5495,"ĠOfficer":5496,"Ġrelating":5497,"-----":5498,"Ġuseful":5499,"ĠDIST":5500,"rehensive":5501,"Ġesc":5502,"inity":5503,"ivery":5504,"ĠINC":5505,"usion":5506,"Ġanim":5507,"ĠSR":5508,"Ġcounty":5509,"mi":5510,"ĠAdv":5511,"Ġtend":5512,"Ġfirm":5513,"Ġversion":5514,"ĠOFF":5515,"ĠOur":5516,"Ġmentioned":5517,"ĠList":5518,"andom":5519,"MO":5520,"Ġinstitution":5521,"ECTION":5522,"Ġgot":5523,"Ġstations":5524,"Ġep":5525,"imin":5526,"Ġprohib":5527,"holders":5528,"áĦ":5529,"Ġsan":5530,".................":5531,"ĠProf":5532,"How":5533,"Ġtask":5534,"ĠHistor":5535,"Ġinnov":5536,"ĠEngineering":5537,"oud":5538,"ĠSing":5539,"spec":5540,"Ġexperiment":5541,"ÌĨ":5542,"Ġelse":5543,"Ġintended":5544,"bury":5545,"rees":5546,"ying":5547,"duction":5548,"áħ":5549,"ĠMel":5550,"ĠAgric":5551,"Ġevaluation":5552,"ATIONAL":5553,"ĠLocal":5554,"ASH":5555,"ERN":5556,"ĠTenn":5557,"Ġsimply":5558,"Ġscientific":5559,"gorith":5560,"ĠIL":5561,"Ġ105":5562,"erry":5563,"greg":5564,"ige":5565,"Ġsaw":5566,"aux":5567,"Ġspect":5568,"ĠWal":5569,"ĠIss":5570,"ĠRA":5571,"Ġnight":5572,"ĠUC":5573,"ĠBul":5574,"Ġtoward":5575,"point":5576,"Ġpayment":5577,"ĠSr":5578,"enge":5579,"160":5580,"ĠBet":5581,"ĠBoston":5582,"Ġcollected":5583,"tr":5584,"ĠSem":5585,"Ġcomment":5586,"Ġ400":5587,"Ġdella":5588,"Ġadvant":5589,"ĠStep":5590,"Ġconstant":5591,"Ġformal":5592,"astic":5593,"osen":5594,"Ġpopulations":5595,"ĠAssess":5596,"rban":5597,"ĠDR":5598,"uy":5599,"Ġimpacts":5600,"ĠMike":5601,"des":5602,"Ġactually":5603,"Ġ1971":5604,"ĠOld":5605,"Ġprincipal":5606,"Ġfish":5607,"UH":5608,"ĠCivil":5609,"USA":5610,"ĠRem":5611,"erg":5612,"Ġdoing":5613,"Ġvar":5614,"abase":5615,"Ġ113":5616,"Ġfigure":5617,"illa":5618,"Ġcampaign":5619,"Ġindex":5620,"ĠEU":5621,"Ġinstruction":5622,"Ġnegative":5623,"Ġnearly":5624,"ĠCanadian":5625,"ĠResources":5626,"113":5627,"Ġhistorical":5628,"Ġprocedure":5629,"Ġmagn":5630,"ĠTest":5631,"cha":5632,"ided":5633,"Ġannoun":5634,"Ġparticipants":5635,"1993":5636,"Ġsoon":5637,"ĠChinese":5638,"Ġcitizens":5639,"ĠMembers":5640,"Ġsenior":5641,"ensation":5642,"Ġpassed":5643,"Ġresulting":5644,"ĠMedical":5645,"ĠMcC":5646,"ruit":5647,"ivo":5648,"119":5649,"Ġtesting":5650,"Ġhimself":5651,"GL":5652,"ĠSM":5653,"ASA":5654,"ylv":5655,"urities":5656,"Ġsolution":5657,"Ġlay":5658,"ĠConf":5659,"ĠJo":5660,"Ġ1950":5661,"ORD":5662,"ĠGlobal":5663,"140":5664,"ĠMen":5665,"Ġcomponent":5666,"ĠSoc":5667,"vin":5668,"ĠAut":5669,"ĠTom":5670,"rations":5671,"was":5672,"Ġdirector":5673,"Ġprimarily":5674,"azione":5675,"Ġregions":5676,"ĠNote":5677,"ĠAS":5678,"Ġ130":5679,"ĠColumbia":5680,"ĠAB":5681,"Count":5682,"ORY":5683,"Ġmand":5684,"abled":5685,"117":5686,"pir":5687,"including":5688,"Ġcollabor":5689,"ĠCorporation":5690,"ĠCommunic":5691,"ĠED":5692,"ĠLegisl":5693,"Ġmus":5694,"ĠMinistry":5695,"##":5696,"ifically":5697,"Ġamended":5698,"129":5699,"Ġexpendit":5700,"Ġthous":5701,"Ġconcerning":5702,"ENS":5703,"ĠSche":5704,"ĠLibrary":5705,"ĠCross":5706,"ĠâĢľ":5707,"ducing":5708,"odies":5709,"ĠFrancisco":5710,"ĠBrook":5711,"amente":5712,"Ġplaces":5713,"wan":5714,"Î¹":5715,"ĠOx":5716,"going":5717,"ishes":5718,"idi":5719,"Ð¾Ð":5720,"olars":5721,"ĠArts":5722,"plo":5723,"Ġconsideration":5724,"ĠLord":5725,"ĠInternet":5726,"ĠGood":5727,"phia":5728,"123":5729,"Ġattend":5730,"LC":5731,"ĠPolit":5732,"ĠJackson":5733,"iments":5734,"Ġfather":5735,"Ġoccas":5736,"Ġclaims":5737,"..................":5738,"Ġharm":5739,"ĠCast":5740,"Ġfailure":5741,"ista":5742,"ioni":5743,"ĠSystems":5744,"isition":5745,"ĠYoung":5746,"ATA":5747,"Ġsomet":5748,"ĠAngeles":5749,"Ġconcerns":5750,"hab":5751,"Ġriver":5752,"Ġsurround":5753,"fect":5754,"Ġhyp":5755,"================":5756,"ĠPass":5757,"ĠSuch":5758,"Ġfacilit":5759,"Ġrele":5760,"Ġreally":5761,"Ġgeneration":5762,"Ġestimate":5763,"Ġ1968":5764,"Ġ1969":5765,"Ġratio":5766,"Ġagreed":5767,"Ġfra":5768,"Ġcontained":5769,"Ġamb":5770,"law":5771,"Ġrock":5772,"itud":5773,"aval":5774,"Ġidea":5775,"ĠJewish":5776,"fully":5777,"Ġalleg":5778,"Ġconflict":5779,"ben":5780,"Ġple":5781,"ĠChampions":5782,"1992":5783,"ĠNow":5784,"ĠNatural":5785,"Ġplayer":5786,"Ġdepartment":5787,"Ġinvolve":5788,"ĠAnalysis":5789,"UK":5790,"Ġleave":5791,"Ġein":5792,"Ġweap":5793,"Ġcm":5794,"Ġcard":5795,"UTH":5796,"Ġapproval":5797,"Ġrecommendations":5798,"Ġoptions":5799,"ĠAlso":5800,"FS":5801,"ĠSCH":5802,"Ġchanged":5803,"reland":5804,"erse":5805,"ivate":5806,"Ġreve":5807,"Ġexhib":5808,"ĠBal":5809,"ĠPen":5810,"http":5811,"ĠPOLL":5812,"Man":5813,"Ġcult":5814,"itled":5815,"Ġdamage":5816,"Ġincreases":5817,"Ġunique":5818,"hing":5819,"UBL":5820,"fol":5821,"amm":5822,"Apr":5823,"ĠOrder":5824,"ĠFil":5825,"ĠBY":5826,"ughter":5827,"ANC":5828,"amental":5829,"Ġdistinct":5830,"Ġdesignated":5831,"key":5832,"Ġwild":5833,"ACE":5834,"Ġmatters":5835,"arp":5836,"mod":5837,"ĠPa":5838,"Ġinsurance":5839,"osis":5840,"1991":5841,"nce":5842,"Ġflood":5843,"Ġintroduced":5844,"GH":5845,"irds":5846,"ICH":5847,"adelphia":5848,"ĠAffairs":5849,"Ġcred":5850,"rades":5851,"Ġprinciples":5852,"Ġtalk":5853,"uj":5854,"Ġmarkets":5855,"Ġmount":5856,"ectors":5857,"eks":5858,"ĠAppro":5859,"Ġvirt":5860,"ĠRoyal":5861,"Number":5862,"Ġoperational":5863,"WD":5864,"under":5865,"Ġbehind":5866,"Ġcore":5867,"rig":5868,"Ġgreen":5869,"ounsel":5870,"Ġrecognized":5871,"NR":5872,"ĠMs":5873,"JECT":5874,"gr":5875,"Chapter":5876,"Ġrecommended":5877,"By":5878,"lication":5879,"atform":5880,"rical":5881,"Ġremaining":5882,"etary":5883,"ĠCAR":5884,"unk":5885,"ĠOklahoma":5886,"ĠHome":5887,"Ġsubmitted":5888,"Ġta":5889,"Ġbrief":5890,"Ġoffered":5891,"ĠFig":5892,"PRO":5893,"Sept":5894,"Ġresource":5895,"Ġcategory":5896,"ĠRequ":5897,"onds":5898,"Ġmoment":5899,"Ġpositions":5900,"Ġhundred":5901,"Ġfrequency":5902,"ĠComput":5903,"Ġdepart":5904,"Ġscen":5905,"ĠSupport":5906,"ĠAuthority":5907,"VER":5908,"Ġpresident":5909,"Ġperman":5910,"Ġult":5911,"Ġvillage":5912,"mente":5913,"ĠFred":5914,"Ġ117":5915,"ĠTw":5916,"olved":5917,"uality":5918,"ĠPsych":5919,"estion":5920,"ĠAny":5921,"ĠRead":5922,"Ġvisit":5923,"Ġhy":5924,"'re":5925,"Ġclub":5926,"zen":5927,"Ġhum":5928,"Ġsoil":5929,"Ġelected":5930,"ĠMany":5931,"Dr":5932,"ĠNC":5933,"Ġleaders":5934,"Ġjurisd":5935,"Fr":5936,"zo":5937,"Ġtrial":5938,"Ġ104":5939,"Ġrevenue":5940,"Ġsound":5941,"Ġtour":5942,"Ġvent":5943,"iginal":5944,"Ġhabitat":5945,"118":5946,"------":5947,"ĠCoast":5948,"Ġexternal":5949,"ressed":5950,"onial":5951,"ĠParis":5952,"Ġsections":5953,"AMP":5954,"Ġalter":5955,"ansion":5956,"SM":5957,"ulate":5958,"Ġrequirement":5959,"eared":5960,"OUR":5961,"amer":5962,"ication":5963,"oster":5964,"Ġsmaller":5965,"Ġbra":5966,"ĠREC":5967,"ĠSun":5968,"Ġmil":5969,"Ġconservation":5970,"ĠMethod":5971,"Ġwife":5972,"ĠKent":5973,"Ġfine":5974,"Ġma":5975,"oti":5976,".).":5977,"Ġflight":5978,"West":5979,"Ġreturned":5980,"irls":5981,"Ġcategories":5982,"ĠSand":5983,"Ġacademic":5984,"ENCE":5985,"ĠHE":5986,"ĠLu":5987,"lem":5988,"Ġstra":5989,"Ġsecondary":5990,"Ġconce":5991,"Ġpopular":5992,"Ġprocessing":5993,"Ġentered":5994,"ocratic":5995,"Ġformed":5996,"ifies":5997,"pped":5998,"Ġreasonable":5999,"ĠLE":6000,"arry":6001,"Ġaspects":6002,"Ġ102":6003,"Ġpeace":6004,"iquid":6005,"ĠAustralian":6006,"ications":6007,"board":6008,"Ġyield":6009,"Ġadministrative":6010,"ORE":6011,"Ġpreced":6012,"iami":6013,"ĠUnivers":6014,"ĠEll":6015,"Ġgoods":6016,"ĠGENERAL":6017,"Ġteams":6018,"ĠIl":6019,"Ġselection":6020,"Ġpublication":6021,"Ġrace":6022,"Ġ103":6023,"ĠFour":6024,"ĠRepresent":6025,"Ġ118":6026,"ĠNetwork":6027,"ĠBor":6028,"ANK":6029,"Ġsymb":6030,"ĠPolice":6031,"Ġsusp":6032,"Ġvote":6033,"reci":6034,"Ġimproved":6035,"Ġsav":6036,"ĠKansas":6037,"stone":6038,"Ġimage":6039,"One":6040,"Ġdoll":6041,"...................":6042,"Ġaux":6043,"room":6044,"ĠWild":6045,"ATH":6046,"ĠPH":6047,"Ġcombined":6048,"Ġpain":6049,"ĠFamily":6050,"Ġgrowing":6051,"ĠFed":6052,"ANCE":6053,"Ġmode":6054,"regon":6055,"anged":6056,"Ġmessage":6057,"stein":6058,"Ġtechniques":6059,"Ġ1967":6060,"BI":6061,"Ġreserv":6062,"Ro":6063,"Ġquick":6064,"Ġraised":6065,"ĠUnit":6066,"Ġ106":6067,"FE":6068,"amber":6069,"Ġsed":6070,"Ġmiddle":6071,"Ġteachers":6072,"American":6073,"Feb":6074,"Ġonline":6075,"Ġfif":6076,"ĠEastern":6077,"ĠSciences":6078,"INC":6079,"Ġsetting":6080,"127":6081,"Ġinvestigation":6082,"anging":6083,"Ġaim":6084,"Ġdaily":6085,"gar":6086,"bal":6087,"rn":6088,"Ġlatter":6089,"ibilities":6090,"Ġindicates":6091,"ĠIowa":6092,"efore":6093,"IGHT":6094,"ĠLead":6095,"Min":6096,"active":6097,"Ġremained":6098,"Ġcalc":6099,"Ġapparent":6100,"ĠMO":6101,"Ġscheme":6102,"quir":6103,"ogue":6104,"ĠCOL":6105,"Ġreach":6106,"Ġresolution":6107,"Ġremoved":6108,"Ġexpenses":6109,"Ġmix":6110,"ophy":6111,"ĠBE":6112,"122":6113,"ungen":6114,"ĠCath":6115,"Ġsure":6116,"onent":6117,"ĠParliament":6118,"ĠFair":6119,"Ġamounts":6120,"ĠAve":6121,"ĠSU":6122,"Ġmut":6123,"levision":6124,"Ġband":6125,"rupt":6126,"ĠChairman":6127,"Ġster":6128,"Ġtests":6129,"FI":6130,"Ġzu":6131,"ĠVan":6132,"ava":6133,"Ġauthorized":6134,"Ġsets":6135,"ĠAppendix":6136,"South":6137,"erk":6138,"Ġdynam":6139,"Ġassigned":6140,"anch":6141,"ĠNE":6142,"ĠAgreement":6143,"formance":6144,"Ġbill":6145,"Ġlit":6146,"Ġchemical":6147,"Ġstyle":6148,"ĠGame":6149,"orph":6150,"Ġresidents":6151,"Ġextended":6152,"Tra":6153,"Ġsurve":6154,"Ġsometimes":6155,"vision":6156,"ĠCarl":6157,"ĠCommon":6158,"iii":6159,"erate":6160,"Ġvert":6161,"ITED":6162,"Ġwaters":6163,"Ġgraph":6164,"MD":6165,"âĢ¢":6166,"pa":6167,".....................":6168,"ĠArizona":6169,"ĠStaff":6170,"Ġnews":6171,"uties":6172,"def":6173,"Ġaccepted":6174,"ti":6175,"war":6176,"ested":6177,"PC":6178,"lete":6179,"Ġwon":6180,"aron":6181,"Ġtakes":6182,"Ġvehicles":6183,"Ġ116":6184,"Ġpict":6185,"yes":6186,"ective":6187,"ĠGard":6188,"rawn":6189,"Ġrelease":6190,"Ġ1965":6191,"ĠFY":6192,"Ġcopy":6193,"WA":6194,"Ġattract":6195,"Ġfields":6196,"Ġsummer":6197,"ĠPers":6198,"124":6199,"\")":6200,"aven":6201,"Ġexpressed":6202,"uled":6203,"Ġshares":6204,"ĠHa":6205,"ĠMuslim":6206,"Ġchoice":6207,"ĠUp":6208,"rog":6209,"rote":6210,"Ġinstead":6211,"ĠKen":6212,"cons":6213,"bell":6214,"ĠAward":6215,"ĠCre":6216,"Ġteaching":6217,"Ġweeks":6218,"ĠClark":6219,"acing":6220,"resents":6221,"ĠPlanning":6222,"ĠCambridge":6223,"awa":6224,"prise":6225,"ĠIreland":6226,"cel":6227,"ibly":6228,"ĠDavis":6229,"Ġresist":6230,"orter":6231,"ĠExper":6232,"ĠWall":6233,"Ġoption":6234,"abil":6235,"ĠWell":6236,"Ġnom":6237,"ĠCy":6238,"Ġinstance":6239,"icking":6240,"lephone":6241,"Ġleadership":6242,"Ġheart":6243,"uv":6244,"Ġmeasured":6245,"Ġefficiency":6246,"1989":6247,"Ġaccounts":6248,"ĠGR":6249,"ĠDaniel":6250,"Ġtechnologies":6251,"but":6252,"......................":6253,"Ġsteps":6254,"OOD":6255,"ĠEdward":6256,"ĠME":6257,"ĠSenate":6258,"SL":6259,"Ġexercise":6260,"Ġped":6261,"raq":6262,"ebr":6263,"Comp":6264,"Ġextrem":6265,"terior":6266,"Ġproportion":6267,"unn":6268,"ĠVotes":6269,"121":6270,"ĠThen":6271,"Ġbott":6272,"Add":6273,"ĠKenn":6274,"know":6275,"DQ":6276,"Ġhospital":6277,"Ġ107":6278,"ricted":6279,"idge":6280,"ĠAccount":6281,"Ġinstrument":6282,"Ġtrib":6283,"Ġallows":6284,"Ġtrain":6285,"orney":6286,"Ġwall":6287,"aur":6288,"Ġwebs":6289,"Ġexperi":6290,"Ġhistoric":6291,"erior":6292,"ĠCurrent":6293,"Ġfreed":6294,"ĠDi":6295,"onia":6296,"ĠAud":6297,"Ġ....":6298,"Ġsecret":6299,"ĠLeague":6300,"Ġdecided":6301,"ĠMissouri":6302,"Ġframe":6303,"ĠLow":6304,"Ġ^":6305,"Ġsale":6306,"Ġgender":6307,"Ġreli":6308,"Ġcollege":6309,"Ġexact":6310,"ĠGA":6311,"Ġrepresented":6312,"Ġmeetings":6313,"Cent":6314,"Ver":6315,"Ġconsumption":6316,"Ġreached":6317,"ĠLew":6318,"Ġsouthern":6319,"ĠMax":6320,"ĠLi":6321,"Ġdefend":6322,"Med":6323,"Ġzone":6324,"ĠCommer":6325,"1986":6326,"Ġgives":6327,"ĠTherefore":6328,"With":6329,"Ġsuggested":6330,"adi":6331,"aine":6332,"MC":6333,"ths":6334,"ĠVI":6335,"Ġrisks":6336,"Ġmarried":6337,"CAA":6338,"ABLE":6339,"RQ":6340,"aks":6341,"ĠBig":6342,"Ġanc":6343,"Ġ1966":6344,"Ġsubstantial":6345,"ouston":6346,"ĠWay":6347,"cript":6348,"duate":6349,"shall":6350,"Ġcontribution":6351,"ischen":6352,"Ġexamples":6353,"Ġhouses":6354,"ĠNEW":6355,"ĠCOMM":6356,"Ġclosed":6357,"Ġ119":6358,"encing":6359,"lie":6360,"isp":6361,"ĠPlace":6362,"Ġperhaps":6363,"Ġhot":6364,"teen":6365,"ĠPubl":6366,"Ġanti":6367,"overty":6368,"Ġsquare":6369,"Ġforth":6370,"ĠAndrew":6371,"Ġaid":6372,"ĠNavy":6373,"viation":6374,"Ġbeg":6375,"oli":6376,"anes":6377,"Ġwitness":6378,"tical":6379,"sub":6380,"ĠTD":6381,"ĠAssistant":6382,"Ġequivalent":6383,"ĠSEC":6384,"ĠScot":6385,"126":6386,"ĠAccess":6387,"Ġattribut":6388,"Ġenforcement":6389,"Ġemissions":6390,"aka":6391,"ĠPeople":6392,"unte":6393,"vs":6394,"Cap":6395,"edd":6396,"comes":6397,"Ġlives":6398,"``":6399,"Ġliterature":6400,"Ġplayers":6401,"nam":6402,"ricts":6403,"Ġobjectives":6404,"ropri":6405,"Ġbooks":6406,"Ġsin":6407,"essee":6408,"Don":6409,"Ġacid":6410,"andon":6411,"OND":6412,"Ġtrees":6413,"ÌĤ":6414,"Ġcycl":6415,"ocol":6416,"stream":6417,"alo":6418,"010":6419,"Dep":6420,"Ġtree":6421,"Ġrise":6422,"ĠSov":6423,"ĠProtection":6424,"Ġhydro":6425,"135":6426,"ĠVOTES":6427,"WS":6428,"ĠChange":6429,"hematics":6430,"Ġom":6431,"ENCY":6432,"ĠSar":6433,"adas":6434,"xic":6435,"Ġcast":6436,"ĠBecause":6437,"ĠMah":6438,"iano":6439,"anguages":6440,"enger":6441,"Ġveget":6442,"Ġ108":6443,"Ġtell":6444,"Aug":6445,"Ġalgorith":6446,"Ġspirit":6447,"enti":6448,"Ġstream":6449,"Ġdefense":6450,"tex":6451,"ocated":6452,"Ġstrategies":6453,"zi":6454,"ifer":6455,"Ġdisch":6456,"Ġwa":6457,"pat":6458,"ĠJac":6459,"Ġrunning":6460,"Inter":6461,"ĠExt":6462,"Ġoccurs":6463,"Ġcommitted":6464,"Ġpursuant":6465,"STIT":6466,"Ġefficient":6467,"Ġcarbon":6468,"ealand":6469,"ails":6470,"Ġtransportation":6471,"MAR":6472,"ĠProcess":6473,"Ġconver":6474,"Ġspread":6475,"Ġconstructed":6476,"Ġthing":6477,"rimary":6478,"FM":6479,"power":6480,"ĠSir":6481,"ĠConstitution":6482,"Ġpromote":6483,"ONE":6484,"ĠFA":6485,"Ġsumm":6486,"Ġnorthern":6487,"Ġblood":6488,"Ġstore":6489,"icip":6490,"ĠRh":6491,"Ġms":6492,"Ġduty":6493,"HR":6494,"ĠMit":6495,"Ġwindow":6496,"Ġshowed":6497,"ĠGrand":6498,"Ġ109":6499,"Ġvariable":6500,"Ġcombination":6501,"ĠTrib":6502,"rix":6503,"Ġchannel":6504,"ĠCirc":6505,"ĠWR":6506,"sen":6507,"Ġearth":6508,"1988":6509,"ĠTV":6510,"Ġconference":6511,"Ġded":6512,"ĠPrincip":6513,"ĠBroad":6514,"vol":6515,"Ġlett":6516,"ĠPit":6517,"ĠStatistics":6518,"ROM":6519,"ĠMult":6520,"Ġroute":6521,"ĠPur":6522,"OCK":6523,"ĠMos":6524,"risis":6525,"ersey":6526,"car":6527,".......................":6528,"Eng":6529,"139":6530,"ĠSafety":6531,"Ġot":6532,"ĠOperations":6533,"ĠInterior":6534,"Ġrepresents":6535,"han":6536,"Ġcontrast":6537,"Ġemployed":6538,"venues":6539,"Ġappeal":6540,"Ġpermit":6541,"Ann":6542,"Ġcontaining":6543,"reich":6544,"173":6545,"chen":6546,"1987":6547,"ĠĠĠĠĠĠĠĠĠĠĊ":6548,"edy":6549,"Ġsubsequent":6550,"ĠDev":6551,"ĠCop":6552,"Ġstru":6553,"ĠUniv":6554,"____________":6555,"Ġpi":6556,"Ġassociation":6557,"Ġnumerous":6558,"eek":6559,"Ġ1964":6560,"ĠSTATE":6561,"ĠSERV":6562,"ĠColorado":6563,"Ġclasses":6564,"eller":6565,"čĠĠčĠĠčĠĠčĠĠ":6566,"rep":6567,"ĠTerm":6568,"Ġdelivery":6569,"Ġpages":6570,"Ġsoci":6571,"Ġmotion":6572,"Ġ---":6573,"Ġtal":6574,"ĠPoint":6575,"ĠMS":6576,"ĠSTAT":6577,"Ġ125":6578,"position":6579,"western":6580,"132":6581,"ĠSY":6582,"Ġlocations":6583,"lementary":6584,"ĠWind":6585,"ĠZealand":6586,"ĠDEP":6587,"ylvania":6588,"Ġstreet":6589,"Ġcomprehensive":6590,"ĠGames":6591,"Ġalone":6592,"Ġwoman":6593,"ester":6594,"ĠRoman":6595,"aya":6596,"Ġinsp":6597,"Mc":6598,"ailability":6599,"Ġsequence":6600,"Ġcoverage":6601,"aire":6602,"Ġreading":6603,"Ġdro":6604,"alled":6605,"ĠBrad":6606,"Ġfight":6607,"Ì§":6608,"TV":6609,"irms":6610,"1980":6611,"Ġft":6612,"ĠAP":6613,"ĠProperty":6614,"ĠTotals":6615,"Ġidentity":6616,"ĠMAN":6617,"Ġcrime":6618,"ĠWhere":6619,"Ġperiods":6620,"ĠEs":6621,"Ġslightly":6622,"olar":6623,"Ġ1930":6624,"ropical":6625,"Ġsand":6626,"Ġanimals":6627,"Ġtreated":6628,"ĠLine":6629,"Ġbackground":6630,"Ġdiscrim":6631,"March":6632,"Ġsyn":6633,"Ġ250":6634,"Ġfavor":6635,"ĠStatus":6636,"ĠSym":6637,"just":6638,"Ġrenew":6639,"ITE":6640,"ji":6641,"Ġcontributions":6642,"ĠEth":6643,"aciones":6644,"202":6645,"Ġfilm":6646,"ĠEven":6647,"Ġwaste":6648,"Ġfindings":6649,"pet":6650,"FER":6651,"joy":6652,"asure":6653,"Ġbecomes":6654,"Ġlimits":6655,"ommod":6656,"Ġguarant":6657,"Ġexecut":6658,"Ġsegment":6659,"ĠÎ":6660,"Ġbehavi":6661,"Ġbul":6662,"Ġur":6663,"ĠBoth":6664,"ĠTri":6665,"ĠRam":6666,"ĠBeach":6667,"icted":6668,"ĠWilson":6669,"iento":6670,"Ġzero":6671,"Ġeligible":6672,"IDE":6673,"Final":6674,"WN":6675,"ĠSpring":6676,"iling":6677,"ĠIran":6678,"Ġcompliance":6679,"Ġpatterns":6680,"JP":6681,"Ġimplemented":6682,"ĠBra":6683,"Ġencourag":6684,"ĠBa":6685,"html":6686,"inner":6687,"133":6688,"1985":6689,"ĠAlb":6690,"cribed":6691,"emy":6692,"gi":6693,"So":6694,"ĠInst":6695,"ĠTop":6696,"Ġassign":6697,"cin":6698,"Ġfigures":6699,"Will":6700,"ĠAlbert":6701,"Ġ1940":6702,"180":6703,"zer":6704,"Ġexpert":6705,"Ġid":6706,"allel":6707,"har":6708,"NP":6709,"Ġspent":6710,"ĠRou":6711,"MM":6712,"Ġcorresponding":6713,"Ġrare":6714,"abeth":6715,"Ġterror":6716,"Ġclean":6717,"Ġpayments":6718,"UAL":6719,"ĠPhiladelphia":6720,"ori":6721,"Ġtit":6722,"ĠSeries":6723,".........................":6724,"gent":6725,"Ġox":6726,"ĠTechnical":6727,"ws":6728,"GEN":6729,"Ġmetal":6730,"Ġrandom":6731,"ensis":6732,"razil":6733,"sey":6734,"Ġachieved":6735,"Public":6736,"Ġave":6737,"Ġchallenges":6738,"Ġlie":6739,"acional":6740,"Ġregistered":6741,"coh":6742,"----------------------------------------------------------------":6743,"ĠMinnes":6744,"Ġpal":6745,"clude":6746,"ĠĠĠĠĠĠĠĠĊ":6747,"ĠMail":6748,"Cal":6749,"NY":6750,"Ġagricultural":6751,"ĠTaylor":6752,"Ġnine":6753,"rants":6754,"Ġobjects":6755,"ĠAp":6756,"Ġcycle":6757,"ĠVAL":6758,"ĠVis":6759,"arks":6760,"Ġdistingu":6761,"kin":6762,"Ġist":6763,"ĠMinnesota":6764,"Ġaccomp":6765,"ĠContin":6766,"ĠLiber":6767,"Ġadvance":6768,"hand":6769,"Article":6770,"Ġchief":6771,"ĠCapital":6772,"ĠSus":6773,"Ġhour":6774,"uthors":6775,"Ġviews":6776,"ĠRussian":6777,"Ġlif":6778,"ĠKingdom":6779,"Ġship":6780,"Ġpa":6781,"ĠHospital":6782,"Ġnothing":6783,"Par":6784,"ĠAG":6785,"ĠMid":6786,"aba":6787,"Ġargument":6788,"LV":6789,"ulner":6790,"Ac":6791,"~~~~":6792,"Ġinstructions":6793,"Ġconstra":6794,"ĠDiego":6795,"jet":6796,"ĠMath":6797,"elled":6798,"'m":6799,"ĠRay":6800,"ĠHIV":6801,"anic":6802,"..........................":6803,"131":6804,"Ġ1961":6805,"Ġdry":6806,"Ġbelong":6807,"ser":6808,"Ġdeleg":6809,"What":6810,"Ġgranted":6811,"mo":6812,"134":6813,"ĠCur":6814,"UMBER":6815,"ĠWH":6816,"Ġrelationships":6817,"quarters":6818,"ĠOpen":6819,"Ġrout":6820,"ĠEngine":6821,"ipped":6822,"ilipp":6823,"mosp":6824,"Ġcomplet":6825,"145":6826,"ĠCase":6827,"Ġcru":6828,"Ġdivision":6829,"Gl":6830,"Ġslow":6831,"icians":6832,"irement":6833,"144":6834,"ĠBern":6835,"Ġpod":6836,"AST":6837,"uses":6838,"Ġobl":6839,"ĠAnth":6840,"iger":6841,"Ġexcess":6842,"ĠStock":6843,"AH":6844,"ement":6845,"ĠREG":6846,"Ġaqu":6847,"enda":6848,"Ġenhance":6849,"gal":6850,"Ġwalk":6851,"bro":6852,"shire":6853,"ĠFree":6854,"ican":6855,"Ġdevices":6856,"Ġdomin":6857,"lar":6858,"ateral":6859,"scape":6860,"Ġ1962":6861,"Ġsn":6862,"olis":6863,"ĠIraq":6864,"136":6865,"Ġstone":6866,"'d":6867,"Ġcoal":6868,"ĠForeign":6869,"ĠMiller":6870,"Ġcoming":6871,"ĠBridge":6872,"cho":6873,"ĠConservation":6874,"Ne":6875,"ĠPC":6876,"You":6877,"Ġgiving":6878,"ĠFar":6879,"Ġgenerated":6880,"ĠMP":6881,"Ġarrest":6882,"gment":6883,"Ġdraft":6884,"Ġgrand":6885,"clusive":6886,"Ġsoc":6887,"Ġauf":6888,"ĠChildren":6889,"cludes":6890,"Ġ1963":6891,"Ġconsolid":6892,"ĠAssessment":6893,"Ġimprovement":6894,"ĠChris":6895,"Ġjudge":6896,"Ġscore":6897,"ĠPopulation":6898,"138":6899,"ĠOlympic":6900,"Ġprinciple":6901,"Ġerr":6902,"Ġcourts":6903,"SI":6904,"ishment":6905,"irmed":6906,"Ġsamples":6907,"Ġ]":6908,"Ġwrite":6909,"ĠĠĠĠĠĠ":6910,"rea":6911,"Ġvary":6912,"ĠHand":6913,"Ġreceiving":6914,"Ġorient":6915,"onsin":6916,"mat":6917,"actor":6918,"ĠVA":6919,"Ġemergency":6920,"Ġcolor":6921,"DO":6922,"Ġheat":6923,"ĠAction":6924,"hy":6925,"ĠSqu":6926,"ĠOregon":6927,"sylvania":6928,"ĠRod":6929,"Ġ1920":6930,"ques":6931,"ĠLind":6932,"Ġmal":6933,"ĠPay":6934,"ĠDocument":6935,"Ġlargely":6936,"ĠSea":6937,"Ġsigned":6938,"Ġpartnership":6939,"Ġguidance":6940,"Ġformation":6941,"Ġtools":6942,"Ġjournal":6943,"ĠRest":6944,"Ġpatient":6945,"ĠArk":6946,"Ġoperate":6947,"Ġign":6948,"Ġdead":6949,"isconsin":6950,"FY":6951,"Ġrepresentative":6952,"Ġliber":6953,"imb":6954,"ĠMedia":6955,"ĠReserve":6956,"welling":6957,"ĠELECTORS":6958,"fin":6959,"Ġderived":6960,"umin":6961,"ords":6962,"********":6963,"ĠRegion":6964,"Ġmainly":6965,"Trans":6966,"Ġarticles":6967,"ĠTreat":6968,"Ġconsists":6969,"ĠĠĠĠĠĠĠĠĠĠĠĊ":6970,"Ġdrive":6971,"ĠMajor":6972,"Me":6973,"Ag":6974,"SK":6975,"Ġinsert":6976,"class":6977,"Ð»":6978,"uh":6979,"Ġentitled":6980,"ĠGro":6981,"Im":6982,"Ġolder":6983,"isters":6984,"acent":6985,"Ġuncertain":6986,"Ġgain":6987,"Ġcourses":6988,"low":6989,"OWN":6990,"ICK":6991,"148":6992,"230":6993,"TM":6994,"pling":6995,"Ġcontinues":6996,"ĠTransportation":6997,"Ġpurchase":6998,"ipe":6999,"Ġcomments":7000,"Ġscreen":7001,"...........................":7002,"olec":7003,"ĠSom":7004,"Ġfriends":7005,"LAND":7006,"ucky":7007,"ĠSummary":7008,"ĠCro":7009,"Ġengineering":7010,"Ġsuggests":7011,"Ġanswer":7012,"Ġell":7013,"igration":7014,"yer":7015,"kg":7016,"UNT":7017,"ĠIbid":7018,"Ġheight":7019,"Ġanalys":7020,"igu":7021,"eces":7022,"ĠWITH":7023,"ĠIslands":7024,"ĠResp":7025,"Ġscope":7026,"Ġcomparison":7027,"Ġwestern":7028,"ificate":7029,"Ġadvert":7030,"Ġsched":7031,"Be":7032,"oly":7033,"Ġfit":7034,"ĠCONT":7035,"Ġvac":7036,"enant":7037,"ĠOrganization":7038,"RES":7039,"Ġevolution":7040,"Ġnut":7041,"ĠEc":7042,"hester":7043,"Ġsession":7044,"Ġcontem":7045,"ĠHous":7046,"Ġplatform":7047,"ĠCorps":7048,"ische":7049,"ĠSum":7050,"ĠOxford":7051,"Ġintent":7052,"Ġyouth":7053,"nn":7054,"Ġcities":7055,"146":7056,"142":7057,"Ġnarrow":7058,"ĠVolume":7059,"Ġgovernments":7060,"Ġwrote":7061,"Ġparameters":7062,"ema":7063,"ordination":7064,"ATED":7065,"Ġbad":7066,"Ġbrother":7067,"Ġcreation":7068,"ĠCountry":7069,"Ġwor":7070,"Ġextensive":7071,"ĠCensus":7072,"ĠDO":7073,"ÏĦ":7074,"ĠSenior":7075,"Ġarm":7076,"agers":7077,"ĠCa":7078,"onic":7079,"Ġaus":7080,"Ġproposal":7081,"atern":7082,"ELD":7083,"ĠOnly":7084,"Ġren":7085,"ĠLevel":7086,"1984":7087,"ĠTimes":7088,"olo":7089,"ĠResource":7090,"ĠManager":7091,"hesis":7092,"ailed":7093,"Ġcomes":7094,"Ġrent":7095,"kh":7096,"Ġfrag":7097,"Ġpermitted":7098,"Ġfees":7099,"Ġstrategic":7100,"ĠVice":7101,"rator":7102,"uest":7103,"Ġimprovements":7104,"Ġregulation":7105,"137":7106,"Ġvariables":7107,"ebraska":7108,"Ġfast":7109,"Ġsupra":7110,"ĠPak":7111,"149":7112,"002":7113,"ĠEarth":7114,"ĠBritain":7115,"ĠTel":7116,"ĠTod":7117,"Ġvictims":7118,"ĠStatement":7119,"Ġfourth":7120,"170":7121,"Ġcontracts":7122,"ello":7123,"Ġ____":7124,"Ġexpression":7125,"0001":7126,"TT":7127,"zy":7128,"Ġpanel":7129,"BE":7130,"NC":7131,"USE":7132,"ĠSanta":7133,"Ġaccommod":7134,"Ġrecovery":7135,"Ġagent":7136,"Ġexception":7137,"ĠAdvis":7138,"Ġfaith":7139,"ĠModel":7140,"155":7141,"ICS":7142,"Ġmarked":7143,"Ġindepend":7144,"ĠNOT":7145,"ANN":7146,".............................":7147,"Ġbodies":7148,"Ġmes":7149,"Ġadvantage":7150,"Ġshared":7151,"wer":7152,"Ġconnected":7153,"ĠSoviet":7154,"aceae":7155,"ĠStandard":7156,"ĠArchitect":7157,"ĠSa":7158,"CTION":7159,"uries":7160,"GS":7161,"Ġboundary":7162,"Ġmaintained":7163,"Ġspecifically":7164,"Ġfundamental":7165,"Ġadequate":7166,"older":7167,"Ġideas":7168,"Ġestablishment":7169,"ika":7170,"Ġ1945":7171,"Ġ140":7172,"Ġdigital":7173,"iders":7174,"ittees":7175,"ĠItal":7176,"ende":7177,"ami":7178,"Ġemployee":7179,"dr":7180,"Ġinside":7181,"Ġadapt":7182,")-":7183,"SEC":7184,"ĠNone":7185,"azine":7186,"Ġprotected":7187,"Ġber":7188,"Ġacts":7189,"Ġlands":7190,"eden":7191,"Ġphil":7192,"Ġago":7193,"ruption":7194,"Ġcompris":7195,"Ġheavy":7196,"Ġchair":7197,"143":7198,"Ġtouch":7199,"Ġpriority":7200,"Ġweak":7201,"obre":7202,"Su":7203,"stance":7204,"ĠBudget":7205,"stituency":7206,"Ġfresh":7207,"di":7208,"Non":7209,"stract":7210,"ĠGi":7211,"Ġera":7212,"Ġcauses":7213,"Ġenjoy":7214,"ĠCle":7215,"ĠItaly":7216,"Ġcalculated":7217,"Ġrob":7218,"Ġcentre":7219,"Ġcooperation":7220,"Ġstop":7221,"Ġanimal":7222,"Ġpowers":7223,"after":7224,"Ġlooking":7225,"1983":7226,"190":7227,"ĠThree":7228,"Ġitem":7229,"Ġhands":7230,"HU":7231,"Ġengaged":7232,"Ġconcrete":7233,"Ju":7234,"izabeth":7235,"Ġstress":7236,"inations":7237,"ĠFire":7238,"ilton":7239,"ĠFIN":7240,"Ġchallenge":7241,"thlet":7242,"LQ":7243,"Time":7244,"Ġproc":7245,"place":7246,"ĠMaryland":7247,"Ġcommunications":7248,"Ġsubjects":7249,"Ġaccur":7250,"Ġprogrammes":7251,"Ġisol":7252,"ompl":7253,"cht":7254,"Ġtransform":7255,"Ġassumed":7256,"ĠPot":7257,"Ġroll":7258,"Ġabsence":7259,"Ġtransition":7260,"ĠHom":7261,"ORK":7262,"Ġcustomers":7263,"Ġlabour":7264,"ĠLog":7265,"ĠHo":7266,"ĠIts":7267,"ĠEnter":7268,"Ġgold":7269,"gs":7270,"Ġnative":7271,"ĠUrban":7272,"-.":7273,"Ġsignificance":7274,"Ġforced":7275,"Ġfailed":7276,"Ġsupporting":7277,"ĠTrade":7278,"ĠRadio":7279,"ĠSL":7280,"Ġfreedom":7281,"ĠAvailable":7282,"ĠRen":7283,"Ġsafe":7284,"Ġeasily":7285,"Ġ123":7286,"Ġended":7287,"iley":7288,"Ġhouseholds":7289,"aneous":7290,"inking":7291,"ĠJer":7292,"?\"":7293,"141":7294,"Ġbanks":7295,"ĠConstruction":7296,"First":7297,"hemistry":7298,"Ġadvanced":7299,"elfare":7300,"ĠJersey":7301,"rapy":7302,"Ġsolid":7303,"Ġmulti":7304,"SB":7305,"Ġmac":7306,"Ġwebsite":7307,"Ġweather":7308,"NH":7309,"Act":7310,"Ġdial":7311,"Ġobjective":7312,"Ġopening":7313,"Ġenable":7314,"ĠDar":7315,"Ġdisplay":7316,"District":7317,"empts":7318,"bar":7319,"ourse":7320,"ĠDer":7321,"Ġapproaches":7322,"Ġexpansion":7323,"ĠHouston":7324,"Ġtwenty":7325,"Ġjustice":7326,"Ġadult":7327,"abama":7328,"Ġduties":7329,"154":7330,"otic":7331,"Ġappeared":7332,"ĠKar":7333,"Ġkept":7334,"ĠGre":7335,"Ġseek":7336,"Ġresulted":7337,"Over":7338,"Ġowner":7339,"Ġfelt":7340,"iled":7341,"Ġsont":7342,"Ġexistence":7343,"Ġinvent":7344,"etts":7345,"Ġstrength":7346,"Ġregulatory":7347,"Ġformat":7348,"Ġreplaced":7349,"Ġacknow":7350,"ĠIndiana":7351,"TD":7352,"..............................":7353,"Ġ128":7354,"Acc":7355,"Ġheard":7356,"Ġphen":7357,"ingham":7358,"ĠROAD":7359,"ĠJoe":7360,"Can":7361,"orders":7362,"Cons":7363,"PM":7364,"ĠProduct":7365,"adium":7366,"Ġtransmission":7367,"Ġspons":7368,"Ġmarriage":7369,"ĠSupreme":7370,"ĠTennessee":7371,"Ġdepth":7372,"Ġedge":7373,"Ġpartners":7374,"ĠLittle":7375,"Mon":7376,"centage":7377,"Ġprofession":7378,"ĠGal":7379,"Ġstarting":7380,"overs":7381,"eton":7382,"Vol":7383,"fers":7384,"ĠDam":7385,"FIN":7386,"147":7387,"omy":7388,"oming":7389,"ĠNotes":7390,"asi":7391,"175":7392,"152":7393,"ĠProvision":7394,"ordan":7395,"Ġantic":7396,"/-":7397,"ĠMiami":7398,"Ġreleased":7399,"ĠTen":7400,"ĠTraining":7401,"isa":7402,"atically":7403,"requ":7404,"Ġtot":7405,"Ġowned":7406,"ĠDescription":7407,"Ġmental":7408,"gypt":7409,"Ġcells":7410,"Ġ__":7411,"ĠMic":7412,"Ġintelligence":7413,"Ġmedium":7414,"Ġintegr":7415,"inding":7416,"Sm":7417,"Ġpredict":7418,"1982":7419,"ivation":7420,"Ġplanned":7421,"LEY":7422,"uster":7423,"Ġneighbor":7424,"emale":7425,"203":7426,"IRE":7427,"ĠRussia":7428,"Ġsort":7429,"151":7430,"FO":7431,"Ġcat":7432,"ECH":7433,"blic":7434,"ĠRog":7435,"ĠLewis":7436,"vard":7437,"Ġreject":7438,"Ġiz":7439,"Ġax":7440,"Ġwithd":7441,"sm":7442,"HV":7443,"irk":7444,"Ġresidential":7445,"apping":7446,"onto":7447,"Ġcontrolled":7448,"miss":7449,"156":7450,"IME":7451,"ĠPract":7452,"OOL":7453,"Ġdirected":7454,"occ":7455,"Ġliquid":7456,"Ġexplo":7457,"Sch":7458,"ĠKel":7459,"ĠRule":7460,"ceived":7461,"Ġclinical":7462,"Ġven":7463,"Ġextension":7464,"ĠĠĠĠĠĠĠ":7465,"ĠNR":7466,"Ġobligations":7467,"ĠGall":7468,"Ġrein":7469,"Ġorganized":7470,"ĠRos":7471,"ĠMission":7472,"ĠHy":7473,"Ġbed":7474,"Ġtypically":7475,"MR":7476,"Ġdark":7477,"enz":7478,"endo":7479,"aling":7480,"Ġparticipate":7481,"ĠLy":7482,"ĠNJ":7483,"POLL":7484,"2017":7485,"worth":7486,"ANDID":7487,"ĠBack":7488,"yard":7489,"Ġcouncil":7490,"NER":7491,"ĠFood":7492,"thur":7493,"Ġtradition":7494,"Ġelectronic":7495,"205":7496,"athan":7497,"Ġsomew":7498,"Ġpractical":7499,"ĠContract":7500,"ĠCard":7501,"Ġtaxes":7502,"Ġtheore":7503,"rell":7504,"ois":7505,"ĠASS":7506,"ĠOrd":7507,"Ġlosses":7508,"asp":7509,"eler":7510,"leb":7511,"Ġtu":7512,"165":7513,"ĠRecords":7514,"ĠDEL":7515,"trans":7516,"Ġpenalty":7517,"Ġrecognition":7518,"ĠTE":7519,"Ġpermanent":7520,"Ġentrance":7521,"Ġbusinesses":7522,"Ġaddressed":7523,"Ġcompensation":7524,"Ġconsiderable":7525,"Ġ180":7526,"eech":7527,"minister":7528,"ĠHighway":7529,"ĠMilitary":7530,"rary":7531,"Ġmachine":7532,"Ġclosely":7533,"OLD":7534,"ju":7535,"240":7536,"Ġexecutive":7537,"Net":7538,"June":7539,"Ġrepresentatives":7540,"Ġinvolving":7541,"posed":7542,"ĠCommand":7543,"Ġtransferred":7544,"ĠKey":7545,"'ve":7546,"acts":7547,"eman":7548,"GT":7549,"Ġ122":7550,"ĠBh":7551,"Ġdies":7552,"Ġencourage":7553,"fficking":7554,"Def":7555,"ĠPennsylvania":7556,"urning":7557,"ĠAsh":7558,"inder":7559,"Ġbridge":7560,"olitan":7561,"ube":7562,"Ġturned":7563,"earing":7564,"San":7565,"Ġcompletely":7566,"Car":7567,"Ġexperienced":7568,"ersion":7569,"onomic":7570,"Ġice":7571,"157":7572,"%,":7573,"ootball":7574,"rite":7575,"ĠMarine":7576,"MIN":7577,"ĠAF":7578,"kes":7579,"ĠBell":7580,"Av":7581,"Ġones":7582,"sex":7583,"Ġhearing":7584,"atre":7585,"roph":7586,"Ġdanger":7587,"ĠImpro":7588,"Ġrot":7589,"Ġfiles":7590,"bed":7591,"Gr":7592,"pected":7593,"closure":7594,"Ġcharges":7595,"Ġmoving":7596,"ĠAnton":7597,"ventions":7598,"Ġworth":7599,"Ġadvis":7600,"Ġcandidate":7601,"ĠPan":7602,"Ġanything":7603,"oln":7604,"ĠPOST":7605,"ĠCENT":7606,"ĠCC":7607,"...............................":7608,"evin":7609,"Ġmunicipal":7610,"Ġshowing":7611,"WAR":7612,"Ġhaz":7613,"IFIC":7614,"Ġ1956":7615,"260":7616,"350":7617,"care":7618,"FORM":7619,"UBLIC":7620,"Ġflat":7621,"ulum":7622,"Ġnetworks":7623,"Ġethnic":7624,"CENT":7625,"Ġopened":7626,"204":7627,"ĠINTER":7628,"Ġidentification":7629,"Ġsheet":7630,"akh":7631,"urd":7632,"ĠHay":7633,"Ġpartner":7634,"Ġnewsp":7635,"ĠArm":7636,"Ġentity":7637,"Ġspring":7638,"ATT":7639,"ĠTheir":7640,"Ġcorner":7641,"Ġbroadcast":7642,"Ġobvious":7643,"Ġregistration":7644,"ĠLane":7645,"Ġjurisdiction":7646,"Pre":7647,"Rev":7648,"Ġeffectively":7649,"ician":7650,",.":7651,"REE":7652,"Ġrequested":7653,"Ġju":7654,"iece":7655,"Ġoutl":7656,"Ġ160":7657,"ĠCrit":7658,"ĠCond":7659,"group":7660,"Ġawarded":7661,"Ġorganis":7662,"eur":7663,"Ġwet":7664,"Ġaccompl":7665,"Ġnegoti":7666,"ĠCorn":7667,"Ġletters":7668,"ĠSteve":7669,"Ġwanted":7670,"INGH":7671,"ĠWalk":7672,"osing":7673,"ĠBrazil":7674,"1981":7675,"153":7676,"Ġ121":7677,"Ġbelief":7678,"Ġstrengthen":7679,"ĠGuide":7680,"ĠLuc":7681,"ĠSep":7682,"Ġdestroy":7683,"ĠPaper":7684,"ĠSD":7685,"Pres":7686,"ĠJes":7687,"Ġweapons":7688,"Ġacquisition":7689,"Ġguidelines":7690,"rust":7691,"Ġelectricity":7692,"Gu":7693,"umes":7694,"ONG":7695,"ĠGreg":7696,"UMM":7697,"INA":7698,"ORTH":7699,"ĠConc":7700,"Ñĥ":7701,"But":7702,"lan":7703,"Ġmaster":7704,"Ġorders":7705,"Ġexists":7706,"Ġcalls":7707,"itzer":7708,"ĠFax":7709,"Ġ1959":7710,"Ġcrop":7711,"iant":7712,"mouth":7713,"ĠPoll":7714,"Ġmotor":7715,"ĠAPP":7716,"ghan":7717,"ĠJapanese":7718,"ĠBeh":7719,"005":7720,"Ġagents":7721,"Ġcommitment":7722,"ĠNASA":7723,"cohol":7724,"Ġvot":7725,"Ġpossibility":7726,"ĠOak":7727,"Ġinterested":7728,"Ġvideo":7729,"Ġacres":7730,"uns":7731,"Ġdiagn":7732,"IGN":7733,"158":7734,"Election":7735,"Ġtack":7736,"ĠCatholic":7737,"ĠTC":7738,"Ġdistributed":7739,"acters":7740,"anna":7741,"Ġsac":7742,"167":7743,"pass":7744,"EO":7745,"Ġlanguages":7746,"Ġcer":7747,"ĠEC":7748,"Ġintegrated":7749,"Ġconsent":7750,"Ġbes":7751,"Ġmanager":7752,"Ġ1958":7753,"These":7754,"Ġinvestments":7755,"Ġdensity":7756,"Ġsing":7757,"Ġflows":7758,"ĠAddress":7759,"ĠĠĠĠĊ":7760,"icks":7761,"Ġpeak":7762,"ĠKorea":7763,"Ġholding":7764,"ĠStre":7765,"VA":7766,"Ġarrangements":7767,"lich":7768,"opter":7769,"ionally":7770,"ĠGovernor":7771,"ĠMeeting":7772,"159":7773,"220":7774,"ushing":7775,"Ġvulner":7776,"Ġmi":7777,"racy":7778,"ãģ":7779,"Ġleader":7780,"ĠIR":7781,"anish":7782,"Ġrend":7783,"issipp":7784,"ĠWard":7785,"achus":7786,"168":7787,"irty":7788,"Ġexcell":7789,"Ġflex":7790,"Ġvisual":7791,"Ġuniversity":7792,"Ġadvice":7793,"Ġamend":7794,"Ġdivided":7795,"osite":7796,"ĠInteg":7797,"DC":7798,"Ġauthors":7799,"Off":7800,"Ġagreements":7801,"IDS":7802,"Ġimmediate":7803,"Ġjun":7804,"rine":7805,"Ġcry":7806,"ĠAtlantic":7807,"Ġ127":7808,"Ġstraight":7809,"ĠMu":7810,"ributing":7811,"Ġsynt":7812,"BB":7813,"Em":7814,"Ġ1948":7815,"Ġeasy":7816,"ĠRober":7817,"ellite":7818,"ĠAsian":7819,"eties":7820,"ĠTX":7821,"err":7822,"166":7823,"December":7824,"incial":7825,"ceedings":7826,"ĠBru":7827,"Ġing":7828,"Ġconcentration":7829,"Ġsummary":7830,"ĠHor":7831,"1978":7832,"Ġ1941":7833,"210":7834,"Ġgrade":7835,"IAM":7836,"ĠMaterial":7837,"1979":7838,"ĠJon":7839,"oi":7840,"Ġinstruments":7841,"Ġabsol":7842,"oa":7843,"ĠCoach":7844,"Ġinteresting":7845,"Ġexamination":7846,"ĠMoh":7847,"anth":7848,"Ġminim":7849,"ographical":7850,"ĠMIN":7851,"abe":7852,"OO":7853,"Ġoutcomes":7854,"Ġcontribute":7855,"ĠSher":7856,"Ġexplained":7857,"``(":7858,"Ġoffers":7859,"ĠThird":7860,"riers":7861,"Ġgar":7862,"urop":7863,"Ġpapers":7864,"cell":7865,"Ġlinear":7866,"GB":7867,"Ġstake":7868,"ASE":7869,"Ġsecurities":7870,"ellect":7871,"Ġjobs":7872,"iny":7873,"ĠWisconsin":7874,"PART":7875,"Ġdiam":7876,"Oper":7877,"Ġlove":7878,"itative":7879,"ears":7880,"Ġresearc":7881,"van":7882,"ĠSund":7883,"Art":7884,"Ġsolutions":7885,"ÌĮ":7886,"ĠGDP":7887,"MB":7888,"ĠCam":7889,"ollowing":7890,"Ġexposed":7891,"Bu":7892,"ĠJoint":7893,"hm":7894,"ĠMaster":7895,",'":7896,"Ġ1957":7897,"Ġcorn":7898,"Ġintern":7899,"Ġpreparation":7900,"ĠAnderson":7901,"AZ":7902,"ĠCAN":7903,"ĠACT":7904,"aires":7905,"Ġquickly":7906,"Ġprobability":7907,"ungs":7908,"duced":7909,"Ġ135":7910,"Ġsettlement":7911,"High":7912,"Ġreturns":7913,"()":7914,"arios":7915,"Ġwer":7916,"ĠBranch":7917,"Ġwidely":7918,"ĠBarb":7919,"Ġloan":7920,"lag":7921,"ĠSat":7922,"Ġrepresentation":7923,"ichen":7924,"ĠRegist":7925,"isch":7926,"LS":7927,"Ġinters":7928,"ĠBang":7929,"cor":7930,"Ġbehalf":7931,"long":7932,"Ġoch":7933,"++":7934,"ĠIndex":7935,"Ġscholars":7936,"Ġlect":7937,"ums":7938,"003":7939,"Ġeastern":7940,"Ġpoverty":7941,"Ġobservations":7942,"keep":7943,"750":7944,"ĠDun":7945,"HQ":7946,"ĠDES":7947,"Ġexplan":7948,"Ġdecline":7949,"rimes":7950,"1977":7951,"fit":7952,"Ġ............":7953,"Ġreligion":7954,"Ġcomposition":7955,"ĠPier":7956,"cs":7957,"ĠPhilipp":7958,"olk":7959,"Ġthick":7960,"Ġhypot":7961,"Dav":7962,"ĠHot":7963,"Ġfee":7964,"ĠLight":7965,"Ġmanaged":7966,"Do":7967,"ĠElizabeth":7968,"ĠLimited":7969,"issippi":7970,"achusetts":7971,"Ġproceedings":7972,"Ġjoined":7973,"Ġadults":7974,"Ġrear":7975,"asts":7976,"%.":7977,"Ġcompletion":7978,"person":7979,"206":7980,"aph":7981,"ĠBase":7982,"ĠGrant":7983,"ĠPlay":7984,"aped":7985,"Ġmob":7986,"Ġhelped":7987,"ĠSi":7988,"sis":7989,"164":7990,"Ġteacher":7991,"ommend":7992,"lets":7993,"Ġloans":7994,"ĠStudents":7995,"ĠGa":7996,"./":7997,"Appendix":7998,"Ġos":7999,"Ġ1944":8000,"1976":8001,"Ġprev":8002,"Ġadjacent":8003,"Ġdaughter":8004,"asks":8005,"Ġkg":8006,"Ġfrequently":8007,"Ġdetermination":8008,"ĠJudge":8009,"Ġ1000":8010,"RICT":8011,"ĠMarket":8012,"225":8013,"Br":8014,"Ġinterpretation":8015,"Ġavailability":8016,"PI":8017,"ete":8018,"Ġther":8019,"ĠUtah":8020,"ishop":8021,"ĠRon":8022,"alse":8023,"Ġattached":8024,"valuation":8025,"Ġaer":8026,"Ġfocused":8027,"LES":8028,"Ġcancer":8029,"emed":8030,"Rel":8031,"Ġconsumer":8032,"ĠCorp":8033,"OLOG":8034,"After":8035,"Ġfu":8036,"Ġvill":8037,"Ġavec":8038,"Ġ1955":8039,"otype":8040,"ĠHistorical":8041,"ĠCOMP":8042,"site":8043,"ĠSuper":8044,"ropolitan":8045,"Ġsecure":8046,"ĠSant":8047,"Ġ1949":8048,"University":8049,"Ġfiled":8050,"@@@@@@@@@@@@@@@@":8051,"ĠCharl":8052,"ĠScient":8053,"Ġcontrols":8054,"ITION":8055,"Ġhear":8056,"ĠLatin":8057,"Ġunknown":8058,"Ġconfig":8059,"Ġ124":8060,"Ġclar":8061,"high":8062,"Ġkilled":8063,"Ġiron":8064,"type":8065,"Ġretail":8066,"utch":8067,"Ġdiversity":8068,"Ġoffices":8069,"1970":8070,"Ġmechanism":8071,"lik":8072,"Ġlabel":8073,"Ġ600":8074,"222":8075,"Ġ126":8076,"ARA":8077,"ĠHeritage":8078,"plus":8079,"Ġdistricts":8080,"cia":8081,"osh":8082,"Ġproof":8083,"Ġcrisis":8084,"Ġcreating":8085,"IVER":8086,"pton":8087,"Val":8088,"Ġhoriz":8089,"Ġspl":8090,"208":8091,"aret":8092,"Ġfriend":8093,"Ġbelieved":8094,"ady":8095,"rane":8096,"162":8097,"Ġcarrying":8098,"Ġhope":8099,"Ġwel":8100,"ĠHart":8101,"Ġsuitable":8102,"Ġ1951":8103,"Ġincent":8104,"Ġdoubt":8105,"174":8106,"Ġstudied":8107,"Ġfoundation":8108,"itudes":8109,"Ġsimpl":8110,"Ġdated":8111,"'ll":8112,"ICA":8113,"Ġmobile":8114,"ĠMot":8115,"ĠPlaces":8116,"Ġont":8117,".]":8118,"ĠIP":8119,"ĠSite":8120,"ĠViet":8121,"256":8122,"Ġ1942":8123,"-,":8124,"Ġporch":8125,"ĠJean":8126,"ĠOs":8127,"ĠAk":8128,"ventional":8129,"185":8130,"Ġparallel":8131,"ĠCT":8132,"Ġdescribe":8133,"ĠMicro":8134,"INS":8135,"aton":8136,"Fin":8137,"Ġ129":8138,"born":8139,"ĠBrian":8140,"April":8141,"Ste":8142,"Ġdefine":8143,"istent":8144,"Ðº":8145,"gers":8146,"1975":8147,"Ġcoach":8148,"Ġfaculty":8149,"Ġabuse":8150,"wing":8151,"ĠRelations":8152,"Ġ($":8153,"Ġpool":8154,"Ġdespite":8155,"hal":8156,"207":8157,"Ġsustainable":8158,"Ġlicense":8159,"lyn":8160,"ĠPOL":8161,"Ġ800":8162,"163":8163,"Ġterritory":8164,"ĠVari":8165,"ĠEgypt":8166,"ĠAcademic":8167,"Ġintroduction":8168,"ĠDame":8169,"rowth":8170,"Ġattended":8171,"imp":8172,"ibli":8173,"roc":8174,"Ġaccounting":8175,"clusions":8176,"Ġleads":8177,"Ġcontra":8178,"161":8179,"ĠHard":8180,"Ġdollars":8181,"Ġ1900":8182,"roit":8183,"ooth":8184,"opes":8185,"Ġ1947":8186,"Ġresponses":8187,"ĠUT":8188,"176":8189,"imm":8190,"ĠKong":8191,"sent":8192,"ĠNebraska":8193,"apa":8194,"Ġmembership":8195,"301":8196,"ĠHawai":8197,"ĠFinance":8198,"Ġcolumn":8199,"GER":8200,"Ġownership":8201,"198":8202,"ĠGuard":8203,"oyd":8204,"Ġresol":8205,"Ġpossess":8206,"ĠRules":8207,"bel":8208,"Ġtypical":8209,"ĠPD":8210,"onents":8211,"195":8212,"Ġapplies":8213,"Ġenact":8214,"Ġexamined":8215,"Most":8216,"Ġreducing":8217,"ĠConsider":8218,"ĠTreas":8219,"Ġconven":8220,"ĠLin":8221,"333":8222,"Ġfirms":8223,"Under":8224,"Ġmechanisms":8225,"lon":8226,"argo":8227,"Ġovers":8228,"ĠWhe":8229,"uable":8230,"hu":8231,"ogy":8232,"ĠHO":8233,"Ġinstitutional":8234,"rav":8235,"Ġuns":8236,"Ġatmosp":8237,"onym":8238,"mont":8239,"Ġequity":8240,"ĠFarm":8241,"Mich":8242,"Ġacquired":8243,"Ġconform":8244,"Ġstrongly":8245,"ĠHIGH":8246,"Ġ1952":8247,"Ġcharacters":8248,"Ġ1946":8249,"Ġbranch":8250,"Ġimag":8251,"ĠGuid":8252,"Ġflag":8253,"ĠPlant":8254,"Ġsevere":8255,"ĠStephen":8256,"Ġtelevision":8257,"ĠRound":8258,"si":8259,"has":8260,"Type":8261,"Ìĥ":8262,"Ġdiscip":8263,"ĠGU":8264,"Ġsport":8265,"elson":8266,"quiry":8267,"illy":8268,"ĠMap":8269,"ormal":8270,"Att":8271,"Ġexport":8272,"Ġfinding":8273,"ĠArkansas":8274,"Ġrich":8275,"Ġog":8276,"ceptions":8277,"such":8278,"Hz":8279,"ĠÂ":8280,"Ġinformed":8281,"chell":8282,"ĠRegulations":8283,"ETH":8284,"ĠFull":8285,"Ġdecrease":8286,"Ġvel":8287,"cious":8288,"ĠMedicine":8289,"WAY":8290,"ĠAst":8291,"169":8292,"ture":8293,"Ġsole":8294,"umul":8295,"Ġnov":8296,"inton":8297,"Est":8298,"Ġ1954":8299,"Ġchanging":8300,"209":8301,"Ġdram":8302,"ĠALL":8303,"Ġille":8304,"ĠPhD":8305,"Ġ1938":8306,"imore":8307,"ĠSource":8308,"Ġrecre":8309,"Ġbottom":8310,"outheast":8311,"WARD":8312,"ĠMoreover":8313,"aga":8314,"aste":8315,"Ġuniform":8316,"Ġ1939":8317,"emble":8318,"shop":8319,"ĠAge":8320,"bb":8321,"ĠBC":8322,"Ġcontroll":8323,"ĠQuality":8324,"Ġliv":8325,"Ġaggreg":8326,"Ġextremely":8327,"ĠNCAA":8328,"Ġborder":8329,"Ġfell":8330,"utral":8331,"INGS":8332,"icle":8333,"ĠPlayer":8334,"ĠEric":8335,"Ġsupports":8336,"Ġcapability":8337,"ĠDuke":8338,"this":8339,"Ġphotograph":8340,"Ġpilot":8341,"Ġcapabilities":8342,"iffer":8343,"Ġchosen":8344,"ĠAllen":8345,"YS":8346,"ĠRAM":8347,"Ġattacks":8348,"Ġshape":8349,"ectic":8350,"ĠGh":8351,"tre":8352,"Ġlibrary":8353,"Ġlived":8354,"ĠLear":8355,"NATIONAL":8356,"outs":8357,"Ġpromin":8358,"Ġlaunch":8359,"OHN":8360,"ĠDL":8361,"ĠHong":8362,"Ġcorporate":8363,"Ġstories":8364,"270":8365,"Ġpair":8366,"212":8367,"Ġsong":8368,"Ġphilos":8369,"ĠACC":8370,"ML":8371,"making":8372,"Ġrespondents":8373,"ĠDom":8374,"Har":8375,"ĠBlue":8376,"lav":8377,"ĠCOUNTY":8378,"Ġconfirmed":8379,"uli":8380,"Ġtransactions":8381,"004":8382,"ategory":8383,"Ġprofit":8384,"ĠAlexander":8385,"Ġment":8386,"ĠGE":8387,"ĠTitle":8388,"Ġtool":8389,"Ġextend":8390,"Ġdatabase":8391,"ĠREPORT":8392,"onder":8393,"Ġdrop":8394,"Ġroads":8395,"Ġconcluded":8396,"Ġdei":8397,"ĠYears":8398,"Ġcombat":8399,"Ġgirls":8400,"ĠKim":8401,"ĠRESULT":8402,"Ġoutstanding":8403,"ĠPART":8404,"DEC":8405,"oj":8406,"171":8407,"ompson":8408,"ĠCompet":8409,"exts":8410,"Ġeffectiveness":8411,"ĠWy":8412,"ĠĠĠĠĠĠĠĠĠĊ":8413,"Ġ1953":8414,"ĠHig":8415,"ouver":8416,"count":8417,"ĠPerformance":8418,"Ġspeech":8419,"aints":8420,"ĠHere":8421,"Ġstay":8422,"wick":8423,"ĠSever":8424,"Ġerrors":8425,"ĠCert":8426,"Ġisland":8427,"dale":8428,"Ġnam":8429,"179":8430,"ĠSon":8431,"Ġstatistics":8432,"embre":8433,"Ġinstalled":8434,"192":8435,"ĠScotland":8436,"Ġcontinuous":8437,"ĠGL":8438,"ĠMON":8439,"ĠHal":8440,"Out":8441,"July":8442,"Ġexplicit":8443,"disc":8444,"ĠWeek":8445,"lation":8446,"ERE":8447,"imensions":8448,"orship":8449,"Ġeditor":8450,"isse":8451,"ĠAlabama":8452,"ĠSaint":8453,"ĠFisher":8454,":\\":8455,"ĠBallot":8456,"ĠWorking":8457,"ĠLegislative":8458,"Ġ133":8459,"Ġsectors":8460,"172":8461,"Ġconclusion":8462,"osystem":8463,"ĠHS":8464,"Î½":8465,"letin":8466,"177":8467,"Ġpermission":8468,"Ġfle":8469,"cr":8470,"ĠOnt":8471,"Ġinn":8472,"Ġsports":8473,"ĠLie":8474,"Ġrevenues":8475,"TI":8476,"ĠMC":8477,"Ġschedule":8478,"print":8479,"REET":8480,"UENCY":8481,"Ġsell":8482,"Ġsend":8483,"amento":8484,"Ġawareness":8485,"ĠResults":8486,"178":8487,"aten":8488,"ĠâĢĶ":8489,"ĠER":8490,"Serv":8491,"Ġfurn":8492,"aver":8493,"Ġexecution":8494,"Ġaged":8495,"ARE":8496,"ĠCommunications":8497,"ĠNat":8498,"ĠClin":8499,"Ġperspective":8500,"Ġsurveys":8501,"utory":8502,"Ġcontinuing":8503,"Ġplaying":8504,"ahr":8505,"Ġhus":8506,"William":8507,"Ġstanding":8508,"bet":8509,"Ġclassification":8510,"Ġruns":8511,"Ġcertainly":8512,"real":8513,"ĠIdent":8514,"ĠEp":8515,"Ġassume":8516,"Ġanticip":8517,"stood":8518,"Ġmorning":8519,"Ġschem":8520,"Ġsuc":8521,"Ġcounsel":8522,"ĠProc":8523,"Ġelevation":8524,"olia":8525,"Ġboundaries":8526,"etball":8527,"ĠHoward":8528,"Ġsought":8529,"DV":8530,"Ġconfidence":8531,"exual":8532,"Ġdidn":8533,"ĠEV":8534,"ĠVillage":8535,"Mark":8536,"herent":8537,"Ġsomewhat":8538,"Ġdim":8539,"unal":8540,"280":8541,"Ġmortality":8542,"Ġinitiatives":8543,"182":8544,"ĠRa":8545,"exp":8546,"inction":8547,"196":8548,"retion":8549,"Ġgable":8550,"don":8551,"mediate":8552,"Ġmorph":8553,"235":8554,"Ġremember":8555,"Ġ137":8556,"Ġvir":8557,"Ġ132":8558,"ĠTal":8559,"ĠHans":8560,"idents":8561,"ffer":8562,"ĉĊ":8563,"Ġsubmit":8564,"Ġwalls":8565,"attal":8566,"189":8567,"oking":8568,"ĠIrish":8569,"ĠBudd":8570,"eless":8571,"Ġsigns":8572,"Ġarbit":8573,"Ġongoing":8574,"uther":8575,"ĠCit":8576,"ĠMarshall":8577,"cles":8578,"450":8579,"ĠUk":8580,"Ġsun":8581,"ĠChap":8582,"188":8583,"ĠDa":8584,"Ġconnect":8585,"Ġcatal":8586,"Ġstructural":8587,"Ġ1943":8588,"Ġcam":8589,"ĠSimilar":8590,"Ġfort":8591,"Ġappreci":8592,"Îµ":8593,"VII":8594,"hl":8595,"ĠAltern":8596,"Ġpan":8597,"Ġanalyses":8598,"1972":8599,"ĠCommissioner":8600,"ĠDown":8601,"ISC":8602,"uing":8603,"uri":8604,"Ġdelivered":8605,"ĠPolitical":8606,"Ġexpenditure":8607,"Ġeste":8608,"ĠLaboratory":8609,"ĠHIST":8610,"Ġoperated":8611,"Ġhet":8612,"ĠProceedings":8613,"ĠSUB":8614,"ĠDig":8615,"ĠWat":8616,"ossible":8617,"FG":8618,"Report":8619,"194":8620,"Ġvision":8621,"Ġ131":8622,"UMA":8623,"ĠOH":8624,"ĠEM":8625,"Sw":8626,"Ġalgorithm":8627,"Ġals":8628,"Ġwarm":8629,"Ġ145":8630,"186":8631,"Ġconj":8632,"Ġdebate":8633,"section":8634,"elo":8635,"ĠWales":8636,"izz":8637,"Ġexperiences":8638,"Ġcharged":8639,"Ġintegration":8640,"ĠEarly":8641,"irl":8642,"Ġmostly":8643,"Ġast":8644,"jan":8645,"ĠAmericans":8646,"Ġannounced":8647,"Ġsides":8648,"abb":8649,"Ġseed":8650,"184":8651,"ku":8652,"ATER":8653,"cf":8654,"rin":8655,")................................":8656,"Ġtrends":8657,"Ġdose":8658,"Ġinjury":8659,"East":8660,"1974":8661,"Ġoriginally":8662,"Ġrepeated":8663,"ENTS":8664,"Ġknew":8665,"Ġflo":8666,"Ġamendment":8667,"Ġoptim":8668,"Ġdell":8669,"ĠFrancis":8670,"ĠSav":8671,"front":8672,"Ġwait":8673,"Ġtargets":8674,"tsburgh":8675,"Ġ1936":8676,"glas":8677,"Ġhomes":8678,"Ġremoval":8679,"iliar":8680,"Day":8681,"rency":8682,"ĠComb":8683,"Ġvariation":8684,"Ġbehaviour":8685,"Ġcod":8686,"ĠJordan":8687,"ellectual":8688,"Ġrecip":8689,"ĠWA":8690,"ĠHousing":8691,"bound":8692,"omer":8693,"Ġ170":8694,"ĠMcK":8695,"altimore":8696,"Ġgrass":8697,"yt":8698,"issance":8699,"stituted":8700,"Ġrelief":8701,"ĠHills":8702,"Ġconsequences":8703,"Ġresponsibilities":8704,"pres":8705,"197":8706,"Ġdrawn":8707,"Ġliability":8708,"Ġdegrees":8709,"Ġpick":8710,"ĠComputer":8711,"Ġconversion":8712,"ĠJacob":8713,"ATO":8714,"ĠVen":8715,"ifier":8716,"Ġliabilities":8717,"DL":8718,"Bo":8719,"essels":8720,"ĠJews":8721,"Cor":8722,"Ġafford":8723,"ĠPakistan":8724,"Ġwish":8725,"ĠPOLLING":8726,"apolis":8727,"Ġwinter":8728,"theless":8729,"iche":8730,"ĠSmall":8731,"leveland":8732,"OUND":8733,"Ġentities":8734,"will":8735,"Ġexplain":8736,"aware":8737,"ĠReal":8738,"Mat":8739,"187":8740,"Ġspending":8741,"Ġchain":8742,"ĠGas":8743,"ĠSingle":8744,"ript":8745,"Ġgrounds":8746,"Ġkick":8747,"Ġans":8748,"ĠSchedule":8749,"Ġcritic":8750,"ĠMassachusetts":8751,"ensions":8752,"Constituency":8753,"asa":8754,"cm":8755,"Ġguard":8756,"ĠLawrence":8757,"ĠRural":8758,"Aust":8759,"Ġfootball":8760,"Ġbomb":8761,"Ġinterior":8762,"Ġserving":8763,"Ġgetting":8764,"Ġtele":8765,"Ġtemporary":8766,"AF":8767,"ethyl":8768,"à¤":8769,"Second":8770,"Ġreviewed":8771,"Ġ134":8772,"Ġguide":8773,"Ġdemonstrated":8774,"ctic":8775,"ĠMountain":8776,"Ġaffili":8777,"ĠNa":8778,"Ġ..........":8779,"erald":8780,"Ġconsultation":8781,"non":8782,"Ġmodified":8783,"')":8784,"ĠMarg":8785,"Ġestate":8786,"ĠAnother":8787,"CN":8788,"jud":8789,"Ġmanif":8790,"ordon":8791,"graduate":8792,"Ġoperator":8793,"hn":8794,"ennis":8795,"Ġreplacement":8796,"Ġweb":8797,"183":8798,"incoln":8799,"BY":8800,"ĠDATA":8801,"ĠDirectors":8802,"acher":8803,"ĠPAR":8804,"Ġpicture":8805,"Ġengage":8806,"ĠMoore":8807,"ĠLeon":8808,"ĠBlock":8809,"esting":8810,"Ġcustomer":8811,"body":8812,"Ġunf":8813,"antry":8814,"ĠIndustry":8815,"Ġpul":8816,"Ġcool":8817,"Ġsurrounding":8818,"Ġoverl":8819,"ĠAfghan":8820,"ivities":8821,"Ġvolunte":8822,"Ġasset":8823,"Ġimages":8824,"IDGE":8825,"ĠStandards":8826,"Ġurg":8827,"Ġarmed":8828,"Ġproposals":8829,"avor":8830,"ĠCall":8831,"ĠINT":8832,"Ġgross":8833,"Ġnecessarily":8834,"Ġunion":8835,"Ġrestricted":8836,"ĠAverage":8837,"herlands":8838,"Ġcorrel":8839,"Ġresidence":8840,"ĠSheet":8841,"ĠWin":8842,"Ġnone":8843,"ĠDeputy":8844,"km":8845,"ĠHarris":8846,"Ġrestrictions":8847,"ĠMatt":8848,"255":8849,"ĠPrior":8850,"Ġincident":8851,"ĠFG":8852,"azz":8853,"Ġcooper":8854,"Ġmanufacturing":8855,"leep":8856,"oen":8857,"NOT":8858,"ĠAmendment":8859,"Ġnr":8860,"opy":8861,"itis":8862,"ĠFC":8863,"ĠProm":8864,"Ġstim":8865,"Ġaccident":8866,"Ġwrong":8867,"ogs":8868,"Ġ......":8869,"Ġentirely":8870,"AE":8871,"ĠBerlin":8872,"Ġsobre":8873,"ĠGreek":8874,"Ġlearned":8875,"Team":8876,"Ġgreatest":8877,"Ġprote":8878,"Ġindirect":8879,"play":8880,"Ġdecades":8881,"Ġmargin":8882,"ĠJose":8883,"SF":8884,"Ġjudgment":8885,"During":8886,"Ġappearance":8887,"urns":8888,"agar":8889,"Ġindeed":8890,"ĠIslamic":8891,"Ġplease":8892,"reshold":8893,"ĠPublications":8894,"233":8895,"ĠĠĠĠĠĠĊ":8896,"chi":8897,"Ġattempts":8898,"1973":8899,"193":8900,"ĠBah":8901,"Ġmeant":8902,"ĠEmerg":8903,"inals":8904,"ĠDak":8905,"Ġmanage":8906,"ĠOpp":8907,"ĠPrint":8908,"Ġmixed":8909,"rr":8910,"Ġti":8911,"ĠDor":8912,"Ġadverse":8913,"Description":8914,"scale":8915,"Ġneither":8916,"othe":8917,"ĠDiv":8918,"Ġwhereas":8919,"Ġrequests":8920,"Stud":8921,"ĠBry":8922,"rows":8923,"Ġbiological":8924,"ĠLL":8925,"Ġcapable":8926,"ĠProp":8927,"305":8928,"eta":8929,"faces":8930,"Ġvertical":8931,"OMB":8932,"245":8933,"ocracy":8934,"Ġkil":8935,"ĠNeg":8936,"UTE":8937,"ĠCOR":8938,"Ġbecoming":8939,"ismo":8940,"Ġqualified":8941,"ĠProgramme":8942,"uw":8943,"Ġwing":8944,"-'":8945,"Ġproviders":8946,"ĠHarvard":8947,"Ġ138":8948,"ĠVa":8949,"Ġdrugs":8950,"ĠRoute":8951,"Ġ144":8952,"ĠSINGH":8953,"amination":8954,"uba":8955,"ĠNev":8956,"Ġ136":8957,"ĠFlight":8958,"olt":8959,"Us":8960,"ĠKentucky":8961,"Ġalle":8962,"JECTED":8963,"Ġmeasurement":8964,"ĠStrateg":8965,"ĠQuarter":8966,"due":8967,"isting":8968,"Id":8969,"Ġunable":8970,"UMMARY":8971,"ctor":8972,"Ġmineral":8973,"ĠRoberts":8974,"iller":8975,"itals":8976,"Ġdisturb":8977,"Ġshift":8978,"ployed":8979,"sa":8980,"DI":8981,"ĠGil":8982,"ĠAbd":8983,"imony":8984,"NPS":8985,"Ġsituations":8986,"Ġgrants":8987,"Ġ(%)":8988,"Ġmarine":8989,"Ġrg":8990,"acco":8991,"Ġarchitecture":8992,"***":8993,"Ġdates":8994,"ĠOcean":8995,"Ġpoly":8996,"STATE":8997,"ĠPed":8998,".*":8999,"habilit":9000,"Ġabund":9001,"uracy":9002,"ĠBefore":9003,"234":9004,"Ġincreasingly":9005,"Ġchoose":9006,"ĠStanford":9007,"Washington":9008,"ĠĠĠĠĠĠĠĊ":9009,"Ġfulf":9010,"ĠRoss":9011,"asters":9012,"Ġsentence":9013,"Ġhit":9014,"Ġhonor":9015,"ĠMess":9016,"eland":9017,"360":9018,"Ġ........":9019,"izations":9020,"Ġgrad":9021,"ĠMississippi":9022,"ĠHung":9023,"Ġallowing":9024,"ĠWalter":9025,"ether":9026,"dec":9027,"Ġdeclared":9028,"Ġowners":9029,"Summary":9030,"onal":9031,"closed":9032,"rend":9033,"191":9034,"rategy":9035,"Ġdelay":9036,"181":9037,"011":9038,"Ġdevelopments":9039,"999":9040,"Ġ139":9041,"othing":9042,"aza":9043,"conn":9044,"Ġclient":9045,"ĠAgriculture":9046,"ativ":9047,"imately":9048,"ĠDelta":9049,"pload":9050,"221":9051,"antes":9052,"ument":9053,"pen":9054,"MT":9055,"Ġcandidates":9056,"Ġcited":9057,"log":9058,"Ġdiscrimination":9059,"Ġlaun":9060,"hetic":9061,"Ġclassified":9062,"Ġaver":9063,"ĠNature":9064,"ĠKal":9065,"Ġcrew":9066,"Ġnicht":9067,"Ġfinance":9068,"ĠLeb":9069,"mb":9070,"HI":9071,"uan":9072,"Ġresistance":9073,"Ġready":9074,"Ġdisapp":9075,"annels":9076,"Ġlandscape":9077,"eder":9078,"asse":9079,"Ġalleged":9080,"ĠSpain":9081,"ĠSS":9082,"County":9083,"Ġoffence":9084,"ĠValid":9085,"Ġregime":9086,"ĠParticip":9087,"stitutes":9088,"Ġbits":9089,"ĠOcc":9090,"ĠFurthermore":9091,"Ġproved":9092,"Ġfix":9093,"Ġpresentation":9094,"Î·":9095,"zing":9096,"ials":9097,"Ġimproving":9098,"Ġbelie":9099,"ĠIC":9100,"heim":9101,"text":9102,"Ġmarketing":9103,"APP":9104,"riculum":9105,"ĠFellow":9106,"APTER":9107,"iffs":9108,"ocate":9109,"OFF":9110,"226":9111,"ĠPalest":9112,"ĠRand":9113,"abric":9114,"ĠSUR":9115,"Ġadminister":9116,"Ġfacts":9117,"ĠSpanish":9118,"ĠStudent":9119,"Ġhat":9120,"Ob":9121,"ĠSports":9122,"Ġdetermining":9123,"ĠThrough":9124,"Ġbrown":9125,"ĠSchools":9126,"224":9127,"elih":9128,"ĠUpload":9129,"Ġrefers":9130,"Ġwealth":9131,"icon":9132,"Ġpregn":9133,"ĠĠĠĠĠĊ":9134,"Ġtested":9135,"iser":9136,"Ġsummar":9137,"Ġ``(":9138,"yo":9139,"ĠBarn":9140,"ĠWHO":9141,"Ġfisher":9142,"ologist":9143,"Ġrough":9144,"Ġtasks":9145,"pm":9146,"Ġ1937":9147,"Ġblocks":9148,"________________________________________________________________":9149,"ĠTW":9150,"Ġconfirm":9151,"Mod":9152,"Ġsteel":9153,"Ġtrying":9154,"ĠSet":9155,"incinn":9156,"Ġ143":9157,"enh":9158,"Ġsubsc":9159,"Although":9160,"Ġfinally":9161,"Ġpip":9162,"Ġfacilitate":9163,"ĠGer":9164,"Ġproperly":9165,"Ġundertaken":9166,"Ġdiseases":9167,"bec":9168,"Ġtransaction":9169,"Ġgoes":9170,"Ġapplicant":9171,"Ġinvolvement":9172,"Ġglass":9173,"ĠSix":9174,"ĠDomin":9175,"Ġcos":9176,"Ġswitch":9177,"Ġ175":9178,"alties":9179,"232":9180,"communic":9181,"While":9182,"Ġrespective":9183,"ĠForces":9184,"Ġordered":9185,"uling":9186,"ĠGRE":9187,"Ð²":9188,"1969":9189,"ĠFootball":9190,"ĠChamber":9191,"Ġholds":9192,"ĠBA":9193,"adv":9194,"213":9195,"ODE":9196,"Ġgard":9197,"Ġhall":9198,"elihood":9199,"eding":9200,"Ġstable":9201,"Ġvisible":9202,"publ":9203,"ĠDevelop":9204,"ads":9205,"1968":9206,"Ġ155":9207,"Data":9208,"Ġsucceed":9209,"uma":9210,"Ġthor":9211,"incinnati":9212,"ERSON":9213,"Ġfert":9214,"ĠGO":9215,"Ġphenomen":9216,"ĠRidge":9217,"ificant":9218,"untary":9219,"UV":9220,"006":9221,"Ġbirds":9222,"Ġconsumers":9223,"Il":9224,"Ġvic":9225,"ĠHun":9226,"Ġpossibly":9227,"mir":9228,"ADE":9229,"Ġpotentially":9230,"Ġtill":9231,"Ġedition":9232,"iate":9233,"Ġcopies":9234,"228":9235,"ĠLem":9236,"Ġunderlying":9237,"Ġwilling":9238,"Ġmur":9239,"Ġwave":9240,"ĠIndividual":9241,"ĠOFFICE":9242,"xi":9243,"ĠLB":9244,"Ġtruth":9245,"Ġunderstood":9246,"((":9247,"Ġ141":9248,"zt":9249,"ĠMarc":9250,"ĠHu":9251,"ĠBon":9252,"ĠConsult":9253,"Ġrefuge":9254,"ĠBos":9255,"Ġmeasurements":9256,"ĠBowl":9257,"Ġaudit":9258,"Ġpetition":9259,"ĠCab":9260,"Ġdependent":9261,"ĠMt":9262,"211":9263,"iler":9264,"anning":9265,"ĠTownship":9266,"Ġstrugg":9267,"ĠFinally":9268,"BUR":9269,"ĠTro":9270,"len":9271,"Ġking":9272,"215":9273,"ĠSeg":9274,"Ġcoastal":9275,"238":9276,"usal":9277,"Ġlegislative":9278,"Ġni":9279,"275":9280,"det":9281,"ĠView":9282,"ĠStart":9283,"Ġarrived":9284,"ĠFE":9285,"Ġbond":9286,"Ġlaboratory":9287,"ĠGRO":9288,"304":9289,"icate":9290,"inceton":9291,"igenous":9292,"1971":9293,"Ġcart":9294,"Ġborrow":9295,"ĠEconomics":9296,"Ġtrafficking":9297,"231":9298,"writ":9299,"pping":9300,"Ġspaces":9301,"Ġlists":9302,"Ġpra":9303,"ĠNort":9304,"ESH":9305,"cd":9306,"236":9307,"229":9308,"ĠLanguage":9309,"Ġimper":9310,"gebra":9311,"ĠTheory":9312,"ĠBelg":9313,"Ġcontributed":9314,"economic":9315,"Ġprove":9316,"itzerland":9317,"Ġtelephone":9318,"lines":9319,"Conn":9320,"Ġdescribes":9321,"Ġstring":9322,"Ġeventually":9323,"Ġmile":9324,"ynch":9325,"Cop":9326,"Ġnav":9327,"Ġ1910":9328,"ĠSn":9329,"listed":9330,"Our":9331,"Pe":9332,"ĠEvery":9333,"oni":9334,"Ġenemy":9335,"Ġspeak":9336,"ĠPersonal":9337,"Ġleaves":9338,"Ġduration":9339,"Ġexpanded":9340,"ISION":9341,"Ġviolation":9342,"Ġoperators":9343,"Ġvoting":9344,"Direct":9345,"ĠExpl":9346,"Ġvictim":9347,"Ġpup":9348,"Ġnoise":9349,"ĠKevin":9350,"Ġtransit":9351,"roduct":9352,"Ġconserv":9353,"esch":9354,"1967":9355,"Ġtried":9356,"Ġaccurate":9357,"ĠBus":9358,"Ġthousands":9359,"ĠRyan":9360,"ĠLove":9361,"ĠMI":9362,"Ġraise":9363,"inate":9364,"Ġelections":9365,"ĠUpper":9366,"Ġgraduate":9367,"ĠKat":9368,"GRAM":9369,"ĠLic":9370,"Ġ165":9371,"ĠArthur":9372,"essions":9373,"Some":9374,"opher":9375,"Ġspot":9376,"Ġchart":9377,"OF":9378,"Ġ**":9379,"ANE":9380,"Det":9381,"oven":9382,"Ġassessed":9383,"INGTON":9384,"ede":9385,"eries":9386,"ĠMach":9387,"Ġlaid":9388,"ĠRI":9389,"Ġobligation":9390,"rue":9391,"ĠFa":9392,"mas":9393,"Ġbear":9394,"ĠOwn":9395,"303":9396,"ĠBest":9397,"Ġnu":9398,"ĠAnthony":9399,"Ġlicens":9400,"ĠCho":9401,"Ġoutcome":9402,"Ġdiff":9403,"ĠProced":9404,"Ġstages":9405,"\";":9406,"emet":9407,"rates":9408,"Ġ210":9409,"Ġassert":9410,"Ġstatistical":9411,"ĠAttorney":9412,"Ġimposed":9413,"DD":9414,"ĠLam":9415,"ournament":9416,"ĠMunicipal":9417,"Ġbeaut":9418,"esse":9419,"ailing":9420,"ĠShip":9421,"Ġrig":9422,"ĠIntroduction":9423,"Ġelimin":9424,"ĠMaj":9425,"Ġ220":9426,"ln":9427,"rition":9428,"Ġbuy":9429,"Ġplate":9430,"ĠIncome":9431,"ĠCat":9432,"ĠTour":9433,"Ġ1933":9434,"Ġtwice":9435,"ĠNic":9436,"ĠToronto":9437,"Ġfinancing":9438,"venth":9439,"ĠMonitor":9440,"ĠProvisional":9441,"Ġreaction":9442,"ENN":9443,"ĠEstim":9444,"Ġyellow":9445,"ĠLas":9446,"ĠThompson":9447,"MG":9448,"Ġrapidly":9449,"MON":9450,"ĠCt":9451,"Ġdeposits":9452,"prises":9453,"ĠKr":9454,"ĠFederation":9455,"Ġ190":9456,"allas":9457,"Ġreserve":9458,"Ġdomain":9459,"ĠBRO":9460,"239":9461,"Ġjudicial":9462,"Ġrevised":9463,"Ġreserved":9464,"omic":9465,"Ġhab":9466,"Ġinteraction":9467,"Ġdiverse":9468,"Ġpure":9469,"Ġevident":9470,"ĠAmong":9471,"290":9472,"Ġexem":9473,"Ġhyd":9474,"ĠSCHOOL":9475,"ading":9476,"urers":9477,"edia":9478,"zed":9479,"olly":9480,"coming":9481,"Ġshot":9482,"oca":9483,"STITUENCY":9484,"Ġ240":9485,"ULL":9486,"ECD":9487,"actory":9488,"Ġclause":9489,"Ġ147":9490,"WK":9491,"iced":9492,"ITS":9493,"ANA":9494,"Ġappointment":9495,"ĠMED":9496,"ĠText":9497,"Ġ1935":9498,"ĠLiter":9499,"dist":9500,"aro":9501,"Ġ149":9502,"ĠGulf":9503,"arse":9504,"Ġseeking":9505,"ĠPrivate":9506,"Go":9507,"227":9508,"illery":9509,"olds":9510,"ALS":9511,"Ġprivile":9512,"Ġdipl":9513,"Ġemphasis":9514,"She":9515,"214":9516,"Ġ225":9517,"Ġreceip":9518,"HP":9519,"Ġstability":9520,"Ġdedicated":9521,"VIEW":9522,"Ġdemonstrate":9523,"aran":9524,"Ġperfect":9525,"Ġgran":9526,"ĠTam":9527,"name":9528,"ĠLegal":9529,"Ġadopt":9530,"ĠAgain":9531,"cu":9532,"Ġindustries":9533,"Ġstorm":9534,"eva":9535,"Ġleaving":9536,"osph":9537,"employment":9538,"Ġexperiments":9539,"PN":9540,"Ġfear":9541,"Ġprevention":9542,"Ġton":9543,"ĠTrad":9544,"007":9545,"ĠYour":9546,"Ġbil":9547,"ĠDrug":9548,"ĠSpeaker":9549,"ĠUsing":9550,"dep":9551,"International":9552,"EZ":9553,"ĠRisk":9554,"Ġfishing":9555,"Ġ1934":9556,"ĠPrice":9557,"ĠModern":9558,"FK":9559,"ĠFROM":9560,"Ġapart":9561,"ustain":9562,"1966":9563,"Gold":9564,"__|":9565,"ulsion":9566,"HG":9567,"ĠReform":9568,"estone":9569,"fred":9570,"Ġpresents":9571,"Ġstrict":9572,"Ġsich":9573,"Ġsaying":9574,"gt":9575,"ĠAmb":9576,"Ġcompetitive":9577,"Ġassistant":9578,"Ġindicators":9579,"Ġderiv":9580,"Ġshel":9581,"237":9582,"Ġdelle":9583,"ĠBrig":9584,"ĠImpact":9585,"rait":9586,"esp":9587,"Ġconcepts":9588,"-------":9589,"Ġcoordination":9590,"Ġmatrix":9591,"Ġ142":9592,"ĠHoll":9593,"Ġmaps":9594,"Ġcomply":9595,"dem":9596,"ypes":9597,"Ġdeclar":9598,"AMES":9599,"Ġimplications":9600,"las":9601,"htm":9602,"Ġconcentrations":9603,"ecticut":9604,"wealth":9605,"Ġnd":9606,"Ġthousand":9607,"ĠSenator":9608,"ĠApplic":9609,"City":9610,"Ġlinked":9611,"ĠReference":9612,"estival":9613,"ĠWright":9614,"HAR":9615,"page":9616,"itro":9617,"Ġagriculture":9618,"irs":9619,"omorph":9620,"Ġfat":9621,"vy":9622,"ĠTa":9623,"ĠNich":9624,"opt":9625,"Ġ146":9626,"ĠNotre":9627,"quis":9628,"endar":9629,"ĠSud":9630,"Ġalcohol":9631,"attery":9632,"ĠMARK":9633,"two":9634,"Ġdeemed":9635,"ĠStrategy":9636,"agh":9637,"Ġpassing":9638,"Ġsolar":9639,"Ġblue":9640,"\"'":9641,"ĠMemorial":9642,"she":9643,"otte":9644,"ĠMorris":9645,"Ġoccupied":9646,"OMIN":9647,"Ġparking":9648,"ĠPanel":9649,"Ġpit":9650,"cal":9651,"ITA":9652,"Ġdefault":9653,"eenth":9654,"ĠREJECTED":9655,"Ġneighborhood":9656,"holder":9657,"Ġsavings":9658,"ĠLouisiana":9659,"Ġfalse":9660,"uous":9661,"ĠOt":9662,"Ġci":9663,"lder":9664,"ĠWhit":9665,"Ġ1024":9666,"Ġ.................":9667,"Ġpurchased":9668,"oda":9669,"ĠArgent":9670,"Ġexcellent":9671,"LI":9672,"Ġmining":9673,"Ġinspection":9674,"FP":9675,"Ġciv":9676,"ĠImm":9677,"Ġ()":9678,"Ġ205":9679,"ĠStar":9680,"Ġbay":9681,"ĠLetter":9682,"ĠIncre":9683,"ĠRevival":9684,"Ġsomeone":9685,"249":9686,"olecular":9687,"Ġrepresenting":9688,"overning":9689,"ĠXX":9690,"Ġgenerate":9691,"YA":9692,"owed":9693,"Ġsel":9694,"ĠOntario":9695,"Sen":9696,"ĠIndustrial":9697,"ĠBased":9698,"ĠExchange":9699,"Ġlies":9700,"ĠFram":9701,"rica":9702,"KE":9703,"acks":9704,"Ġassumptions":9705,"ydney":9706,"oga":9707,"Ġnort":9708,"cut":9709,"fa":9710,"ĠPartn":9711,"Ġdischarge":9712,"ĠSeason":9713,"Ġalb":9714,"Ġrational":9715,"January":9716,"Ġsuccessfully":9717,"ADA":9718,"Ġring":9719,"hibit":9720,"Ġ1918":9721,"Ġsupplies":9722,"fig":9723,"Ġwidth":9724,"enders":9725,"Ġstands":9726,"Vessel":9727,"chaft":9728,"Ġdecade":9729,"Ġdeaths":9730,"ILLE":9731,"eals":9732,"attalion":9733,"ĠSf":9734,"Ġnomin":9735,"Ġ________________":9736,"Ġtrav":9737,"ĠCAP":9738,"Ġ1928":9739,"role":9740,"302":9741,"ez":9742,"IVERS":9743,"zeichen":9744,"Ġjour":9745,"Ġearned":9746,"308":9747,"ĠElectric":9748,"Ġoral":9749,"Ġabsor":9750,"Ġcab":9751,"ĠSamuel":9752,"ĠBAR":9753,"ifts":9754,"ĠNW":9755,"Ġresearchers":9756,"omatic":9757,"School":9758,"Ġgap":9759,"HL":9760,"ĠRelig":9761,"hard":9762,"0018":9763,"????":9764,"Ġestablishing":9765,"Ġpassage":9766,"Ġpiece":9767,"ĠAntonio":9768,"ipping":9769,"public":9770,"Ġintegrity":9771,"Ġlayer":9772,"ĠSTREET":9773,"Ġcenters":9774,"Ġelsewhere":9775,"Ġorganisations":9776,"Ġtransp":9777,"Ġdepending":9778,"Ġ1919":9779,"ĠPhot":9780,"My":9781,"Ġeine":9782,"Ġlinks":9783,"ĠMaria":9784,"244":9785,"ĠSERVICE":9786,"phy":9787,"iful":9788,"September":9789,"Ġfill":9790,"ĠCooper":9791,"Ġparameter":9792,"alla":9793,"1960":9794,"ĠDistribution":9795,"247":9796,"ĠAdvisory":9797,"Ġremark":9798,"ĠEND":9799,"Ġconstitutional":9800,"Ġtechnique":9801,"216":9802,"lington":9803,"Ġprogramming":9804,"had":9805,"ĠInsurance":9806,"ĠAVE":9807,"Ġexperts":9808,"dis":9809,"idal":9810,"ĠFish":9811,"265":9812,"Ġfi":9813,"306":9814,"Ġdepends":9815,"Ġintervention":9816,"oro":9817,"erick":9818,"imen":9819,"286":9820,"Ġvoice":9821,"Ġcommonly":9822,"253":9823,"hol":9824,"Ġremove":9825,"aturday":9826,"ĠSci":9827,"ĠWalker":9828,"ĠDick":9829,"idos":9830,"cn":9831,"VEL":9832,"Ġresident":9833,"Ġthin":9834,"248":9835,"osion":9836,"Ġdiscussions":9837,"Ġrecording":9838,"ardo":9839,"ĠHan":9840,"285":9841,"Ġ148":9842,"atial":9843,"Ġthinking":9844,"urred":9845,"Ġfunctional":9846,"ĠPhase":9847,"ĠChampionship":9848,"Ġminister":9849,"ĠIndones":9850,"missions":9851,"ĠPrimary":9852,"254":9853,"ĠMcG":9854,"ĠNetherlands":9855,"320":9856,"Ġfinished":9857,"elli":9858,"ĠLast":9859,"ĠBenef":9860,"IER":9861,"emi":9862,"Ġhusband":9863,"Ġinches":9864,"fi":9865,"Ġnations":9866,"Ġprescribed":9867,"Ġcollaboration":9868,"itarian":9869,"Ġrequiring":9870,"Ġincorporated":9871,"anto":9872,"apes":9873,"emetery":9874,"Ġprelim":9875,"Ġheav":9876,"Ġram":9877,"utenant":9878,"ĠSunday":9879,"ĠFri":9880,"Ġmaintaining":9881,"ontal":9882,"TION":9883,"enna":9884,"Ġexpense":9885,"Ġcolon":9886,"Ġ151":9887,"ĠRose":9888,"ĠDrive":9889,"Ġevaluate":9890,"Ġvisited":9891,"Ġclaimed":9892,"word":9893,"ĠSweden":9894,"Ġpolitics":9895,"agen":9896,"ĠAnne":9897,"FD":9898,"STEM":9899,"375":9900,"ĠVictoria":9901,"Ġpreceding":9902,"Ġng":9903,"August":9904,"itionally":9905,"ĠRobinson":9906,"Rich":9907,"ĠMR":9908,"Ġparte":9909,"Ġele":9910,"November":9911,"achment":9912,"Ġcontents":9913,"Bar":9914,"rett":9915,"Ġthank":9916,"246":9917,"VD":9918,"icular":9919,"241":9920,"1965":9921,"Ġinitiative":9922,"kk":9923,"Ġwithdraw":9924,"Ġvegetation":9925,"Ġinnovation":9926,"Ġprominent":9927,"sur":9928,"Ġsubsequently":9929,"STR":9930,"Ġvaluable":9931,"otton":9932,"eree":9933,"agon":9934,"ILE":9935,"Ġabandon":9936,"ĠItalian":9937,"Ġinterface":9938,"qual":9939,"ĠCB":9940,"weight":9941,"Ġ1929":9942,"elles":9943,"Ġmine":9944,"ĠWho":9945,"ĠWILL":9946,"ĠAustin":9947,"Ġlimitations":9948,"Ġexamine":9949,"ĠCultural":9950,"Ġcampus":9951,"Ġpu":9952,"hire":9953,"Ġreferences":9954,"307":9955,"Ġ153":9956,"243":9957,"iente":9958,"Ġchannels":9959,"Ġcrimes":9960,"PG":9961,"atever":9962,"ounded":9963,"Ġmillions":9964,"Af":9965,"ayette":9966,"Ġcensus":9967,"aha":9968,"oved":9969,"have":9970,"Ġpromotion":9971,"through":9972,"race":9973,"abet":9974,"áĨ":9975,"ĠEsp":9976,"armac":9977,"ictions":9978,"Ġmilit":9979,"hematical":9980,"mn":9981,"Ġdirectors":9982,"ĠOL":9983,"imo":9984,"Ġ185":9985,"YL":9986,"ĠCS":9987,"entes":9988,"olph":9989,"ĠImprove":9990,"gage":9991,"ĠSac":9992,"ĠQueen":9993,"Ġnovel":9994,"Ġextract":9995,"Ġdocumentation":9996,"Ġreality":9997,"rar":9998,"ĠJoh":9999,"Ġtaught":10000,"ĠVALID":10001,"AI":10002,"012":10003,"Ġarmy":10004,"Ġthereof":10005,"seud":10006,"ahl":10007,"Ġmovements":10008,"ĠBulletin":10009,"ICES":10010,"ĠHamilton":10011,"ĠâĢĺ":10012,"ivated":10013,"Ġreflected":10014,"Ġreplace":10015,"Ġstopp":10016,"bn":10017,"Ġgovernance":10018,"ĠPresent":10019,"Pol":10020,"teenth":10021,"Long":10022,"ĠAlaska":10023,"ĠSB":10024,"ĠPlease":10025,"ĠCaptain":10026,"ĠPas":10027,"ented":10028,"obe":10029,"Ġspecimens":10030,"October":10031,"ĠDave":10032,"government":10033,"Ġ157":10034,"Ġstored":10035,"ĠOil":10036,"anches":10037,"dd":10038,"ĠMort":10039,"hren":10040,"ĠKy":10041,"Ġversus":10042,"ĠCleveland":10043,"Ġthreshold":10044,"NEW":10045,"Ġpossession":10046,"pled":10047,"POS":10048,"ĠBaltimore":10049,"Ġtail":10050,"218":10051,"tica":10052,"Ġsharing":10053,"apped":10054,"Ġprofile":10055,"ignment":10056,"ĠEB":10057,"Ġsymbol":10058,"Ġsympt":10059,"Ġ195":10060,"Ġonto":10061,"OE":10062,"alli":10063,"Ġconst":10064,")/":10065,"Class":10066,"Ġcertificate":10067,"ĠDB":10068,"Ġ202":10069,"ĠAIR":10070,"arged":10071,"Ġtempor":10072,"este":10073,"Ġ1925":10074,"Ġinspect":10075,"specific":10076,"Ġhighlight":10077,"Ġconstraints":10078,"ĠGib":10079,"onde":10080,"ĠBou":10081,"ĠTurkey":10082,"Ġrow":10083,"Ġnormally":10084,"Ġmissions":10085,"ITT":10086,"ĠRaj":10087,"1000":10088,"ĠCra":10089,"Ġlowest":10090,"GIN":10091,"Ġconsidering":10092,"ĠEvaluation":10093,"ĠInvestment":10094,"Europe":10095,"ĠCommercial":10096,"Ġscores":10097,"ĠStew":10098,"ublin":10099,"Ġadoption":10100,"ĠHR":10101,"008":10102,"Ant":10103,"ĠPhysics":10104,"aki":10105,"Ġwelfare":10106,"Ġarms":10107,"ĠWorks":10108,"Ġtrading":10109,"Ġminority":10110,"ĠManual":10111,"ĠAdditional":10112,"ĠCook":10113,"egu":10114,"urement":10115,"ĠDakota":10116,"Ġmales":10117,"Notes":10118,"nia":10119,"ĠKnow":10120,"iu":10121,"309":10122,"ĠOtt":10123,"lementation":10124,"Ġprovince":10125,"ĠFord":10126,"Ġfemales":10127,"Fl":10128,"Ġvital":10129,"gest":10130,"enza":10131,"Ġopposition":10132,"isons":10133,"ĠLincoln":10134,"Ġchance":10135,"Ġpublications":10136,"ĠNever":10137,"Ġconventional":10138,"266":10139,"Ġinvolves":10140,"Ġpurs":10141,"ĠSUMMARY":10142,"nik":10143,"ilation":10144,"Ġ152":10145,"Ġplays":10146,"ĠIntelligence":10147,"ĠPittsburgh":10148,"ĠDemocratic":10149,"$$":10150,"Ġtroops":10151,"Ġeverything":10152,"mic":10153,"ĠRate":10154,"Ġdriver":10155,"WW":10156,"ETT":10157,"Ġcatch":10158,"Ġaccuracy":10159,"ĠRom":10160,"607":10161,"Ġprinted":10162,"ĠThose":10163,"Ġ1917":10164,"Ġdin":10165,"unately":10166,"ĠVictor":10167,"Ġ156":10168,"Ġsignals":10169,"raine":10170,"Ġ................................................................................................................................":10171,"264":10172,"Ġadding":10173,"Ġradiation":10174,"NG":10175,"ITIES":10176,"Ġ212":10177,"umns":10178,"Ġrooms":10179,"ĠBU":10180,"ĠFuture":10181,"ĠPhill":10182,"wy":10183,"ĠPatrick":10184,"ĠFranklin":10185,"Ġ164":10186,"Leg":10187,"ĠCredit":10188,"Ġschemes":10189,"Ġvice":10190,"ĠFO":10191,"prov":10192,"550":10193,"Ġcolle":10194,"CHAPTER":10195,"Ġprepare":10196,"ĠGER":10197,"Ġorganisation":10198,"Ġstar":10199,"Ġ1914":10200,"Ġdepartments":10201,"Char":10202,"Ġstriking":10203,"ĠWrit":10204,"217":10205,"ĠLabour":10206,"rub":10207,"258":10208,"Ġsubstance":10209,"NI":10210,"flow":10211,"Ġends":10212,"ĠTerrit":10213,"Ġassembly":10214,"310":10215,"Ġvast":10216,"uar":10217,"Ġrect":10218,"ĠEditor":10219,"ĠNelson":10220,"Ġcoe":10221,"ĠTurn":10222,"opulation":10223,"linary":10224,"Ġcogn":10225,"ĠArchives":10226,"Ġstatutory":10227,"Ġrs":10228,"Ġcircuit":10229,"Current":10230,"Ġcomposed":10231,"oren":10232,"David":10233,"Ġmoral":10234,"Ġ1926":10235,"heastern":10236,"zech":10237,"eft":10238,"Ġ167":10239,"zz":10240,"World":10241,"best":10242,"Ġconfiguration":10243,"Ġbattle":10244,"reedom":10245,"ĠDouglas":10246,"ĠMale":10247,"ĠIndeed":10248,"ĠHoly":10249,"brid":10250,"OCI":10251,"Ġinstallation":10252,"Ġ159":10253,"Ġtables":10254,"ĠEPA":10255,"Ġpreval":10256,"Ġroles":10257,"Ġpension":10258,"Ġsubsidi":10259,"ĠPARK":10260,"Del":10261,"rod":10262,"ĠEt":10263,"free":10264,"Ġfarmers":10265,"inar":10266,"Ġargued":10267,"Ġpowerful":10268,"Ġ(.":10269,"Ġreserves":10270,"ĠUSC":10271,"UTION":10272,"ĠAnnex":10273,"242":10274,"Ġ154":10275,"Ġdrain":10276,"Ġequation":10277,"ĠRow":10278,"URN":10279,"grade":10280,"izer":10281,"otional":10282,"Ġburden":10283,"Miss":10284,"405":10285,"ĠEmploy":10286,"Ġsensitive":10287,"ĠCape":10288,"appro":10289,"ĠJesus":10290,"range":10291,"Ġmessages":10292,"Ġideal":10293,"Ġ1924":10294,"273":10295,"Ġlegit":10296,"Ġeye":10297,"adr":10298,"ĠAth":10299,"Ġparticipating":10300,"223":10301,"idades":10302,"Ġ1932":10303,"Ġdesire":10304,"Program":10305,"Ġacknowled":10306,"ĠPAT":10307,"Ġgenus":10308,"Ġcapture":10309,"ĠPeriod":10310,"ENG":10311,"Ġachie":10312,"ĠRichmond":10313,"rh":10314,"Ġmist":10315,"ĠDur":10316,"sl":10317,"295":10318,"Ġhazard":10319,"ĠĠĠĠĠĠĠĠĠĠĠĠĊ":10320,"ĠET":10321,"were":10322,"heric":10323,"orand":10324,"ĠStadium":10325,"irements":10326,"Ġmel":10327,"onday":10328,"ĠPrograms":10329,"Ġfunded":10330,"Port":10331,"ifi":10332,"WE":10333,"Ġoffering":10334,"Ġmerc":10335,"aho":10336,"Ġoe":10337,"ĠJane":10338,"278":10339,"ĠOnce":10340,"Ġartists":10341,"Ġgenetic":10342,"259":10343,"RD":10344,"boro":10345,"ĠWildlife":10346,"osc":10347,"ĠFall":10348,"Ġvector":10349,"Ġol":10350,"agan":10351,"Ġquantity":10352,"ĠAer":10353,"Ġarts":10354,"ĠBol":10355,"Ġorganic":10356,"Ġenviron":10357,"Ġimpossible":10358,"London":10359,"Ġfewer":10360,"ags":10361,"his":10362,"602":10363,"spe":10364,"ĠCole":10365,"Ġfamiliar":10366,"ĠIF":10367,"ĠValue":10368,"Ġroot":10369,"ĠPortug":10370,"Ġinject":10371,"ĠRegulation":10372,"Ġordinary":10373,"uda":10374,"Ïģ":10375,"009":10376,"urches":10377,"Ġexperimental":10378,"___|":10379,"650":10380,"Ġassemb":10381,"ĠCup":10382,"Ġextreme":10383,"cre":10384,"ĠClimate":10385,"ĠFer":10386,"Ġseparated":10387,"Ref":10388,"ĠJuan":10389,"Ġearnings":10390,"Ġrecommendation":10391,"Ġprefer":10392,"zione":10393,"lad":10394,"Ġtoxic":10395,"ĠMas":10396,"ĠRepublican":10397,"ĠDean":10398,"aca":10399,"Ġexactly":10400,"ĠBasin":10401,"aby":10402,"269":10403,"Ġacting":10404,"Ġmais":10405,"ownt":10406,"Ġtrained":10407,"Ġaccused":10408,"ĠDetroit":10409,"Ġ158":10410,"hent":10411,"Ġsuit":10412,"276":10413,"Ġdifficulties":10414,"pects":10415,"Ġalla":10416,"Ġencounter":10417,"Ġarray":10418,"antly":10419,"uto":10420,"OY":10421,"Sal":10422,"Ġtrip":10423,"ĠMedal":10424,"ĠMun":10425,"Ġallocation":10426,"Ġimplementing":10427,"Ġsoldiers":10428,"Work":10429,"ĠCust":10430,"Ġmouth":10431,"second":10432,"Ġthreats":10433,"icity":10434,"UX":10435,"ĠBand":10436,"Ġsubsid":10437,"288":10438,"engers":10439,"rable":10440,"Ġsubstantially":10441,"ĠRevenue":10442,"Key":10443,"illance":10444,"Ġfoss":10445,"iri":10446,"plete":10447,"Ġ1921":10448,"Ġscheduled":10449,"Ġutility":10450,"015":10451,"Ġensuring":10452,"quatic":10453,"Ġ1927":10454,"ĠUCLA":10455,"ĠCareer":10456,"Ġgreatly":10457,"White":10458,"Ġfeas":10459,"ĠPun":10460,"Ġrevealed":10461,"Ms":10462,"299":10463,"Ġshoot":10464,"Ġgather":10465,"Ġprojected":10466,"named":10467,"ĠOk":10468,"ĠSoci":10469,"GY":10470,"Ġ168":10471,"Ġao":10472,"Ġpointed":10473,"ycl":10474,"251":10475,"Ġ1923":10476,"ĠPros":10477,"Ġjoin":10478,"257":10479,"ĠTele":10480,"ĠFront":10481,"ĠWel":10482,"Ġrecognize":10483,"mento":10484,"Ġexpenditures":10485,"area":10486,"BN":10487,"Ġthereby":10488,"Ġ169":10489,"Ġ1931":10490,"rection":10491,"ologists":10492,"BU":10493,"ĠCoordin":10494,"ĠMatthe":10495,"ĠYEAR":10496,"ajo":10497,"Ġdesired":10498,"ĠREL":10499,"Ġwider":10500,"Ġ163":10501,"tered":10502,"Ġ188":10503,"Ġza":10504,"rik":10505,"Ġtranslation":10506,"ĠDA":10507,"ĠCAL":10508,"Ġstakeholders":10509,"Ġdiscretion":10510,"cap":10511,"ancer":10512,"Ġwerden":10513,"Continued":10514,"ortion":10515,"rus":10516,"dy":10517,"eterans":10518,"mid":10519,"Ġaudience":10520,"ĠProduction":10521,"imento":10522,"leans":10523,"pread":10524,"ĠJam":10525,"LL":10526,"Ġinitially":10527,"ĠRight":10528,"KA":10529,"WV":10530,"ĠMes":10531,"Ġillegal":10532,"access":10533,"ĠQueens":10534,"inth":10535,"first":10536,"Ġapparently":10537,"Ġwire":10538,"Ïħ":10539,"Ġwarrant":10540,"Ġdiscovered":10541,"Ġgi":10542,"ospitals":10543,"Ġhier":10544,"Ġconstitu":10545,"azioni":10546,"Ġnos":10547,"inburgh":10548,"ilia":10549,"Ġwatch":10550,"Ġ230":10551,"Ġja":10552,"Ġacceptable":10553,"Ġ162":10554,"ĠNuclear":10555,"ograp":10556,"Ġecosystem":10557,"Ġencouraged":10558,"neg":10559,"letic":10560,"ERED":10561,"Ġarguments":10562,"ĠObserv":10563,"Ġ350":10564,"auk":10565,"Ġpreliminary":10566,"dam":10567,"Ġinh":10568,"267":10569,"ĠCas":10570,"Ġdynamic":10571,"ĠNav":10572,"ĠDNA":10573,"enter":10574,"252":10575,"Ġrepair":10576,"Ġexplanation":10577,"Gra":10578,"Ġreflects":10579,"ĠIndependent":10580,"Ġradi":10581,"ĠMorgan":10582,"Lab":10583,"ĠQU":10584,"Ġ(-":10585,"Ġmerely":10586,"ĠSwitzerland":10587,"ĠCampbell":10588,"287":10589,"380":10590,"ĠPERCENT":10591,"ĠPrinceton":10592,"261":10593,"fall":10594,"ĠJenn":10595,"Ġseemed":10596,"itivity":10597,"268":10598,"orne":10599,"ĠObject":10600,"idespread":10601,"endent":10602,"omes":10603,"ĠIssue":10604,"Ġevaluated":10605,"onz":10606,"NT":10607,"iatric":10608,"263":10609,"Ð´":10610,"Ġ161":10611,"Ġgall":10612,"Ġelim":10613,"Ġobservation":10614,"Ġstreets":10615,"Ġupdated":10616,"Ġhardware":10617,"ĠShort":10618,"219":10619,"original":10620,"ĠPortland":10621,"Ġcapac":10622,"Ġtip":10623,"Ġpassenger":10624,"bay":10625,"Ġban":10626,"Since":10627,"ĠSingh":10628,"pring":10629,"athe":10630,"Ġampl":10631,"ĠLower":10632,"about":10633,"Ġpret":10634,"ĠResidence":10635,"craft":10636,"ĠPeace":10637,"Ġnewly":10638,"ĠMerc":10639,"Ġceleb":10640,"ĠReports":10641,"ĠAfghanistan":10642,"shore":10643,"Department":10644,"weet":10645,"277":10646,"ref":10647,"Ġcontemporary":10648,"CI":10649,"ATIVE":10650,"Ġroutes":10651,"leges":10652,"Born":10653,"being":10654,"ĠMand":10655,"Ġeyes":10656,"!!!!":10657,"014":10658,"Ġ....................":10659,"Ġcivilian":10660,"ORN":10661,"ĠSeattle":10662,"ombre":10663,"rip":10664,"del":10665,"Ġheritage":10666,"ĠTransit":10667,"ĠViol":10668,"ĠIniti":10669,"ometric":10670,"ĠCru":10671,"ĠRepresentative":10672,"ĠBuild":10673,"ĠZe":10674,"Ġcopyright":10675,"ĠNative":10676,"ĠLang":10677,"Pat":10678,"ĠHop":10679,"Ġ215":10680,"Ret":10681,"Christ":10682,"Ġharvest":10683,"Ġ}":10684,"Ġlisting":10685,"Ġtick":10686,"icide":10687,"orandum":10688,"ĠCir":10689,"folio":10690,"ĠAirport":10691,"ĠParent":10692,"verseas":10693,"bean":10694,"Ġopposite":10695,";;":10696,"ridor":10697,"acon":10698,"Ġhence":10699,"ATS":10700,"Ġclients":10701,"Paul":10702,"Ġshell":10703,"Ġdefe":10704,"1111":10705,"Federal":10706,"Ġsou":10707,"emen":10708,"ĠMN":10709,"Ġregarded":10710,"Ġdealing":10711,"DB":10712,"Ġpray":10713,"Ġaccum":10714,"ĠNation":10715,"ĠIM":10716,"Ġvig":10717,"274":10718,"eme":10719,"ĠHonor":10720,"Jack":10721,"ĠBart":10722,"Ġfilled":10723,"REC":10724,"athy":10725,"Ġ00000":10726,"Ġgest":10727,"Ġsampling":10728,"289":10729,"ĠLett":10730,"Ġdifficulty":10731,"ĠKl":10732,"eri":10733,"Ġsubd":10734,"owski":10735,"Ġanyone":10736,"ĠFrm":10737,"inning":10738,"019":10739,"ĠPack":10740,"VE":10741,"Ġcommittees":10742,"ĠFern":10743,"Ġserves":10744,"ANI":10745,"ĠFile":10746,"elve":10747,"ĠMitchell":10748,"Ġnurs":10749,"ĠLib":10750,"Black":10751,"Of":10752,"Ġamendments":10753,"ometry":10754,"Ġregularly":10755,"Ġmail":10756,"Ġforests":10757,"hus":10758,"Ġinterviews":10759,"Ġaffairs":10760,"Ġ1915":10761,"Ġreliable":10762,"last":10763,"Ġdemands":10764,"Ġsimult":10765,"ĠEvans":10766,"ĠDISTRICT":10767,"Ġintensity":10768,"Ġfacing":10769,"-_":10770,"ĠBull":10771,"esty":10772,"ĠFmt":10773,"ulating":10774,"279":10775,"ĠCommun":10776,"ĠJkt":10777,"ĠConnecticut":10778,"pi":10779,"Ġadmitted":10780,"Ġconstitute":10781,"Ġmanagers":10782,"EMBER":10783,"016":10784,"angle":10785,"ĠSfmt":10786,"SECT":10787,"ĠLLC":10788,"atabase":10789,"ridges":10790,"nut":10791,"alia":10792,"ĠTun":10793,"ovo":10794,"Ġimprison":10795,"Ġcurrency":10796,"anon":10797,"Ġmustered":10798,".(":10799,"Age":10800,"ruction":10801,"ĠWes":10802,"ĠDelhi":10803,"ĠJOHN":10804,"Ġcovering":10805,"Ġintellectual":10806,"VerDate":10807,"Ġ1861":10808,"Ġphone":10809,"Ġtropical":10810,"Ġprime":10811,"Ġdecide":10812,"ĠBapt":10813,"ĠTY":10814,"ĠGordon":10815,"Sim":10816,"Ġ700":10817,"Sur":10818,"habilitation":10819,"340":10820,"lett":10821,"Phil":10822,"ĠBarbara":10823,"ĠFI":10824,"ailand":10825,"ĠYouth":10826,"DRA":10827,"agues":10828,"Ġevening":10829,"auc":10830,"Ġaz":10831,"ampion":10832,"Ġsubt":10833,"Ġran":10834,"Ġdecreased":10835,"GP":10836,"Ġscenario":10837,"Ġsediment":10838,"while":10839,"Ġ1922":10840,"Ġtoler":10841,"inus":10842,"Ġannually":10843,"Ġinvestigations":10844,"Red":10845,"Ġmanual":10846,"rollment":10847,"Ð¼":10848,"olas":10849,"ĠLO":10850,"tage":10851,"Ġunus":10852,"Two":10853,"ĠAdam":10854,"isi":10855,"ĠPrincipal":10856,"ĠTA":10857,"ĠOrleans":10858,"Ġmigration":10859,"Ġindicating":10860,"adequ":10861,"Ġrailroad":10862,"ĠMove":10863,"Ġmonthly":10864,"Ġsmooth":10865,"urric":10866,"ETTE":10867,"ĠDefence":10868,"MENTS":10869,"ICO":10870,"FORD":10871,"Ġforecast":10872,"Ġbegins":10873,"ĠLearning":10874,"Ġ1912":10875,"Ġâ":10876,"Ġinitiated":10877,"only":10878,"also":10879,"ĠRecommend":10880,"ĠStatistical":10881,"Ġterminal":10882,"ĠTournament":10883,"294":10884,"298":10885,"Women":10886,"ĠESP":10887,"ĠAreas":10888,"Ġsuperior":10889,"Ġlaunched":10890,"imensional":10891,"lock":10892,"013":10893,"!\"":10894,"ĠPra":10895,"rovers":10896,"rif":10897,"Ġobs":10898,"Ġangle":10899,"using":10900,"Ġdetection":10901,"Ġbio":10902,"ussion":10903,"Ġgun":10904,"ĠĠĠĠĠĠĠĠĠ":10905,"Ġcompos":10906,"Ġnel":10907,"amples":10908,"Ġsatellite":10909,"BALL":10910,"stan":10911,"Green":10912,"aman":10913,"ĠScientific":10914,"Copyright":10915,"Ġtank":10916,"Ġarrangement":10917,"Ġassociations":10918,"Ġdoors":10919,"TX":10920,"Ġcharacteristic":10921,"ĠSeveral":10922,"iden":10923,"iste":10924,"Ġtherapy":10925,"ĠGary":10926,"370":10927,"1964":10928,"emic":10929,"Ġll":10930,"Ġ235":10931,"itter":10932,"four":10933,"xy":10934,"ĠColomb":10935,"lick":10936,"Ġ176":10937,"Mal":10938,"anne":10939,"ĠCompar":10940,"Ġbis":10941,"utation":10942,"Ġdiameter":10943,"ĠMathematics":10944,"ĠSK":10945,"ccin":10946,"Prov":10947,"Che":10948,"Ġstead":10949,"Ġnach":10950,"Let":10951,"ĠDEC":10952,"ĠKelly":10953,"inea":10954,"iten":10955,"More":10956,"aft":10957,"ĠCincinnati":10958,"Ġ166":10959,"ĠYet":10960,"NN":10961,"\").":10962,"anga":10963,"Ġgod":10964,"Ġsave":10965,"VAL":10966,"ĠCriminal":10967,"Ġsupplement":10968,"Ġvotes":10969,"rowd":10970,"Ġemployer":10971,"ĠNAME":10972,"who":10973,"orem":10974,"atin":10975,"rome":10976,"James":10977,"Ġ197":10978,"Ġimmig":10979,"nr":10980,"Ġchampions":10981,"idel":10982,"ĠHas":10983,"Sil":10984,"Ġprisoners":10985,"Ġproducing":10986,"burn":10987,"Ġturb":10988,"uble":10989,"ĠRussell":10990,"Texas":10991,"ea":10992,"Project":10993,"Ġallocated":10994,"keley":10995,"Ġhandling":10996,"Ġremote":10997,"lia":10998,"Men":10999,"Ġrecognised":11000,"fs":11001,"apore":11002,"ĠBeg":11003,"Bel":11004,"Ġscientists":11005,"ĠCommonwealth":11006,"ĠMi":11007,"night":11008,"Ġ177":11009,"Ġeveryone":11010,"-(":11011,"uta":11012,"Ġaccessible":11013,"Ġinclusion":11014,"ĠSydney":11015,"ighth":11016,"ĠSound":11017,"Ġtar":11018,"Ġcollective":11019,"ĠPoly":11020,"ĠSprings":11021,"ĠAssociate":11022,"Ġocean":11023,"ĠDI":11024,"Ġgrid":11025,"umulative":11026,"imiento":11027,"Ġaddresses":11028,"owell":11029,"paragraph":11030,"SY":11031,"Ġpron":11032,"arget":11033,"Profess":11034,"ĠHAR":11035,"issa":11036,"293":11037,"eyer":11038,"================================":11039,"ĠGiven":11040,"ĠApplication":11041,"Ġmissing":11042,"actors":11043,"bas":11044,"Ġassessments":11045,"Ġequally":11046,"Ġdisposal":11047,"296":11048,"Ġtun":11049,"Ġinterval":11050,"ĠNaz":11051,"Ġpatent":11052,"Ġproductivity":11053,"283":11054,"illo":11055,"ĠDal":11056,"Ġindependence":11057,"ĠVehic":11058,"ĠDonald":11059,"onel":11060,"Ġseasons":11061,"Ġplain":11062,"President":11063,"building":11064,"Ġbin":11065,"ĠChen":11066,"Ġ..............":11067,"Ġcold":11068,"ĠBooks":11069,"ĠRelated":11070,"oked":11071,"272":11072,"ski":11073,"Ġdil":11074,"262":11075,"Ġretirement":11076,"EF":11077,"ĠAdministrative":11078,"Ġ173":11079,"ĠFle":11080,"child":11081,"ffici":11082,"continued":11083,"Ġdefendant":11084,"ĠRank":11085,"Ġkinds":11086,"thletics":11087,"ashion":11088,"Ġinterpre":11089,"Ġfruit":11090,"Ġuniversities":11091,"RAL":11092,"odge":11093,"Ġhappened":11094,"335":11095,"ĠCollection":11096,"ĠBron":11097,"Ġtons":11098,"Ġrating":11099,"Ġ211":11100,"THER":11101,"Ġ.....":11102,"Ġexpertise":11103,"365":11104,"ĠVietnam":11105,"ĠPs":11106,"space":11107,"ĠRUS":11108,"Ġdeposit":11109,"Ġcars":11110,"vas":11111,"ĠĠĠĠĠĠĠĠĠĠ":11112,"ISE":11113,"Ġ270":11114,"REP":11115,"Ġposts":11116,"pic":11117,"ned":11118,"ĠSel":11119,"'\"":11120,"Ġplane":11121,"Ġseat":11122,"XV":11123,"War":11124,"Ġtact":11125,"Ġartist":11126,"ĠRegistration":11127,"Air":11128,"ĠTemple":11129,"ĠARE":11130,"asures":11131,"Ġstatute":11132,"Ġeen":11133,"uerto":11134,"ĠPrime":11135,"ĠHold":11136,"Ġconnections":11137,"LB":11138,"Ġdeliber":11139,"390":11140,"ĠRap":11141,"istence":11142,"how":11143,"ĠNick":11144,"QG":11145,"pay":11146,"WLRQ":11147,"Ġuncertainty":11148,"Ġul":11149,"Ġexped":11150,"Ġnewspaper":11151,"than":11152,"Ġentries":11153,"irection":11154,"Ġdriven":11155,"ĠWEST":11156,"Elect":11157,"ĠGround":11158,"report":11159,"iso":11160,"inition":11161,"Ġpartial":11162,"That":11163,"iot":11164,"Fore":11165,"lades":11166,"ĠDraft":11167,"ĠYale":11168,"281":11169,"Ġpresum":11170,"Ġ1890":11171,"292":11172,"ĠCommerce":11173,"1950":11174,"arth":11175,"post":11176,"Ġdriving":11177,"ISTER":11178,"claim":11179,"pol":11180,"Ġ179":11181,"Ġsatisfied":11182,"Ġformula":11183,"284":11184,"Ġillness":11185,"oses":11186,"ONS":11187,"018":11188,"Ġ________":11189,"Ġmurder":11190,"ĠErn":11191,"ĠGrowth":11192,"334":11193,"Ġseparation":11194,"Ġentering":11195,"ĠWD":11196,"ĠCulture":11197,"unting":11198,"Ġdors":11199,"ĠAtlanta":11200,"ĠRB":11201,"Ġ203":11202,"ineteenth":11203,"ĠTask":11204,"Ġbench":11205,"Ġconsolidated":11206,"run":11207,"FORMATION":11208,"ĠEmergency":11209,"ivi":11210,"Ġinstances":11211,"iday":11212,"eda":11213,"Ġtrials":11214,"Ġcette":11215,"ĠWE":11216,"ĠBruce":11217,"Ġthirty":11218,"die":11219,"ĠCharacter":11220,"iodiversity":11221,"ĠHarry":11222,"AIR":11223,"Ġshed":11224,"Ġawards":11225,"ĠLect":11226,"Ġ174":11227,"anied":11228,"ikh":11229,"ĠMaur":11230,"Ġassumption":11231,"Water":11232,"Ġcolumns":11233,"Ġrain":11234,"Ġenhanced":11235,"Ġces":11236,"ĠWas":11237,"282":11238,"aeological":11239,"ĠOw":11240,"borne":11241,"Ġlatest":11242,"fish":11243,"REG":11244,"away":11245,"Ġsurpr":11246,"Ġzur":11247,"ĠCM":11248,"Ġmeets":11249,"Ġprosecut":11250,"ĠLess":11251,"ĠAdams":11252,"Ġrom":11253,"ivan":11254,"Ġrecover":11255,"Ġgains":11256,"ĠFif":11257,"Ġmedicine":11258,"een":11259,"Ġvisitors":11260,"However":11261,"ĠSimon":11262,"ĠOfficial":11263,"angel":11264,"atum":11265,"Ġpreferred":11266,"ront":11267,"anti":11268,"Service":11269,"sign":11270,"330":11271,"Exp":11272,"ĠHug":11273,"Ġ1916":11274,"ĠTai":11275,"gun":11276,"Ġarchitectural":11277,"ĠPublishing":11278,"ĠBad":11279,"Central":11280,"Ġusage":11281,"ĠSilver":11282,"Ġconsiderations":11283,"Ġachievement":11284,"Ill":11285,"ĠBrun":11286,"297":11287,"Dem":11288,"Ġusual":11289,"ERT":11290,"likely":11291,"Ġ171":11292,"ĠBot":11293,"ĠBehav":11294,"Ġadvertising":11295,"ĠIA":11296,"Ġabsent":11297,"esta":11298,"iah":11299,"ĠBaker":11300,"CB":11301,"stic":11302,"ĠPE":11303,"ĠMadison":11304,"ĠKos":11305,"Ġinner":11306,"Sr":11307,"ĠDaily":11308,"Ġidentifying":11309,"aci":11310,"Ġancient":11311,"Ġbonds":11312,"ĠOP":11313,"lov":11314,"040":11315,"Ġbrain":11316,"271":11317,"Ġopposed":11318,"ĠProble":11319,"Place":11320,"Ġdeux":11321,"ĠPapers":11322,"ULTS":11323,"Ġimpair":11324,"Ġprompt":11325,"Ġkeeping":11326,"Ġvillages":11327,"Ġages":11328,"Ġwur":11329,"Ġcong":11330,"Ġ178":11331,"Ġdir":11332,"ĠSimilarly":11333,"ija":11334,"336":11335,"ĠEuro":11336,"ugar":11337,"alis":11338,"there":11339,"ieg":11340,"Ġtrig":11341,"ighter":11342,"Ġfairly":11343,"Ġdwelling":11344,"LAR":11345,"Ġ172":11346,"Ġmacro":11347,"Ġrub":11348,"Ġlooked":11349,"uburn":11350,"Ġidentical":11351,"lers":11352,"iang":11353,"Ġvessels":11354,",,,,":11355,"utical":11356,"ĠTreasury":11357,"ĠMagn":11358,"Ġmic":11359,"ĠWKH":11360,"iop":11361,"ĠVin":11362,"512":11363,"elect":11364,"ĠAch":11365,"Ġpropri":11366,"ogene":11367,"angular":11368,"UNG":11369,"Ġhop":11370,"VOTES":11371,"Ġboys":11372,"regular":11373,"Ġfer":11374,"Post":11375,"OLOGY":11376,"1962":11377,"ĠNM":11378,"Ġcomparable":11379,"Ġprocessor":11380,"unicipality":11381,"Ġ1913":11382,"Ġauch":11383,"ĠGP":11384,"ĠGree":11385,"ĠForum":11386,"alph":11387,"ĠNGO":11388,"ĠLAW":11389,"Ġwidespread":11390,"idth":11391,"Ġgone":11392,"291":11393,"Ġlease":11394,"sten":11395,"uts":11396,"amps":11397,"Ġpackage":11398,"Ġay":11399,"ocene":11400,"017":11401,"ĠEmployment":11402,"Ġclock":11403,"ĠBAS":11404,"ĠMAT":11405,"mitt":11406,"kan":11407,"456":11408,"Ġprovider":11409,"IPS":11410,"national":11411,"ega":11412,"ĠJay":11413,"ĠParties":11414,"sor":11415,"ĠCentury":11416,"ÏĤ":11417,"ĠCANDID":11418,"ĠTrack":11419,"sequently":11420,"BERT":11421,"Ġfo":11422,"ĠHisp":11423,"iary":11424,"oning":11425,"ĠRick":11426,"ĠDublin":11427,"Ġprohibited":11428,"ewer":11429,"ĠStone":11430,"ĠOpt":11431,"Ġskin":11432,"Ġ1862":11433,"WKH":11434,"WC":11435,"ĠDespite":11436,"Po":11437,"ulu":11438,"Ġcorrespondence":11439,"Ġreb":11440,"Ġdismiss":11441,"inch":11442,"Ġincl":11443,"Ġpropag":11444,"Ġexecuted":11445,"rafts":11446,"Ġdefinitions":11447,"ĠOperating":11448,"ĠChem":11449,"eu":11450,"Game":11451,"Ġships":11452,"Ġsie":11453,"Ġelectrical":11454,"ĠHend":11455,"town":11456,"ĠTRA":11457,"RIB":11458,"Ġdistinction":11459,"ierra":11460,"Ġsupplied":11461,"aded":11462,"Ġfol":11463,"vals":11464,"Ġorientation":11465,"Ġbroken":11466,"Ġemerging":11467,"Ġabsolute":11468,"Ġdenied":11469,"Ġvulnerable":11470,"ĠBan":11471,"Mart":11472,"rot":11473,"Arch":11474,"Ġdetect":11475,"icin":11476,"ĠHad":11477,"Ġperforming":11478,"ĠBuck":11479,"itial":11480,"quer":11481,"Ġahead":11482,"ĠES":11483,"ĠClear":11484,"idade":11485,"Ġmerch":11486,"Ġfifth":11487,"Ġmas":11488,"Ġelectron":11489,"Ġrid":11490,"etch":11491,"Ġdoub":11492,"ĠAbout":11493,"ocket":11494,"COL":11495,"ĠAssistance":11496,"Ġconsisting":11497,"Ġ189":11498,"ĠToday":11499,"Ġsalt":11500,"Ġultimately":11501,"Ġrevolution":11502,"Ġcovers":11503,"rient":11504,"ãĤ":11505,"onomy":11506,"ĠPoints":11507,"1963":11508,"TABLE":11509,"ĠRange":11510,"irable":11511,"Ġmarginal":11512,"ocity":11513,"Lo":11514,"entieth":11515,"Sign":11516,"ĠBuff":11517,"Ġ187":11518,"nen":11519,"ono":11520,"RR":11521,"ĠMaterials":11522,"Ġbask":11523,"Ġ183":11524,"Ġmemb":11525,"ulatory":11526,"OME":11527,"Ġperpet":11528,"ucle":11529,"char":11530,"Ġvoc":11531,"box":11532,"agg":11533,"ĠRoc":11534,"Ġses":11535,"ĠVII":11536,"Percent":11537,"Ġdocumented":11538,"ĠAvg":11539,"LO":11540,"ĠNaval":11541,"Ġmathematics":11542,"ĠFalls":11543,"ĠTony":11544,"325":11545,"ERC":11546,"ĠKennedy":11547,"TP":11548,"ĠSYSTEM":11549,"NUMBER":11550,"ĠTurk":11551,"pire":11552,"Ġcomplexity":11553,"344":11554,"Ġdent":11555,"Ġlocally":11556,"Ġpasses":11557,"Ġsoph":11558,"355":11559,"ÌĬ":11560,"ĠWAR":11561,"Ġdoctor":11562,"Ġeuro":11563,"pus":11564,"ĠSector":11565,"312":11566,"čĠĠčĠĠčĠĠčĠĠčĠĠčĠĠčĠĠčĠĠ":11567,"oured":11568,"Ġ1864":11569,"Ġanterior":11570,"ĠJunior":11571,"rise":11572,"349":11573,"Ġvacc":11574,"Ġretained":11575,"itime":11576,"Ġjudges":11577,"ouch":11578,"ĠMurray":11579,"uras":11580,"ĠTar":11581,"Ġrocks":11582,"Ġgram":11583,"Ġcurriculum":11584,"ĠPap":11585,"abling":11586,"enson":11587,"Ġho":11588,"ĠTy":11589,"Ġmarks":11590,"Ġtowns":11591,"ĠResponse":11592,"aternal":11593,"Ġib":11594,"Ġsleep":11595,"Ġtemperatures":11596,"ĠWhy":11597,"Head":11598,"amine":11599,"Techn":11600,"novation":11601,"Ġstrike":11602,"ĠTs":11603,"Ġsoft":11604,"Ġ1880":11605,"ĠSAN":11606,"JO":11607,"315":11608,"\"\"\"\"":11609,"385":11610,"ĠSTATES":11611,"inian":11612,"Ġleaf":11613,"ije":11614,"ĠCore":11615,"ophys":11616,"Ġregardless":11617,"ĠANN":11618,"ĠGolden":11619,"roke":11620,"ĠSin":11621,"ARTMENT":11622,"Ġ260":11623,"Ġ194":11624,"ener":11625,"ĠProvince":11626,"case":11627,"ĠCITY":11628,"ĠWarren":11629,"Ġvisits":11630,"ĠTob":11631,"Ġextending":11632,"ĠCommunication":11633,"ĠBoy":11634,"Ġsemi":11635,"Ġadjustment":11636,"ĠNam":11637,"Ġreviews":11638,"tu":11639,"ĠTraffic":11640,"Ġfounded":11641,"Ġscored":11642,"Ġ.......":11643,"Ġcouple":11644,"Ġseconds":11645,"unc":11646,"WY":11647,"ĠHawaii":11648,"Ġ204":11649,"Ġreasonably":11650,"=\"":11651,"ĠAle":11652,"Ġegg":11653,"Ġpm":11654,"ĠAlan":11655,"ĠEnc":11656,"Ġcompat":11657,"Ġ181":11658,"ĠPle":11659,"348":11660,"bourne":11661,"imming":11662,"Ġsud":11663,"ĠPos":11664,"stud":11665,"338":11666,"Dan":11667,"Ġ208":11668,"Ġoffset":11669,"ĠLaure":11670,"inces":11671,"Ġ191":11672,"ĠOperation":11673,"Ev":11674,"ogether":11675,"####":11676,"ĠTER":11677,"Ġviewed":11678,"Ġwarning":11679,"Ġtil":11680,"Ġapplying":11681,"ĠSab":11682,"311":11683,"Land":11684,"Ġpollution":11685,"ĠSport":11686,"inae":11687,"ĠEle":11688,"Ġworker":11689,"NM":11690,"Code":11691,"ĠBishop":11692,"Ġexcluded":11693,"roleum":11694,"cz":11695,"ocrat":11696,"ĠCompl":11697,"ĠMean":11698,"Ġdedu":11699,"ĠPast":11700,"ĠPhysical":11701,"050":11702,"Ġgrew":11703,"Ġtied":11704,"ĠAlt":11705,"Ġsegments":11706,"anton":11707,"tery":11708,"ĠPhilos":11709,"1961":11710,"ĠNOMIN":11711,"enez":11712,"aneously":11713,"Ġ196":11714,"ĠWayne":11715,"Ġconsequence":11716,"auer":11717,"Ġatmosphere":11718,"ĠProgress":11719,"ĠEin":11720,"Ġessentially":11721,"Ġcerem":11722,"ologie":11723,"Ġmethodology":11724,"ĠIndians":11725,"isted":11726,"Ġfraction":11727,"ITAL":11728,"Ġsterreich":11729,"ĠLl":11730,"itan":11731,"Ġsnow":11732,"Ġtestimony":11733,"Ġneutral":11734,"issue":11735,"system":11736,"ARI":11737,"Rem":11738,"337":11739,"ĠUR":11740,"Ġpriorities":11741,"omon":11742,"five":11743,"ĠConserv":11744,"erion":11745,"Ġ1908":11746,"Ġhyper":11747,"tha":11748,"ĠSuperv":11749,"Ġbien":11750,"etta":11751,"Ġasc":11752,"Ġzones":11753,"Ġaw":11754,"audi":11755,"oples":11756,"Ġpermits":11757,"ĠCe":11758,"Ġengagement":11759,"present":11760,"DG":11761,"Ġcontinuation":11762,"accept":11763,"Ġ245":11764,"Ġteach":11765,"Mo":11766,"Ġchim":11767,"Ġautor":11768,"Ġcodes":11769,"ĠSex":11770,"foot":11771,"Ġtort":11772,"Ġtouchdown":11773,"Group":11774,"406":11775,"Primary":11776,"Ġ301":11777,"ĠPROGRAM":11778,"PV":11779,"CAP":11780,"adow":11781,"ĠPERCENTAGE":11782,"ĠInterview":11783,"LIN":11784,"SCH":11785,"Ġov":11786,"illar":11787,"ĠDenver":11788,"Ġ213":11789,"may":11790,"ĠRat":11791,"Ġ186":11792,"overe":11793,"ĠChemical":11794,"Ġbow":11795,"urst":11796,"Ġdestroyed":11797,"ĠPhilippines":11798,"Ġadjusted":11799,"acer":11800,"Ġinequ":11801,"Local":11802,"Ġracial":11803,"ĠFunds":11804,"339":11805,"Ġsessions":11806,"ĠStrategic":11807,"ygen":11808,"Ġbasin":11809,"rio":11810,"ĠFaculty":11811,"HH":11812,"Special":11813,"rut":11814,"404":11815,"GAN":11816,"ĠMIL":11817,"Ġ184":11818,"ĠHence":11819,"402":11820,"Ġ.........":11821,"throp":11822,"................................................................................................................................":11823,"CAN":11824,"ĠElementary":11825,"Ġko":11826,"plan":11827,"oding":11828,"grad":11829,"ĠIndonesia":11830,"ĠBasic":11831,"667":11832,"ĠNeed":11833,"Ġcomplaint":11834,"orus":11835,"ĠOT":11836,"Ġ182":11837,"ĠĠĠĠĠĠĠĠĠĠĠ":11838,"Ġstreams":11839,"Ġsymptoms":11840,"âĢľ":11841,"314":11842,"Ġupdate":11843,"Ber":11844,"Ġvolumes":11845,"udson":11846,"313":11847,"ĠEvidence":11848,"References":11849,"ĠNevada":11850,"Ġviolations":11851,"Ġaddressing":11852,"Ġtab":11853,"Ġconclusions":11854,"acht":11855,"Ġconverted":11856,"ĠDallas":11857,"ĠAh":11858,"Ġvessel":11859,".''":11860,"var":11861,"Ġbid":11862,"444":11863,"phis":11864,"Si":11865,"emp":11866,"ethe":11867,"ĠAus":11868,"Ġcrucial":11869,"Ġ206":11870,"ilib":11871,"Ġguarantee":11872,"orous":11873,"Ġpremium":11874,"ĠCarter":11875,"Ġconvey":11876,"ĠAz":11877,"ĠAUG":11878,"Ġcentres":11879,"February":11880,"Ġfut":11881,"Ġ207":11882,"Ġislands":11883,"ĠCoal":11884,"rium":11885,"Ġexclus":11886,"Ġuniversal":11887,"Ġ192":11888,"arest":11889,"Bas":11890,"ĠRoll":11891,"Ġdrawing":11892,"ĠBrother":11893,"Ġ----":11894,"Form":11895,"'-":11896,"ĠAgricultural":11897,"ourt":11898,"Ð¸Ñ":11899,"Ġaimed":11900,"410":11901,"etry":11902,"ĠGrade":11903,"Ġ193":11904,"anche":11905,"Ġpromoting":11906,"Ġtopics":11907,"ĠInterest":11908,"ĠBM":11909,"ĠFM":11910,"Ġindicator":11911,"Ġthorough":11912,"Ġfaced":11913,"Ġgained":11914,"eni":11915,"850":11916,"via":11917,"Ġthermal":11918,"ĠChile":11919,"ariat":11920,"iple":11921,"ĠCer":11922,"ĠNUMBER":11923,"ĠOK":11924,"Ġfeedback":11925,"332":11926,"abad":11927,"fund":11928,"fo":11929,"House":11930,"Ġvor":11931,"Ġsurvival":11932,"FH":11933,"Ġ280":11934,"ĠSong":11935,"Ġcontrary":11936,"ĠMir":11937,"TRSECT":11938,"TRSECTN":11939,"Ġmountain":11940,"Ġspectrum":11941,"rpt":11942,"Ġlake":11943,"published":11944,"nan":11945,"Jun":11946,"ipher":11947,"mson":11948,"Ġ224":11949,"auf":11950,"Ġnamely":11951,"program":11952,"Bi":11953,"ĠDeut":11954,"Ġenvironments":11955,"forced":11956,"331":11957,"Ġpredomin":11958,"ĠPoland":11959,"ĠDid":11960,"Ġeconomies":11961,"Ġcurve":11962,"Ġoffense":11963,"Ġleur":11964,"Box":11965,"Ġfabric":11966,"ĠJason":11967,"ĠOverall":11968,"ĠMalays":11969,"Ġintegral":11970,"advant":11971,"Ġlateral":11972,"data":11973,"Ġ255":11974,"Ġfinite":11975,"ĠPsychology":11976,"346":11977,"ĠLocation":11978,"raction":11979,"Ġthreatened":11980,"ĠConnection":11981,"Ġaggress":11982,"illan":11983,"Vi":11984,"vit":11985,"ĠBetween":11986,"ĠTreaty":11987,"Ġdisclosure":11988,"ĠStewart":11989,"AMA":11990,"POR":11991,"Ġseparately":11992,"owntown":11993,"FIELD":11994,"sim":11995,"ĠEUR":11996,"Ġcaptured":11997,"Ġfrequent":11998,"stable":11999,"Ġprofessionals":12000,"ĠIssues":12001,"Ġsupervis":12002,"408":12003,"Ġaggregate":12004,"Ġconstitution":12005,"ivit":12006,"obby":12007,"Educ":12008,"ĠRome":12009,"Ġrobust":12010,"Ġcommod":12011,"HT":12012,"asta":12013,"Ġtransformation":12014,"Ġdup":12015,"agu":12016,"Ġ(+":12017,"etime":12018,"ĠWithin":12019,"ĠNorthwestern":12020,"ĠMechan":12021,"455":12022,"sche":12023,"ĠCHAR":12024,"Ġwage":12025,"Ġperceived":12026,"Ġlanding":12027,"ĠSalt":12028,"Ġemail":12029,"fram":12030,"364":12031,"ampa":12032,"366":12033,"ĠRivers":12034,"Ġ1911":12035,"ĠFun":12036,"ĠSV":12037,"ĠEdinburgh":12038,"Ġrecruit":12039,"total":12040,"leton":12041,"Ïĥ":12042,"Ġphotographs":12043,"Ġspecify":12044,"ĠMISS":12045,"Ġ217":12046,"Ben":12047,"Ġbaseline":12048,"Ġdimensions":12049,"Ġbroader":12050,"ologic":12051,"Robert":12052,"nee":12053,"Ġplot":12054,"Ġattitude":12055,"Ġcoin":12056,"ĠDigital":12057,"alm":12058,"profit":12059,"357":12060,"Ġwildlife":12061,"Ġwhatever":12062,"_____":12063,"cers":12064,"Ġattempted":12065,"%),":12066,"Ġhorizontal":12067,"Ġhabitats":12068,"othy":12069,"stration":12070,"Met":12071,"istically":12072,"Old":12073,"ĠTol":12074,"Ġ2020":12075,"Ġcharacterized":12076,"umni":12077,"Ġ..................":12078,"essed":12079,"ĠEvents":12080,"Ġinteractions":12081,"Ġfault":12082,"409":12083,"INTER":12084,"Ġshore":12085,"ĠLOC":12086,"Ġdecor":12087,"fficiency":12088,"Spec":12089,"aines":12090,"gate":12091,"ingly":12092,"anchester":12093,"Dis":12094,"Ġminute":12095,"annon":12096,"Ġ1865":12097,"Ġpieces":12098,"HM":12099,"Pass":12100,"Ġfilter":12101,"1958":12102,"Ġcorporation":12103,"ACC":12104,"eto":12105,"NJ":12106,"wich":12107,"ishers":12108,"Ġcable":12109,"Ġoccurring":12110,"eor":12111,"Law":12112,"rack":12113,"ĠOECD":12114,"Donald":12115,"ĠThailand":12116,"ugg":12117,"ĠZone":12118,"fortunately":12119,"Ġmanus":12120,"ĠARPT":12121,"Ġbei":12122,"Care":12123,"Ġ1863":12124,"/.":12125,"atherine":12126,"Ġaccompany":12127,"Ġgoverning":12128,"uela":12129,"bridge":12130,"Ġhealthy":12131,"Late":12132,"AU":12133,"Ġcommander":12134,"Ġchairman":12135,"Ġcreat":12136,"ĠFT":12137,"ĠGab":12138,"Ġdal":12139,"upp":12140,"ahn":12141,"rost":12142,"ulus":12143,"Ġoccasion":12144,"ressive":12145,"isto":12146,"techn":12147,"Ġabroad":12148,"sterreich":12149,"ushed":12150,"edge":12151,"ĠUl":12152,"ĠEstabl":12153,"Ġhelping":12154,"ĠRespons":12155,"ĠProtocol":12156,"Ġvariations":12157,"yers":12158,"Ġinvas":12159,"Ġscene":12160,"called":12161,"igo":12162,"407":12163,"FIG":12164,"Ġesta":12165,"ischer":12166,"Ġcha":12167,"Ġarising":12168,"Ġcarefully":12169,"Mail":12170,"Introduction":12171,"century":12172,"Ġcontributing":12173,"ennial":12174,"Smith":12175,"ĠGuidelines":12176,"ĠMT":12177,"IJ":12178,"Ġalternatives":12179,"ĠHISTOR":12180,"ĠBuddh":12181,"Ġfly":12182,"Ġfinds":12183,"enden":12184,"Ġstarts":12185,"Ġdisk":12186,"Ġ209":12187,"ĠPractice":12188,"ĠMars":12189,"Ġdestruction":12190,"GU":12191,"Ġentertain":12192,"ĠNash":12193,"Ġmeters":12194,"ĠJob":12195,"Design":12196,"ERAGE":12197,"nement":12198,"ĠNORTH":12199,"Ġisolated":12200,"ĠSAL":12201,"ĠCzech":12202,"AVE":12203,"Ġsind":12204,"ĠPhilip":12205,"Ġintention":12206,"ĠDIS":12207,"Ġpairs":12208,"ĠDia":12209,"KS":12210,"ĠBernard":12211,"Ġvoluntary":12212,"idas":12213,"Ġprotocol":12214,"ĠDU":12215,"Ġtall":12216,"aser":12217,"aja":12218,"atz":12219,"ĠReserved":12220,"Ġcollections":12221,"Ġ1906":12222,"atories":12223,"604":12224,"ĠINFORMATION":12225,"ĠVOT":12226,"anka":12227,"ĠFive":12228,"ĠItem":12229,"FW":12230,"Ġdegrad":12231,"ĠEdwards":12232,"Ġ1909":12233,"Ġparticipated":12234,"Ġcards":12235,"ĠDise":12236,"ĠParks":12237,"Ġtheoretical":12238,"obl":12239,"Ġaccompanied":12240,"ĠRice":12241,"Ġdc":12242,"Ġouter":12243,"Ġboards":12244,"Ġpayable":12245,"ĠChristopher":12246,"orse":12247,"loss":12248,"ouses":12249,"ĠSustain":12250,"Ġranges":12251,"ĠStructure":12252,"mad":12253,"ĠHaz":12254,"haust":12255,"Ke":12256,"Ġenterprise":12257,"Ġmedian":12258,"iar":12259,"Ġbanking":12260,"Ġextends":12261,"ĠPear":12262,"Ġ216":12263,"esh":12264,"ĠFollowing":12265,"Ġsocio":12266,"sson":12267,"Ġmoderate":12268,"Ġ1907":12269,"ILD":12270,"403":12271,"354":12272,"ĠSquare":12273,"ĠPil":12274,"Ġpump":12275,"IRST":12276,"UNTING":12277,"Ġconsiders":12278,"AMIL":12279,"Annual":12280,"arms":12281,"ĠAli":12282,"ĠCatal":12283,"inda":12284,"Ġdominant":12285,"Ġinvestors":12286,"Ġhumans":12287,"ĠDelaware":12288,"rl":12289,"Ġdeclined":12290,"Ġcoh":12291,"OVE":12292,"Ġtackles":12293,"ĠRG":12294,"Ġreaching":12295,"Ġposterior":12296,"1945":12297,"Ġconscious":12298,"Ġ........................":12299,"ĠUND":12300,"inery":12301,"Ġ214":12302,"Ġbrack":12303,"345":12304,"610":12305,"vd":12306,"icing":12307,"Yr":12308,"index":12309,"hatt":12310,"ĠTN":12311,"ĠFemale":12312,"Ġ256":12313,"Ġbranches":12314,"Ġyounger":12315,"ZE":12316,"ĠNut":12317,"Ġcrops":12318,"Ġrevers":12319,"Ġstores":12320,"ladesh":12321,"Chair":12322,"CM":12323,"eling":12324,"1959":12325,"ĠMonitoring":12326,"ETA":12327,"XQ":12328,"ĠExpress":12329,"Bill":12330,"ĠMW":12331,"Ġequality":12332,"ĠCI":12333,"ĠFox":12334,"borough":12335,"ĠQual":12336,"Ġ223":12337,"ĠSTATION":12338,"ĠYOU":12339,"Ġpartially":12340,"ĠSarah":12341,"Ġcomprom":12342,"ĠPrince":12343,"Ġkon":12344,"347":12345,"Ġhospitals":12346,"nl":12347,"ĠColonial":12348,"ĠRub":12349,"Ġcounties":12350,"Ġhal":12351,"ETER":12352,"Ġcomme":12353,"Area":12354,"Î¼":12355,"Ġsister":12356,"ĠPath":12357,"Ġdestination":12358,"DT":12359,"resp":12360,"503":12361,"Ġai":12362,"ĠWa":12363,"Ġincidents":12364,"ĠLarry":12365,"ĠActivities":12366,"_|":12367,"ĠAdvanced":12368,"radesh":12369,"ĠTok":12370,"Ġdrinking":12371,"Ġdisag":12372,"Ġheavily":12373,"asant":12374,"uted":12375,"ĠDT":12376,"ĠDeath":12377,"Ġ..........................":12378,"Ġdistinguished":12379,"Ġrestoration":12380,"Ġcalling":12381,"ĠScottish":12382,"Max":12383,"EEE":12384,"ĠRoom":12385,"liest":12386,"ĠFel":12387,"arding":12388,"gom":12389,"jamin":12390,"Ġprecip":12391,"ĠÑ":12392,"0005":12393,"Ġdesignation":12394,"EMI":12395,"505":12396,"ĠPreservation":12397,"Ġjunior":12398,"625":12399,"Ġva":12400,"ĠHotel":12401,"Ġassault":12402,"Ġ1901":12403,"ĠCounsel":12404,"Ġcertification":12405,"ilty":12406,"CLASS":12407,"ĠPS":12408,"CONSTITUENCY":12409,"ĠSaturday":12410,"ĠASC":12411,"ĠKam":12412,"317":12413,"VENT":12414,"Ġ244":12415,"395":12416,"Ġric":12417,"Rank":12418,"Ġadvoc":12419,"Ġnas":12420,"Ġphr":12421,"Up":12422,"ĠNep":12423,"342":12424,"eston":12425,"Sl":12426,"Average":12427,"Ġdur":12428,"ĠBrooklyn":12429,"Ġsystematic":12430,"number":12431,"door":12432,"368":12433,"ĠJefferson":12434,"ĠPhone":12435,"ĠAK":12436,"ĠSubject":12437,"ĠAdditionally":12438,"ASON":12439,"Ġdiagram":12440,"Ġbearing":12441,"Opp":12442,"aug":12443,"Ġanten":12444,"ĠCollect":12445,"Ġroutine":12446,"Ġelabor":12447,"ĠEmail":12448,"Ġmanaging":12449,"Ġtape":12450,"iga":12451,"Ġinflation":12452,"Ġburn":12453,"RIS":12454,"ĠFUND":12455,"Ġpartly":12456,"ĠInstead":12457,"ĠISS":12458,"ovi":12459,"Ġrej":12460,"Ġcontrovers":12461,"Ġmaxim":12462,"ĠPct":12463,"AW":12464,"Ġreliability":12465,"ĠMason":12466,"Another":12467,"NAME":12468,"ĠLock":12469,"ĠPrem":12470,"ilst":12471,"bacco":12472,"Ġtargeted":12473,"ĠMargaret":12474,"RC":12475,"OSS":12476,"353":12477,"Ġhappen":12478,"Ġaccessed":12479,"Ġmodule":12480,"STRU":12481,"Ġtourism":12482,"riev":12483,"Ġinformal":12484,"iki":12485,"racuse":12486,"orf":12487,"ĠAlberta":12488,"359":12489,"Â°":12490,"Ġion":12491,"ĠLT":12492,"uez":12493,"ymn":12494,"356":12495,"Ġfraud":12496,"Ġsettled":12497,"Ġsoils":12498,"384":12499,"605":12500,"Ġparliament":12501,"ĠGraham":12502,"Ġ275":12503,"rock":12504,"roe":12505,"ĠDept":12506,"Ġinfection":12507,"iciary":12508,"eros":12509,"edo":12510,"ĠBush":12511,"ĠShow":12512,"ctu":12513,"rien":12514,"Les":12515,"Ġcolour":12516,"Ġsolo":12517,"etz":12518,"Ġbringing":12519,"Individual":12520,"Ġbelieves":12521,"ĠPeters":12522,"Ġ1905":12523,"ĠKan":12524,"ĠSri":12525,"Ġinvited":12526,"iture":12527,"Ġtiming":12528,"343":12529,"ĠChall":12530,"ĠNig":12531,"ĠKa":12532,"Ġhuge":12533,"ĠCrown":12534,"ĠReserv":12535,"aura":12536,"iscell":12537,"Ġdimension":12538,"ĠFriday":12539,"ĠBirth":12540,"KD":12541,"ĠArgentina":12542,"ooking":12543,"ĠEss":12544,"316":12545,"vity":12546,"Ġmatches":12547,"Ġimprisonment":12548,"Ġ×":12549,"ĠUP":12550,"ĠTu":12551,"ĠRT":12552,"ductions":12553,"Ġcul":12554,"Ġ900":12555,"Ġgate":12556,"Ġvictory":12557,"ĠArn":12558,"Ġautomatically":12559,"Ġdesigns":12560,"ĠRace":12561,"Ġnode":12562,"Ġheadquarters":12563,"CAR":12564,"Ġhereby":12565,"318":12566,"Columb":12567,"ĠPradesh":12568,"ĠUE":12569,"Ġmetric":12570,"Ġimplies":12571,"Ġpreservation":12572,"bes":12573,"ĠArchitecture":12574,"Ġdisput":12575,"rupp":12576,"319":12577,"lights":12578,"ĠStra":12579,"950":12580,"ĠMAY":12581,"Ġadvers":12582,"ĠFreedom":12583,"480":12584,"Austral":12585,"Ġoder":12586,"ĠPUBLIC":12587,"Ġworldwide":12588,"Ġcreative":12589,"Ġgrown":12590,"posium":12591,"Ġ......................":12592,"ĠEducational":12593,"rating":12594,"ificial":12595,"358":12596,"Ġprofessor":12597,"Ġattendance":12598,"Ġcad":12599,"ĠAustria":12600,"ĠShare":12601,"relim":12602,"awn":12603,"ĠGill":12604,"ĠSession":12605,"Ġvend":12606,"OTT":12607,"Ġ227":12608,"Ġspend":12609,"ĠEffect":12610,"Ġii":12611,"prene":12612,"communications":12613,"Ġ265":12614,"Ġdisability":12615,"Ġ219":12616,"ĠCONS":12617,"401":12618,"Ġcredits":12619,"ĠBiology":12620,"Ġvaried":12621,"Ġsv":12622,"Ġlib":12623,"Main":12624,"Ġdurch":12625,"ruck":12626,"Ġkill":12627,"ĠZh":12628,"ellen":12629,"ĠSett":12630,"pha":12631,"Ġaffecting":12632,"wind":12633,"Ġconducting":12634,"esis":12635,"HAN":12636,"Ġtrains":12637,"ĠNar":12638,"374":12639,"fil":12640,"Ġvirtual":12641,"ĠWinter":12642,"ĠRece":12643,"ĠJosh":12644,"Ġarrival":12645,"Ġspeaking":12646,"ucin":12647,"ĠMOR":12648,"Ġpassengers":12649,"URES":12650,"Ġanticipated":12651,"Frank":12652,"Ġhypothesis":12653,"Ġnotion":12654,"Ġrising":12655,"NL":12656,"isen":12657,"Ġ226":12658,"Ġminimal":12659,"Ġmusical":12660,"606":12661,"yself":12662,"ANGE":12663,"Ġagenda":12664,"inent":12665,"Disc":12666,"Ġexpectations":12667,"1957":12668,"rolog":12669,"352":12670,"CRIP":12671,"bank":12672,"ĠEAST":12673,"Ġmagnitude":12674,"ĠManufact":12675,"Earl":12676,"ĠBattalion":12677,"adron":12678,"020":12679,"lichen":12680,"ĠSTR":12681,"Ġchronic":12682,"Ġsuffered":12683,"ĠEquipment":12684,"ulo":12685,"income":12686,"367":12687,"Ġboy":12688,"ĠStev":12689,"Ġconting":12690,"369":12691,"ĠQB":12692,"ĠEffects":12693,")*":12694,"they":12695,"615":12696,"Sup":12697,"Ġreceives":12698,"341":12699,"Ġlocality":12700,"ĠPOLLED":12701,"adequate":12702,"OSIT":12703,"rons":12704,"ĠMagazine":12705,"Coach":12706,"Ġ--------":12707,"Ġpromoted":12708,"Ġwatershed":12709,"âĢķ":12710,"ĠUpd":12711,"Ġincentives":12712,"378":12713,"ĠEdition":12714,"value":12715,"Ġspiritual":12716,"ĠCircuit":12717,"Ġaims":12718,"eno":12719,"Ġsupervision":12720,"cycl":12721,"ĠCE":12722,"orient":12723,"Ġlock":12724,"ocuments":12725,"Ġinfluenced":12726,"Her":12727,"VILLE":12728,"Ġdisplayed":12729,"Ġcompare":12730,"Ġroy":12731,"386":12732,"ibraries":12733,"ĠSummer":12734,"Big":12735,"olidated":12736,"fare":12737,"anny":12738,"ĠMuslims":12739,")--":12740,"intendent":12741,"ĠKeith":12742,"Ġ222":12743,"Ġunlikely":12744,"Ġtechnological":12745,"ĠDutch":12746,"angers":12747,"Ġbarriers":12748,"HD":12749,"ĠMaintenance":12750,"season":12751,"aq":12752,"Fe":12753,"HC":12754,"Ġoct":12755,"ĠPerm":12756,"ĠGray":12757,"ĠPRES":12758,"AKE":12759,"Ġrejected":12760,"Ġhighway":12761,"ĠInform":12762,"ĠLike":12763,"Ġintermediate":12764,"ropriate":12765,"Ġhandle":12766,"Ġwinning":12767,"ĠFell":12768,"you":12769,"Ġemission":12770,"pectives":12771,"Ġachieving":12772,"Ġcomplaints":12773,"andra":12774,"Ġtor":12775,"Ġfragment":12776,"389":12777,"Ġchlor":12778,"WEST":12779,"Ġexempt":12780,"IED":12781,"itu":12782,"Ġprotein":12783,"Ġdangerous":12784,"ogram":12785,"Ġinval":12786,"iza":12787,"Ġbases":12788,"HAM":12789,"Ġhel":12790,"Ġtract":12791,"376":12792,"Ġsig":12793,"0002":12794,"lee":12795,"Ġkit":12796,"328":12797,"NF":12798,"EMB":12799,"Ġarise":12800,"ĠPuerto":12801,"ĠChampionships":12802,"pes":12803,"Ġsecretary":12804,"Ġ221":12805,"ĠBBC":12806,"ĠMonday":12807,"Nor":12808,"Ġbays":12809,"Ġye":12810,"Ġcausing":12811,"ĠCry":12812,"NB":12813,"ostic":12814,"Ġmachines":12815,"ĠRED":12816,"440":12817,"Ġoccurrence":12818,"Ġbuffer":12819,"ĠRab":12820,"Ġexplore":12821,"ĠHeadquarters":12822,"Ġcub":12823,"family":12824,"Ġnearby":12825,"Ġassignment":12826,"Ġgam":12827,"Ġserver":12828,"Ġthr":12829,"DIST":12830,"atti":12831,"ĠBuilt":12832,"ĠTheatre":12833,"379":12834,"End":12835,"ĠChanges":12836,"ĠBaptist":12837,"Ġwages":12838,"ĠBed":12839,"Ġvoters":12840,"Ġdetermin":12841,"Ġtexts":12842,"NOW":12843,"Ġrely":12844,"609":12845,"ĠFla":12846,"ednes":12847,"ĠAlfred":12848,"Ġenabled":12849,"Ġdissem":12850,"Ġinnovative":12851,"ĠSingapore":12852,"ĠRoger":12853,"420":12854,"Calif":12855,"Health":12856,"Ġcolleagues":12857,"found":12858,"ĠHigher":12859,"ĠFourth":12860,"Ġsettings":12861,"According":12862,"rators":12863,"ĠHum":12864,"bol":12865,"None":12866,"ĠBerkeley":12867,"Ġadministered":12868,"chestra":12869,"Ġdispute":12870,"ĠCrime":12871,"ĠBroadcast":12872,"ĠMinor":12873,"ĠRequirements":12874,"Ġdog":12875,"ĠWash":12876,"Ġinventory":12877,"POL":12878,"Ġmanifest":12879,"ĠBeck":12880,"Ġtopic":12881,"oom":12882,"Ġdisorders":12883,"artz":12884,"ĠSales":12885,"Where":12886,"ĠSta":12887,"323":12888,"Ġinvestigate":12889,"DATE":12890,"HY":12891,"ĠChannel":12892,"Ġlingu":12893,"Ġdefence":12894,"Ġcro":12895,"Ġretired":12896,"Ġaos":12897,"Ġemployers":12898,"owned":12899,"Case":12900,"ieu":12901,"Ġmilk":12902,"PARTY":12903,"try":12904,"ĠFormation":12905,"Ġexclusive":12906,"Ġtobacco":12907,"Ġtownship":12908,"ĠVo":12909,"Tr":12910,"ENDIX":12911,"Ġsight":12912,"ĠCarib":12913,"388":12914,"Ġexploration":12915,"ĠHB":12916,"ĠExperiment":12917,"Ġscatter":12918,"Ġmuseum":12919,"imi":12920,"Ġsustained":12921,"NING":12922,"Ġdetected":12923,"tem":12924,"Ġempir":12925,"Ġfib":12926,"erton":12927,"ĠFrederick":12928,"Ġcitizen":12929,"ĠYards":12930,"ĠAndre":12931,"vier":12932,"Turn":12933,"estock":12934,"ĠShel":12935,"ĠNorway":12936,"ĠRs":12937,"ĠFunction":12938,"uni":12939,"note":12940,"Ġfamous":12941,"ĠGender":12942,"rigation":12943,"Ġ233":12944,"ĠInternal":12945,"EMALE":12946,"ETS":12947,"Ġ229":12948,"ĠIBM":12949,"ĠEST":12950,"ucc":12951,"ĠBenn":12952,"Econom":12953,"ĠATL":12954,"ĠRailroad":12955,"ĠOrange":12956,"ĠCraig":12957,"ĠSHE":12958,"Ġcomfort":12959,"ĠGeneva":12960,"Ġ239":12961,"achers":12962,"ĠFinland":12963,"Ġ290":12964,"ĠTan":12965,"Ġinterventions":12966,"Ġmechanical":12967,"351":12968,"ĠNacional":12969,"Ġordin":12970,"Ġphilosophy":12971,"Ġ218":12972,"mg":12973,"Ġacceptance":12974,"George":12975,"Ġbrand":12976,"ĠSoftware":12977,"Ġstabil":12978,"Ġobst":12979,"Ġdiscovery":12980,"1956":12981,"apse":12982,"ecute":12983,"ĠSelect":12984,"Ġincurred":12985,"IDENT":12986,"CONT":12987,"ĠSF":12988,"ĠRevolution":12989,"isin":12990,"Ġtom":12991,"QUE":12992,"oslav":12993,"when":12994,"];":12995,"Ġconflicts":12996,"Ġbon":12997,"Ġexch":12998,"Ġdiscount":12999,"Ġcontest":13000,"estrian":13001,"Ġindication":13002,"Ġsplit":13003,"506":13004,"ĠHamp":13005,"olving":13006,"ĠCollins":13007,"ECHN":13008,"495":13009,"Ġportfolio":13010,"Ġcloser":13011,"326":13012,"Ġreforms":13013,"Ġexterior":13014,"top":13015,"Ġviolent":13016,"Ġmutual":13017,"They":13018,"Atl":13019,"Ġactively":13020,"324":13021,"ĠRepresentatives":13022,"Ġgeographic":13023,"unct":13024,"YEAR":13025,"Ġarrested":13026,"etti":13027,"Imp":13028,"361":13029,"Ġrevision":13030,"Ġdoctrine":13031,"ĠMOD":13032,"ĠAid":13033,"xxxx":13034,"Ġej":13035,"GC":13036,"oken":13037,"ATOR":13038,"Ġending":13039,"ĠGarden":13040,"ICT":13041,"Ġoccupation":13042,"article":13043,"orms":13044,"ĠPrep":13045,"Dou":13046,"cue":13047,"377":13048,"ĠÑģ":13049,"Ġtransfers":13050,"Based":13051,"ĠVersion":13052,"616":13053,"Ġtut":13054,"ĠButler":13055,"Ġoc":13056,"Ġacute":13057,"Lou":13058,"ĠHaven":13059,"ĠIEEE":13060,"RAPH":13061,"ĠFried":13062,"415":13063,"casts":13064,"Ġtwelve":13065,"ĠLI":13066,"Ġintens":13067,"Ġpy":13068,"ĠProfessional":13069,"Ġheter":13070,"ĠScore":13071,"ïĤ":13072,"edded":13073,"Ġecological":13074,"Pa":13075,"Ġ),":13076,"ubb":13077,"apur":13078,"ĠRedu":13079,"stall":13080,"362":13081,"vor":13082,"angered":13083,"Ġlogic":13084,"Government":13085,"Ġdetermines":13086,"Mad":13087,"ĠWW":13088,"Ġdimin":13089,"endant":13090,"Ġrecru":13091,"half":13092,"VL":13093,"ĠPercentage":13094,"Ġranked":13095,"Ġ234":13096,"Ir":13097,"ERIC":13098,"Ø§":13099,"Ġtod":13100,"beit":13101,"ĠGaz":13102,"stal":13103,"erted":13104,"Ġinjuries":13105,"ĠND":13106,"ĠOUT":13107,"ĠNevertheless":13108,"ĠEver":13109,"ictionary":13110,"ĠCategory":13111,"Ship":13112,"ĠSyn":13113,"Ġhelps":13114,"ĠSTATIONS":13115,"MU":13116,"Michael":13117,"Ġdoesn":13118,"rg":13119,"iology":13120,"Ġ//":13121,"447":13122,"rov":13123,"Ġclassical":13124,"Ġath":13125,"Ġrailway":13126,"ĠKorean":13127,"ĠFather":13128,"Ġdynamics":13129,"abel":13130,"Ġexports":13131,"afayette":13132,"ĠBI":13133,"udi":13134,"Ġmn":13135,"Ġnur":13136,"Ġsituated":13137,"Ġillustrated":13138,"usc":13139,"Ġranging":13140,"Ġreadily":13141,"ĠOm":13142,"Ġcf":13143,")).":13144,"etal":13145,"ESTED":13146,"gence":13147,"Ġintroduce":13148,"327":13149,"current":13150,"ĠOS":13151,"ĠFam":13152,"ĠFiscal":13153,"lay":13154,"Ġpublicly":13155,"aille":13156,"Ġ450":13157,"ĠBorn":13158,"398":13159,"ĠWol":13160,"ĠDue":13161,"Ġannounce":13162,"Ġproxim":13163,"arges":13164,"Ġfashion":13165,"Ġunusual":13166,"Ġwear":13167,"Ġbird":13168,"strong":13169,"ĠRET":13170,"Ġ310":13171,"ĠHunt":13172,"397":13173,"Ġoutlined":13174,"Ġ1870":13175,"Ġ1904":13176,"STER":13177,"ĠClay":13178,"Ġsurfaces":13179,"ĠOd":13180,"VOT":13181,"KL":13182,"Ġincons":13183,"Ġexploitation":13184,"WOOD":13185,"Ġsubmission":13186,"Ġspoke":13187,"ZZ":13188,"ifs":13189,"kr":13190,"Ġcrossing":13191,"ĠFolder":13192,"lict":13193,"Ġscales":13194,"Ġ.............":13195,"Ġrecovered":13196,"ursday":13197,"Ġcin":13198,"ĠGlen":13199,"Ġliberal":13200,"their":13201,"aco":13202,"ĠART":13203,"Eff":13204,"Field":13205,"ĠFestival":13206,"Ġprest":13207,"Ġreceipt":13208,"Ġtermin":13209,"into":13210,"Ġ249":13211,"Ġscenarios":13212,"Results":13213,"obb":13214,"Ġtourn":13215,"ALTH":13216,"Mor":13217,"Ġattorney":13218,"file":13219,"burse":13220,"Ġchurches":13221,"387":13222,"ECTOR":13223,"Season":13224,"Ġconstru":13225,"321":13226,"ĠBible":13227,"Ġmodification":13228,"Hon":13229,"hs":13230,"Ġsul":13231,"made":13232,"ĠREV":13233,"Ġdrainage":13234,"EPT":13235,"reach":13236,"0004":13237,"ĠCu":13238,"510":13239,"Ġhol":13240,"ĠInvestig":13241,"ĠClinical":13242,"Mont":13243,"Ġ............................":13244,"nis":13245,"ĠNOR":13246,"ĠGriff":13247,"Ġsizes":13248,"Ġstem":13249,"ĠCharter":13250,"RT":13251,"IONAL":13252,"athered":13253,"ĠCFR":13254,"ARM":13255,"Ġwonder":13256,"necess":13257,"Ġairport":13258,"OTHER":13259,"asketball":13260,"letter":13261,"Ġtitles":13262,"berry":13263,"1955":13264,"irmingham":13265,"ĠOriginal":13266,"ĠSpirit":13267,"asg":13268,"ĠCash":13269,"matic":13270,"Ġlogical":13271,"Russ":13272,"381":13273,"Ġboat":13274,"gomery":13275,"ĠPor":13276,"Ġremed":13277,"Ġfighting":13278,"ĠZo":13279,"Wil":13280,"Ġtracks":13281,"ateur":13282,"399":13283,"arency":13284,"****************":13285,"rowing":13286,"ynn":13287,"Ġvit":13288,"Ġsolely":13289,"Ġprovincial":13290,"Ġspatial":13291,"Ġrefused":13292,"ĠClinton":13293,"Ġadap":13294,"Ġprs":13295,"ĠDIR":13296,"iw":13297,"rose":13298,"ĠContact":13299,"oded":13300,"iscellaneous":13301,"Ġtight":13302,"Ġcum":13303,"ĠPrinting":13304,"373":13305,"Rad":13306,"Ġ330":13307,"DES":13308,"Ġinterpreted":13309,"icio":13310,"Ġcluster":13311,"asy":13312,"Ġrose":13313,"Ġinquiry":13314,"Ġfavour":13315,"Ġgent":13316,"Thomas":13317,"Ġcapita":13318,"Ġlar":13319,"ĠContinuation":13320,"Ġ360":13321,"ROAD":13322,"tw":13323,"Ġspecification":13324,"Last":13325,"Ġmitigation":13326,"Ġsurg":13327,"Ġstruggle":13328,"FRA":13329,"ĠInspect":13330,"ĠRut":13331,"MALE":13332,"ele":13333,"Ġsurveillance":13334,"581":13335,"Ġ246":13336,"Ġstopped":13337,"Ġ320":13338,"383":13339,"Ġquot":13340,"ĠIdaho":13341,"Ġpupils":13342,"Ġconclude":13343,"Ġbreeding":13344,"Ġpreserve":13345,"Ġconvention":13346,"ĠMeasure":13347,"ensen":13348,"ĠWithout":13349,"ĠEvent":13350,"Ġintr":13351,"ĠATT":13352,"%).":13353,"ĠMB":13354,"372":13355,"Ġclubs":13356,"ĠFRA":13357,"ĠNord":13358,"Ġcorruption":13359,"-)":13360,"Ġhorse":13361,"394":13362,"ĠPartnership":13363,"information":13364,"Ġka":13365,"Ġsono":13366,"ĠCopyright":13367,"Ġ248":13368,"ESCO":13369,"represent":13370,"Ġdiscont":13371,"Ġfeeling":13372,"ĠMIT":13373,"ei":13374,"ĠCass":13375,"Ġ...................................":13376,"ĠFacility":13377,"Ġconsecutive":13378,"ĠTB":13379,"Ġinherent":13380,"okes":13381,"Ġ...........":13382,"quest":13383,"Ġ.................................":13384,"Ġhed":13385,"ĠTib":13386,"ĠPurdue":13387,"1952":13388,"ĠMills":13389,"Ġtur":13390,"odium":13391,"ĠEngineer":13392,"Den":13393,"Ġrelate":13394,"Ġinternet":13395,"Ġparas":13396,"ĠBelgium":13397,"Ġconjunction":13398,"iox":13399,"Ġstret":13400,"IVERSITY":13401,"hour":13402,"ITLE":13403,"Ġdra":13404,"PAGE":13405,"ĠXXX":13406,"stown":13407,"Ġweapon":13408,"Now":13409,"ĠNag":13410,"Location":13411,"Ġtrail":13412,"Mary":13413,"Ġradical":13414,"ĠHeart":13415,"IVISION":13416,"Ġ..................................":13417,"itar":13418,"rooms":13419,"Ġscoring":13420,"ĠMedic":13421,"HF":13422,"akt":13423,"475":13424,"ĠMd":13425,"Ġfossil":13426,"ILITY":13427,"Ġattitudes":13428,"itus":13429,"ĠJUN":13430,"ĠSOUTH":13431,"0003":13432,"ĠSpecies":13433,"ĠGoals":13434,"Ġsilver":13435,"six":13436,"Ġeds":13437,"conduct":13438,"470":13439,"Sam":13440,"Ġarranged":13441,"CANDID":13442,"ĠSaudi":13443,"ĠLot":13444,"crit":13445,"Los":13446,"orum":13447,"ĠPrim":13448,"Ġcalendar":13449,"development":13450,"Ġargue":13451,"Back":13452,"process":13453,"Ġdiscipline":13454,"JI":13455,"Ġbegun":13456,"ĠSelf":13457,"Ġvicinity":13458,"Ġwitnesses":13459,"naire":13460,"ĠRio":13461,"ĠMetropolitan":13462,"Ġprivacy":13463,"Ġ..............................":13464,"ticles":13465,"Ġearliest":13466,"Ġsufficiently":13467,"ĠPut":13468,"ĠWis":13469,"Ġcorrelation":13470,"archy":13471,"ĠBeng":13472,"Country":13473,"establ":13474,"Tim":13475,"Ġdemocratic":13476,"Ġdemocracy":13477,"URCH":13478,"Ġ232":13479,"ĠHA":13480,"say":13481,"Ġplaint":13482,"three":13483,"rc":13484,"Ġpert":13485,"Ġaccounted":13486,"Ġdefensive":13487,"ech":13488,"Ġpays":13489,"ĠDM":13490,"ĠBER":13491,"IDA":13492,"DF":13493,"ilo":13494,"withstanding":13495,"363":13496,"Ġ228":13497,"apters":13498,"ĠSusan":13499,"ČĠĊ":13500,"ĠPrevention":13501,"Ġpsychological":13502,"Ġdan":13503,"doc":13504,"thletes":13505,"Ġchrom":13506,"ienst":13507,"hill":13508,"Ġterrorist":13509,"Ġproven":13510,"ĠWILLIAM":13511,"KO":13512,"Ġattributed":13513,"ĠLarge":13514,"Ġfalls":13515,"ĠJE":13516,"ĠCorrespond":13517,"Ġsocieties":13518,"kov":13519,"Stand":13520,"Ġhem":13521,"fu":13522,"ĠHydro":13523,"Ġinsu":13524,"Ġgn":13525,"Ġmir":13526,"Ġdirections":13527,"Organ":13528,"ylogen":13529,"ĠAuburn":13530,"pool":13531,"ĠBuffalo":13532,"iac":13533,"Ġcalculation":13534,"Ġpenet":13535,"Ġnegotiations":13536,"leted":13537,"371":13538,"620":13539,"oba":13540,"ĠPhillips":13541,"Georg":13542,"lla":13543,"Ġrenewable":13544,"ĠGross":13545,"ĠMack":13546,"Ġjump":13547,"ĠBEL":13548,"ayan":13549,"pin":13550,"isely":13551,"ÌĦ":13552,"Ġmodes":13553,"425":13554,"Ġcual":13555,"NOTE":13556,"Ġvelocity":13557,"Ġmyself":13558,"382":13559,"ockey":13560,"anium":13561,"ells":13562,"Ġexplicitly":13563,"unar":13564,"Ġtransmitted":13565,"ĠJR":13566,"Ġmayor":13567,"Ġnob":13568,"ĠKarl":13569,"Ġreservoir":13570,"Ġdropped":13571,"Ġ1903":13572,"ĠSI":13573,"owing":13574,"Ġbeat":13575,"vari":13576,"opal":13577,"ĠCONTR":13578,"venile":13579,"ĠTRANS":13580,"ĠWolf":13581,"ĠVerm":13582,"ĠAlternative":13583,"DUCTION":13584,"oving":13585,"oenix":13586,"rer":13587,"Ġseats":13588,"Ġopinions":13589,"396":13590,"ĠUNITED":13591,"world":13592,"Ġroughly":13593,"Ġeiner":13594,"Ġbeautiful":13595,"lein":13596,"Ġloop":13597,"Ġeasier":13598,"Ġ.,":13599,"Ġreader":13600,"Ġgovernmental":13601,"ĠUkraine":13602,"Ital":13603,"istant":13604,"ĠRecon":13605,"1900":13606,"ĠKath":13607,"ĠÐ¿":13608,"Ġsalary":13609,"STAR":13610,"Ġ231":13611,"ĠFramework":13612,"508":13613,"IPAL":13614,"Ġdens":13615,"ĠCemetery":13616,"458":13617,"station":13618,"Ġweekly":13619,"Ġattributes":13620,"Ġfract":13621,"Ġbiom":13622,"FB":13623,"Ġautomatic":13624,"ĠFilm":13625,"Ġshop":13626,"bian":13627,"Ġreductions":13628,"Ġsciences":13629,"Ġoffensive":13630,"ÏĢ":13631,"Ġsheets":13632,"ĠReading":13633,"322":13634,"bach":13635,"ĠDATES":13636,"Bro":13637,"OVER":13638,"month":13639,"~~~~~~~~":13640,"ĠGrove":13641,"Ġpredicted":13642,"ĠLev":13643,"Ġguilty":13644,"Ġdetention":13645,"Ġdual":13646,"ĠIX":13647,"ixon":13648,"Ġclust":13649,"ordnet":13650,"ĠGram":13651,"oves":13652,"Ġsymmet":13653,"Cost":13654,"Ġok":13655,"Ġlots":13656,"ĠCY":13657,"ĠJess":13658,"Ġskill":13659,"______":13660,"ĠRC":13661,"ĠMatthew":13662,"504":13663,"ĠCRO":13664,"Ġmant":13665,"qq":13666,"ĠMichel":13667,"ĠKon":13668,"ĠGreece":13669,"iev":13670,"ordinary":13671,"ĠAwards":13672,"ĠBrief":13673,"cat":13674,"max":13675,"ĠTurner":13676,"ĠOccup":13677,"ĠTaiwan":13678,"reb":13679,"ibus":13680,"Ġprotest":13681,"520":13682,"Ġig":13683,"Ġwird":13684,"Fort":13685,"Ġmanip":13686,"Ġslope":13687,"ewater":13688,"ĠRac":13689,"ĠSalv":13690,"Ġrivers":13691,"GET":13692,"uesday":13693,"laration":13694,"uter":13695,"JA":13696,"ader":13697,"Ġspr":13698,"ancouver":13699,"509":13700,"Ġequations":13701,"Ġsatisfy":13702,"Ġmont":13703,"ĠCheck":13704,"Captain":13705,"Ġaccommodate":13706,"Ġraising":13707,"INO":13708,"448":13709,"Ġaltered":13710,"Jr":13711,"RET":13712,"460":13713,"ORLD":13714,"ĠRegistered":13715,"Ġpale":13716,"encer":13717,"ĠMayor":13718,"Ġinputs":13719,"Ġ1902":13720,"letion":13721,"Ġanalyzed":13722,"ĠTreatment":13723,"ĠOakland":13724,"\"),":13725,"Ġbud":13726,"ĠRS":13727,"Ġheads":13728,"ĠHispanic":13729,"acio":13730,"ologically":13731,"Ġquantities":13732,"idity":13733,"430":13734,"ÎĶ":13735,"ĠBangladesh":13736,"roof":13737,"Ġfilms":13738,"zn":13739,"ĠLit":13740,"Urban":13741,"Ġble":13742,"ĠPosition":13743,"Ġbinding":13744,"Low":13745,"Ent":13746,"329":13747,"Ġ...................":13748,"Ġsick":13749,"ĠEug":13750,"Ġwars":13751,"ĠMethods":13752,"ocations":13753,"VR":13754,"product":13755,"jen":13756,"501":13757,"OSE":13758,"Ġprevalence":13759,"ĠCitiz":13760,"Ġdifferential":13761,"liers":13762,"Ġmitig":13763,"ĠProjects":13764,"ĠCommander":13765,"yler":13766,"Ġconsensus":13767,"reliminary":13768,"Ġmagazine":13769,"UMAR":13770,"Ġengineer":13771,"undo":13772,"yles":13773,"ĠPOSTAL":13774,"ĠAA":13775,"ĠKo":13776,")]":13777,"ĠKir":13778,"stead":13779,"Ġsupposed":13780,"anim":13781,"412":13782,"hattan":13783,"ĠMalaysia":13784,"ĠStyle":13785,"Mrs":13786,"URS":13787,"uct":13788,"odd":13789,"ĠARM":13790,"1954":13791,"411":13792,"optera":13793,"ĠBenjamin":13794,"AMS":13795,"Ġimpairment":13796,"Ġpel":13797,"Ġoperates":13798,"Ġexcav":13799,"news":13800,"030":13801,"Ġdar":13802,"ĠCANDIDATES":13803,"ĠLIM":13804,"ednesday":13805,"Ġexpensive":13806,"Ġlikelihood":13807,"Ġcalculations":13808,"ummer":13809,"ĠTribunal":13810,"ĠHILL":13811,"ĠProducts":13812,"xico":13813,"ĠRegiment":13814,"Ġacquire":13815,"Ġbytes":13816,"454":13817,"Ġcargo":13818,"ĠJonathan":13819,"unes":13820,"Ġhundreds":13821,"ĠKR":13822,"Ġmassive":13823,"ĠLSU":13824,"Ġempt":13825,"ĠRico":13826,"Just":13827,"COUN":13828,"ril":13829,"Ġthesis":13830,"Any":13831,"odia":13832,"457":13833,"ĠBomb":13834,"Ġdeployment":13835,"ranean":13836,"rior":13837,"Ġoverseas":13838,"Ġexhaust":13839,"Ġpending":13840,"ĠGeological":13841,"Ġselling":13842,"Ma":13843,"Ġindigenous":13844,"Ġerosion":13845,"Ġsimulation":13846,"oulder":13847,"Ġpunishment":13848,"Ġflexibility":13849,"jn":13850,"ĠMig":13851,"Ġfacade":13852,"ĠNear":13853,"Ġeligibility":13854,"ĠMosc":13855,"Ġlui":13856,"STON":13857,"Ġprocurement":13858,"Ġpreparing":13859,"Aquatic":13860,"Flor":13861,"Ġcrowd":13862,"reation":13863,"Ġtamb":13864,"China":13865,"ĠLiving":13866,"Ġlessons":13867,"Ġoxygen":13868,"ĠIsraeli":13869,"Ġequipped":13870,"Ġauthent":13871,"Ġvoltage":13872,"ĠIndic":13873,"itely":13874,"ĠWatch":13875,":-":13876,"Ġchoices":13877,"CANDIDATE":13878,"Ġremainder":13879,"ĠNATIONAL":13880,"inners":13881,"fficial":13882,"ĠWesley":13883,"Ġcontractor":13884,"Ang":13885,"392":13886,"466":13887,"Ġ238":13888,"ynamic":13889,"tl":13890,"ĠDeg":13891,"itol":13892,"Ġ236":13893,"ĠTravel":13894,"Provision":13895,"Ġdeclaration":13896,"ĠMotor":13897,"ĠKenya":13898,"ĠLate":13899,"Ġbias":13900,"ĠWaters":13901,"Web":13902,"ĠCher":13903,"Ġsensitivity":13904,"ĠKil":13905,"ISA":13906,"ĠAmer":13907,"603":13908,"459":13909,"Jul":13910,"608":13911,"ĠInitiative":13912,"iae":13913,"mount":13914,"Îº":13915,"Ġportions":13916,"held":13917,"kar":13918,"Ġdrivers":13919,"Ġbulk":13920,"ĠMobile":13921,"Ġ1898":13922,"ĠSupply":13923,"Term":13924,"ului":13925,"Ġrapport":13926,"Ġobtaining":13927,"@@@@@@@@@@@@@@@@@@@@@@@@@@@@@@@@":13928,"ĠĠĠĠĠĠĠĠĠĠĠĠĠĠĠĠĠĠĠĠĠĠĠĠĠĠĠĠĠĠĠĠĠĠĠĠĠĠĠĠĠĠĠĠĠĠĠĠĠĠĠĠĠĠĠĠĠĠĠĠĠĠĠĠ":13929,"Ġpreserved":13930,"Ohio":13931,"Ġactors":13932,"liche":13933,"Ġ237":13934,"ĠAdministrator":13935,"Ġ1899":13936,"Ġrealized":13937,"803":13938,"riel":13939,"aping":13940,"ĠManchester":13941,"ĠDEPARTMENT":13942,"WP":13943,"ibl":13944,"Ġconsiderably":13945,"ĠCarlos":13946,"legiate":13947,"Ġreactions":13948,"ĠHin":13949,"Ġcolonial":13950,"Ġhybrid":13951,"Ġconfront":13952,"ativa":13953,"GM":13954,"KY":13955,"OWER":13956,"Ġwaiting":13957,"Ol":13958,"emales":13959,"ĠMarie":13960,"cost":13961,"Ġgal":13962,"ĠMAC":13963,"ĠArmed":13964,"aukee":13965,"ĠKit":13966,"English":13967,"iors":13968,"ĠINTRSECTN":13969,"Ġlicence":13970,"Ġfur":13971,"Ġfue":13972,"agle":13973,"Ġintersection":13974,"VP":13975,"ĠAbb":13976,"452":13977,"ĠInfantry":13978,"Ġinhabit":13979,"Population":13980,"ĠCorporate":13981,"school":13982,"ĠLink":13983,"ĠBarry":13984,"Winner":13985,"ramento":13986,"ĠMovement":13987,"ĠCow":13988,"1953":13989,"Ġtimely":13990,"Ġancest":13991,"Ġreceiver":13992,"iph":13993,"roductive":13994,"conf":13995,"^^":13996,"Ġspecifications":13997,"Ġ241":13998,"ĠCourse":13999,"703":14000,"ĠOfficers":14001,"ĠGran":14002,"ĠPlans":14003,"quin":14004,"ORDS":14005,"Ġdefines":14006,"ifferent":14007,"igin":14008,"rique":14009,"Ġru":14010,"ĠTrend":14011,"025":14012,"Ġnineteenth":14013,"1940":14014,"Ġdict":14015,"Ġcompounds":14016,"Ġdisadvant":14017,"Ġaug":14018,"etown":14019,"Ġpenalties":14020,"ELECTORS":14021,"pers":14022,"Ġsymbols":14023,"Ġverb":14024,"Western":14025,"Ġdistinguish":14026,"both":14027,"Ġshif":14028,"ĠJa":14029,"___|___|":14030,"nu":14031,"449":14032,"mun":14033,"enton":14034,"angible":14035,"Ġmissile":14036,"OUT":14037,"etric":14038,"Ġ-----":14039,"Ġpolar":14040,"530":14041,"Ġexceeding":14042,"Ġfait":14043,"Ġpounds":14044,"Ġfond":14045,"ĠHudson":14046,"Ġoverview":14047,"ĠUnt":14048,"Ġfails":14049,"support":14050,"anie":14051,"achelor":14052,"Ġgirl":14053,"abol":14054,"amiento":14055,"DER":14056,"Ġcoordinate":14057,"ĠHungary":14058,"avier":14059,"Ġrit":14060,"GI":14061,"502":14062,"nom":14063,"uen":14064,"ĠIsa":14065,"Ġincidence":14066,"ĠLar":14067,"alling":14068,"ĠCompetition":14069,"ogenic":14070,"ĠIMP":14071,"Ġ...............":14072,"irts":14073,"plane":14074,"Ġcenturies":14075,"Ġcaught":14076,"ĠDenmark":14077,"success":14078,"Ġcontrad":14079,"Ġraw":14080,"acle":14081,"Ġminist":14082,"esa":14083,"ĠPCT":14084,"ĠStatements":14085,"oline":14086,"ĠVic":14087,"ogo":14088,"iplinary":14089,"idden":14090,"Ġattain":14091,"Ġliable":14092,"Ġ.............................":14093,"Ġ....................................":14094,"ĠDATE":14095,"ĠComplex":14096,"ĠParker":14097,"¿½":14098,"thod":14099,"eric":14100,"Ġhair":14101,"485":14102,"press":14103,"Ġpub":14104,"Ġmobil":14105,"Ġtower":14106,"Ġwarn":14107,"Ġsiding":14108,"Ġcompens":14109,"ĠNorman":14110,"date":14111,"ĠOTHER":14112,"ellor":14113,"OVA":14114,"ĠLakes":14115,"ĠLebanon":14116,"ĠJerry":14117,"Ġ.....................":14118,"ĠChemistry":14119,"week":14120,"468":14121,"ĠCosta":14122,"ĠDAV":14123,"Ġthanks":14124,"ĠOVER":14125,"ï¿½":14126,"Many":14127,"ĠClassic":14128,"cond":14129,"unit":14130,"Ġdiscover":14131,"Ġabstract":14132,"ĠClassification":14133,"Ġeliminate":14134,"Ġ305":14135,"429":14136,"Ġacre":14137,"ĠDennis":14138,"Ġfeeding":14139,"ĠHind":14140,"ĠSecondary":14141,"andy":14142,"Ġzuge":14143,"Ġcommands":14144,"tor":14145,"portion":14146,"ĠHunter":14147,"Ġhan":14148,"ĠBab":14149,"Ġ).":14150,"ĠThor":14151,"ĠUnits":14152,"LT":14153,"Ġsteep":14154,"Ġunemployment":14155,"Ġadmission":14156,"ĠMIC":14157,"Ġclim":14158,"ĠDas":14159,"391":14160,"ĠPersonnel":14161,"omal":14162,"Ġpaint":14163,"Ġcircle":14164,"Ġfold":14165,"ĠParam":14166,"393":14167,"urus":14168,"ternoon":14169,"Ġvalley":14170,"Ġ...............................":14171,"Ġsequences":14172,"ĠInstitution":14173,"Ġtheme":14174,"Ġdisaster":14175,"AYS":14176,"ĠCharlotte":14177,"ĠArtillery":14178,"Ġmedi":14179,"auses":14180,"Ġmedic":14181,"umps":14182,"URT":14183,"Ġ.........................":14184,"Ġpremises":14185,"whe":14186,"rous":14187,"Ġfiling":14188,"Ġ...........................":14189,"ĠĠĠĠĠĠĠĠĠĠĠĠĠĊ":14190,"ARDS":14191,"CU":14192,"\":":14193,"Ġsash":14194,"Ġinserting":14195,"ĠPy":14196,"Ġ2018":14197,"France":14198,"ĠJe":14199,"shops":14200,"Ġparticles":14201,"Ġposted":14202,"ÑĢÐ°":14203,"ĠIntern":14204,"ĠPi":14205,"prot":14206,"Free":14207,"ĠReporting":14208,"Ġpregnancy":14209,"chers":14210,"ĠKaz":14211,"encias":14212,"Ġenterprises":14213,"JD":14214,"ĠLoss":14215,"course":14216,"umar":14217,"ĠSPEC":14218,"ĠONE":14219,"hibition":14220,"446":14221,"Ġproducers":14222,"ĠRailway":14223,"451":14224,"ĠLP":14225,"Ä±":14226,"ĠBud":14227,"ĠEmb":14228,"ANY":14229,"Ġstood":14230,"ako":14231,"roller":14232,"gie":14233,"ĠLaws":14234,"Ġneighbour":14235,"Ġexceptions":14236,"adt":14237,"Ġgroundwater":14238,"Ġdance":14239,"ĠSz":14240,"ĠMemphis":14241,"Ġvarying":14242,"oids":14243,"417":14244,"atu":14245,"Ġcirculation":14246,"Ġdominated":14247,"Wood":14248,"ĠChart":14249,"naissance":14250,"Ġsustainability":14251,"Ġsurprising":14252,"ĠColonel":14253,"708":14254,"BT":14255,"ĠColombia":14256,"ĠEsc":14257,"ĠLouisville":14258,"Record":14259,"Ġbacter":14260,"Ġfaster":14261,"ĠEvolution":14262,"Ġconviction":14263,"ĠEhren":14264,"erce":14265,"abitat":14266,"blica":14267,"Ġprosecution":14268,"ĠCurt":14269,"cos":14270,"Ġexclusively":14271,"Ġsafegu":14272,"direct":14273,"ĠBog":14274,"Ġcreates":14275,"ĠStanley":14276,"ĠDra":14277,"Ġinfer":14278,"ĠStruct":14279,"Ġpanels":14280,"ĠTwp":14281,"ĠApplied":14282,"ĠPV":14283,"ĠInfrastructure":14284,"dig":14285,"Ġrecreational":14286,"Ġnodes":14287,"-/":14288,"Ġtimber":14289,"KR":14290,"itate":14291,"Ġperception":14292,"Ġcir":14293,"dt":14294,"Ġexisted":14295,"ĠResolution":14296,"ĠHarrison":14297,"Ġacceler":14298,"Ġreturning":14299,"ĠEarl":14300,"Ġcamera":14301,"Jim":14302,"edar":14303,"ĠRESULTS":14304,"Ġpractition":14305,"Ġsimultaneously":14306,"Ġ\"[":14307,"Ġmonetary":14308,"Ġvirtually":14309,"ĠAcqu":14310,"him":14311,"Ġjourney":14312,"Ã¸":14313,"ĠTerry":14314,"Ġobserve":14315,"normal":14316,"Ġconfidential":14317,"619":14318,"LARATION":14319,"990":14320,"olitical":14321,"490":14322,"Ġbreast":14323,"Bur":14324,"Ġdialogue":14325,"eness":14326,"Ġphoto":14327,"Ġmapping":14328,"main":14329,"ĠMonth":14330,"egen":14331,"Ġsist":14332,"1951":14333,"Ġaccomplished":14334,"ivos":14335,"Ġsignature":14336,"||":14337,"Ġpull":14338,"Ġuma":14339,"ĠNI":14340,"Office":14341,"Ġorganizational":14342,"Ġrarely":14343,"obil":14344,"Ġterritorial":14345,"Ġoptimal":14346,"UNIC":14347,"armace":14348,"Ġds":14349,"mental":14350,"Ġlooks":14351,"enta":14352,"Mem":14353,"Ġ268":14354,"Ġya":14355,"Ġversions":14356,"ĠAffili":14357,"Ġunp":14358,"VELOP":14359,"Ġfellow":14360,"Ġ276":14361,"Sy":14362,"Ġ.......................":14363,"culo":14364,"Ġanch":14365,"ĠGonz":14366,"ĠGes":14367,"Ġcomprised":14368,"Ġcloud":14369,"oco":14370,"Ġtrace":14371,"NEY":14372,"Ġreverse":14373,"ĠFellows":14374,"Ġgradually":14375,"~.":14376,"Ġsubstances":14377,"ĠRy":14378,"Ġheading":14379,"467":14380,"adores":14381,"ĠGuinea":14382,"Ġdevoted":14383,"ĠSig":14384,"European":14385,"Ġnominal":14386,"ĠTow":14387,"ĠAnna":14388,"ounced":14389,"Person":14390,"697":14391,"Mur":14392,"urricane":14393,"Ġcolleges":14394,"Ġdich":14395,"avi":14396,"Ġ___":14397,"inite":14398,"Ġtruly":14399,"Ġsz":14400,"System":14401,"bul":14402,"Ġsovere":14403,"ependence":14404,"California":14405,"mercial":14406,"Construction":14407,"would":14408,"Ġmoves":14409,"Ġdivisions":14410,"SECTION":14411,"insula":14412,"Ġradar":14413,"Ġnombre":14414,"------------------------":14415,"Ġtermination":14416,"ped":14417,"ĠBes":14418,"Ġcommitments":14419,"0006":14420,"443":14421,"ĠConduct":14422,"Ġcycles":14423,"ĠBound":14424,"Ġjury":14425,"rices":14426,"Level":14427,"Ġclay":14428,"Ġdepr":14429,"Top":14430,"Ð¾Ð²":14431,"ĠUEFA":14432,"upt":14433,"ĠWAL":14434,"ĠScholars":14435,"ĠTrial":14436,"illet":14437,"CRIPTION":14438,"DRAWN":14439,"kal":14440,"Ġmature":14441,"Ġadvantages":14442,"Ġmeasuring":14443,"Ġescape":14444,"Ġ247":14445,"Ġproduces":14446,"atios":14447,"ĠSoutheast":14448,"Ġemer":14449,"zes":14450,"ĠClerk":14451,"ĠRAD":14452,"etics":14453,"ĠSERVICES":14454,"Ġalgorithms":14455,"Ġsudden":14456,"ĠDEPOSIT":14457,"Ġ277":14458,"Ġinvestigated":14459,"414":14460,"Ġconsistently":14461,"ĠRogers":14462,"Tur":14463,"Ġmagnetic":14464,"aved":14465,"NAL":14466,"Ġvoor":14467,"ĠLuther":14468,"Southern":14469,"Ġprecise":14470,"ĠKings":14471,"ĠChoice":14472,"Ġirre":14473,"Ġhors":14474,"Ġinsufficient":14475,"Ġdollar":14476,"Ġsuspended":14477,"waukee":14478,"taining":14479,"VOTERS":14480,"imated":14481,"GRO":14482,"ĠEP":14483,"Ġsid":14484,"908":14485,"plant":14486,"Ġmandatory":14487,"ĠRud":14488,"ĠImplementation":14489,"ĠUnknown":14490,"ĠTransfer":14491,"Ġadjustments":14492,"ograf":14493,"ĠInstru":14494,"705":14495,"Ġsubscri":14496,"oping":14497,"Mac":14498,"ĠBH":14499,"Ġaxis":14500,"COUNTING":14501,"Ġliteracy":14502,"Ġ1895":14503,"Ġshut":14504,"ĠCF":14505,"ĠRot":14506,"perature":14507,"offs":14508,"stat":14509,"Ġcomputers":14510,"Ġ1850":14511,"Ġwriter":14512,"Ġours":14513,"ĠSie":14514,"Ġtransmit":14515,"ĠÐ¸":14516,"Ġpreference":14517,"Ġham":14518,"469":14519,"Ġelectoral":14520,"emn":14521,"itic":14522,"507":14523,"alta":14524,"ĠBat":14525,"Ġmu":14526,"uminum":14527,"iji":14528,"Ġconsisted":14529,"Ġcomplement":14530,"ĠHandbook":14531,"ĠSUPP":14532,"488":14533,"Ġzugeordnet":14534,"Ġ1897":14535,"Ġdisorder":14536,"eded":14537,"rena":14538,"ĠApproval":14539,"Ġcounts":14540,"Each":14541,
[...]
